{"<s>":0,"<pad>":1,"</s>":2,"<unk>":3,"<mask>":4,"<sep>":5,"<cls>":6,"!":7,"\"":8,"#":9,"$":10,"%":11,"&":12,"'":13,"(":14,")":15,"*":16,"+":17,",":18,"-":19,".":20,"/":21,"0":22,"1":23,"2":24,"3":25,"4":26,"5":27,"6":28,"7":29,"8":30,"9":31,":":32,";":33,"<":34,"=":35,">":36,"?":37,"@":38,"A":39,"B":40,"C":41,"D":42,"E":43,"F":44,"G":45,"H":46,"I":47,"J":48,"K":49,"L":50,"M":51,"N":52,"O":53,"P":54,"Q":55,"R":56,"S":57,"T":58,"U":59,"V":60,"W":61,"X":62,"Y":63,"Z":64,"[":65,"\\":66,"]":67,"^":68,"_":69,"`":70,"a":71,"b":72,"c":73,"d":74,"e":75,"f":76,"g":77,"h":78,"i":79,"j":80,"k":81,"l":82,"m":83,"n":84,"o":85,"p":86,"q":87,"r":88,"s":89,"t":90,"u":91,"v":92,"w":93,"x":94,"y":95,"z":96,"{":97,"|":98,"}":99,"~":100,"¡":101,"¢":102,"£":103,"¤":104,"¥":105,"¦":106,"§":107,"¨":108,"©":109,"ª":110,"«":111,"¬":112,"®":113,"¯":114,"°":115,"±":116,"²":117,"³":118,"´":119,"µ":120,"¶":121,"·":122,"¸":123,"¹":124,"º":125,"»":126,"¼":127,"½":128,"¾":129,"¿":130,"À":131,"Á":132,"Â":133,"Ã":134,"Ä":135,"Å":136,"Æ":137,"Ç":138,"È":139,"É":140,"Ê":141,"Ë":142,"Ì":143,"Í":144,"Î":145,"Ï":146,"Ð":147,"Ñ":148,"Ò":149,"Ó":150,"Ô":151,"Õ":152,"Ö":153,"×":154,"Ø":155,"Ù":156,"Ú":157,"Û":158,"Ü":159,"Ý":160,"Þ":161,"ß":162,"à":163,"á":164,"â":165,"ã":166,"ä":167,"å":168,"æ":169,"ç":170,"è":171,"é":172,"ê":173,"ë":174,"ì":175,"í":176,"î":177,"ï":178,"ð":179,"ñ":180,"ò":181,"ó":182,"ô":183,"õ":184,"ö":185,"÷":186,"ø":187,"ù":188,"ú":189,"û":190,"ü":191,"ý":192,"þ":193,"ÿ":194,"Ā":195,"ā":196,"Ă":197,"ă":198,"Ą":199,"ą":200,"Ć":201,"ć":202,"Ĉ":203,"ĉ":204,"Ċ":205,"ċ":206,"Č":207,"č":208,"Ď":209,"ď":210,"Đ":211,"đ":212,"Ē":213,"ē":214,"Ĕ":215,"ĕ":216,"Ė":217,"ė":218,"Ę":219,"ę":220,"Ě":221,"ě":222,"Ĝ":223,"ĝ":224,"Ğ":225,"ğ":226,"Ġ":227,"ġ":228,"Ģ":229,"ģ":230,"Ĥ":231,"ĥ":232,"Ħ":233,"ħ":234,"Ĩ":235,"ĩ":236,"Ī":237,"ī":238,"Ĭ":239,"ĭ":240,"Į":241,"į":242,"İ":243,"ı":244,"Ĳ":245,"ĳ":246,"Ĵ":247,"ĵ":248,"Ķ":249,"ķ":250,"ĸ":251,"Ĺ":252,"ĺ":253,"Ļ":254,"ļ":255,"Ľ":256,"ľ":257,"Ŀ":258,"ŀ":259,"Ł":260,"ł":261,"Ń":262,"__":263,"ĠĠ":264,"in":265,"on":266,"th":267,"re":268,"Ġc":269,"al":270,"at":271,"Ġp":272,"or":273,"ar":274,"ion":275,"st":276,"Ġa":277,"ĠĠĠĠ":278,"the":279,"is":280,"le":281,"____":282,"Ġe":283,"er":284,"Ġthe":285,"di":286,"Ġo":287,"Ġin":288,"Ġw":289,"Ġf":290,"Ġs":291,"ation":292,"___":293,"he":294,"Ġl":295,"en":296,"Ġ___":297,"om":298,"Ġre":299,"ed":300,"ĠĠĠĠĠĠĠĠ":301,"Ġt":302,"Ġn":303,"ra":304,"hest":305,"Ġwi":306,"Ġis":307,"Ġchest":308,"Ġwith":309,"ort":310,"an":311,"Ġof":312,"Ġm":313,"ĠĊ":314,"ing":315,"________":316,"as":317,"ss":318,"inal":319,"ri":320,"ou":321,"Ġb":322,"il":323,"ac":324,"port":325,"un":326,"ent":327,"gh":328,"um":329,"Ġno":330,"it":331,"Ġreport":332,"omp":333,"ic":334,"Ġh":335,"im":336,"Ġex":337,"ul":338,"ne":339,"Ġv":340,"Ġare":341,"ch":342,"us":343,"Ġd":344,"Ġcomp":345,"ght":346,"dic":347,"id":348,"es":349,"ph":350,"dication":351,"Ġindication":352,"am":353,"ct":354,"ĠĠĠĠĠĠĠĠĠĠĠĠĠĠĠĠ":355,"right":356,"Ġexam":357,"Ġcon":358,"Ġan":359,"neum":360,"ison":361,"arison":362,"ur":363,"ff":364,"ate":365,"dio":366,"em":367,"ination":368,"Ġpneum":369,"final":370,"ol":371,"ab":372,"ro":373,"Ġexamination":374,"ding":375,"ly":376,"ear":377,"Ġle":378,"imp":379,"Ġst":380,"mal":381,"Ġright":382,"ffus":383,"Ġple":384,"________________":385,"ft":386,"Ġto":387,"val":388,"ung":389,"ffusion":390,"inding":391,"Ġcomparison":392,"Ġeffusion":393,"te":394,"ress":395,"Ġra":396,"Ġap":397,"indings":398,"Ġand":399,"eral":400,"gra":401,"able":402,"Ġradio":403,"Ġlung":404,"graph":405,"Ġradiograph":406,"ression":407,"ural":408,"Ġfor":409,"ce":410,"Ġ/":411,"ateral":412,"thor":413,"impression":414,"ue":415,"ang":416,"Ġpleural":417,"ew":418,"Ġ//":419,"Ġcar":420,"Ġleft":421,"ld":422,"ary":423,"ulm":424,"ter":425,"Ġlo":426,"year":427,"ni":428,"ub":429,"Ġpa":430,"onary":431,"ulmonary":432,"ist":433,"que":434,"ormal":435,"ast":436,"ax":437,"thorax":438,"chni":439,"chnique":440,"othorax":441,"et":442,"Ġfindings":443,"Ġ___.":444,"ve":445,"Ġch":446,"Ġyear":447,"iew":448,"Ġold":449,"Ġlateral":450,"Ġthere":451,"Ġun":452,"Ġpneumothorax":453,"ory":454,"ia":455,"edi":456,"Ġeval":457,"Ġte":458,"Ġview":459,"pac":460,"Ġcardi":461,"Ġfr":462,"Ġpro":463,"Ġimpression":464,"Ġse":465,"Ġpulmonary":466,"Ġon":467,"no":468,"ediast":469,"Ġpo":470,"Ġtechnique":471,"istory":472,"Ġhe":473,"Ġnormal":474,"Ġhistory":475,"ema":476,"Ġopac":477,"Ġat":478,"up":479,"lect":480,"Ġfinal":481,"res":482,"cu":483,"Ġbe":484,"Ġcons":485,"Ġtub":486,"ge":487,"ous":488,"onia":489,"Ġinter":490,"Ġpneumonia":491,"ity":492,"ediastinal":493,"Ġed":494,"Ġchang":495,"ilar":496,"Ġtube":497,"Ġlow":498,"ver":499,"Ġedema":500,"Ġsi":501,"ase":502,"ad":503,"there":504,"Ġacu":505,"Ġacute":506,"ated":507,"chang":508,"ĠĠĠĠĠĠĠĠĠĠĠĠĠĠĠĠĠĠĠĠĠĠĠĠĠĠĠĠĠĠĠĠ":509,"changed":510,"Ġport":511,"iti":512,"atelect":513,"asis":514,"oc":515,"art":516,"hou":517,"Ġatelect":518,"Ġde":519,"Ġviews":520,"Ġth":521,"Ġunchanged":522,"________________________________":523,"Ġseen":524,"our":525,"olid":526,"red":527,"Ġcont":528,"Ġatelectasis":529,"ain":530,"olidation":531,"Ġen":532,"if":533,"ud":534,"Ġconsolidation":535,"Ġman":536,"Ġapp":537,"Ġas":538,"Ġmo":539,"ir":540,"ild":541,"rior":542,"ati":543,"Ġsil":544,"houet":545,"Ġsilhouet":546,"per":547,"Ġprior":548,"ze":549,"Ġab":550,"ect":551,"Ġlungs":552,"ours":553,"ement":554,"Ġportable":555,"vid":556,"Ġor":557,"Ġsize":558,"ular":559,"ip":560,"findings":561,"der":562,"Ġcardiom":563,"Ġup":564,"cre":565,"lear":566,"ough":567,"Ġradiographs":568,"Ġfrom":569,"Ġclear":570,"oman":571,"Ġwoman":572,"Ġchange":573,"Ġinterval":574,"ence":575,"Ġpl":576,"Ġnot":577,"Ġmild":578,"ocal":579,"Ġdi":580,"Ġcontours":581,"Ġinf":582,"ities":583,"lo":584,"Ġsilhouette":585,"Ġhas":586,"Ġlower":587,"cess":588,"ared":589,"Ġheart":590,"Ġevalu":591,"ib":592,"ine":593,"sse":594,"udy":595,"Ġstudy":596,"Ġwe":597,"ical":598,"Ġr":599,"Ġevid":600,"Ġprocess":601,"Ġcompared":602,"Ġfocal":603,"ont":604,"Ġplac":605,"ut":606,"Ġlob":607,"olum":608,"ay":609,"Ġevidence":610,"mall":611,"resent":612,"one":613,"asc":614,"Ġvolum":615,"ontal":616,"ure":617,"ition":618,"Ġper":619,"gest":620,"Ġfrontal":621,"Ġcardiac":622,"sition":623,"creas":624,"comp":625,"Ġ___,":626,"Ġpre":627,"ilateral":628,"Ġopacity":629,"ious":630,"Ġ1":631,"derate":632,"Ġstable":633,"Ġal":634,"Ġeffusions":635,"ant":636,"Ġlobe":637,"Ġposition":638,"Ġappear":639,"Ġvasc":640,"Ġsmall":641,"Ġbilateral":642,"atient":643,"Ġnew":644,"li":645,"Ġmediastinal":646,"Ġupper":647,"ren":648,"ke":649,"Ġint":650,"Ġpatient":651,"pulmonary":652,"Ġrec":653,"Ġca":654,"creased":655,"normal":656,"Ġopacities":657,"Ġct":658,"Ġpain":659,"comparison":660,"car":661,"sp":662,"ark":663,"Ġlat":664,"Ġrem":665,"Ġover":666,"Ġg":667,"Ġtip":668,"Ġli":669,"Ġevaluate":670,"Ġplacement":671,"Ġcardio":672,"vious":673,"Ġvolumes":674,"Ġpost":675,"Ġ(":676,"arg":677,"Ġcough":678,"Ġdis":679,"cl":680,"eg":681,"old":682,"rem":683,"Ġsub":684,"Ġmoderate":685,"op":686,"Ġprevious":687,"aly":688,"ever":689,"na":690,"Ġcardiopulmonary":691,"ial":692,"Ġcardiomediastinal":693,"ication":694,"Ġ___-":695,"ther":696,"Ġhem":697,"asilar":698,"thorac":699,"Ġlike":700,"out":701,"ron":702,"Ġabnormal":703,"Ġvascular":704,"ult":705,"ved":706,"Ġlikely":707,"Ġpresent":708,"Ġasse":709,"Ġassess":710,"Ġhy":711,"egaly":712,"sid":713,"os":714,"Ġpna":715,"Ġwithin":716,"Ġmid":717,"ll":718,"larg":719,"rac":720,"Ġsh":721,"ath":722,"Ġnone":723,"Ġcl":724,"low":725,"Ġcardiomegaly":726,"ures":727,"ification":728,"Ġenlarg":729,"cardi":730,"ug":731,"ric":732,"Ġwh":733,"Ġsin":734,"Ġhilar":735,"Ġbase":736,"Ġob":737,"istent":738,"Ġnow":739,"ail":740,"Ġwithout":741,"str":742,"Ġrep":743,"omy":744,"Ġimp":745,"se":746,"arkable":747,"Ġcongest":748,"ive":749,"Ġbeen":750,"imit":751,"Ġnoted":752,"Ġlimit":753,"Ġincreased":754,"remarkable":755,"portable":756,"gm":757,"Ġsince":758,"Ġunremarkable":759,"technique":760,"so":761,"Ġrecent":762,"ening":763,"Ġimpro":764,"Ġag":765,"rib":766,"uct":767,"Ġend":768,"min":769,"cer":770,"aph":771,"Ġline":772,"rache":773,"onstr":774,"ragm":775,"atus":776,"emonstr":777,"theter":778,"Ġwor":779,"aphragm":780,"ied":781,"Ġcongestion":782,"Ġcatheter":783,"ould":784,"Ġplease":785,"________________________________________________________________":786,"inical":787,"ag":788,"______":789,"______________":790,"______________________________________________________________________________":791,"Ġby":792,"ness":793,"Ġstatus":794,"Ġ:":795,"Ġmay":796,"Ġagain":797,"ot":798,"thoracic":799,"Ġj":800,"ection":801,"ates":802,"ich":803,"Ġdemonstr":804,"Ġ.":805,"ach":806,"Ġwere":807,"Ġad":808,"imal":809,"Ġaort":810,"Ġfever":811,"Ġwhich":812,"Ġair":813,"Ġsup":814,"light":815,"ens":816,"Ġthis":817,"ified":818,"sided":819,"Ġlimits":820,"og":821,"Ġhemi":822,"ract":823,"?.":824,"chy":825,"ow":826,"Ġha":827,"Ġchanges":828,"tr":829,"vc":830,"Ġslight":831,"Ġmin":832,"Ġ2":833,"Ġet":834,"Ġread":835,"iltr":836,"ob":837,"Ġter":838,"Ġext":839,"Ġmost":840,"Ġtermin":841,"ingle":842,"arge":843,"not":844,"Ġcm":845,"end":846,"Ġsingle":847,"Ġenlarged":848,"ral":849,"Ġupright":850,"ibasilar":851,"Ġinfiltr":852,"Ġclinical":853,"Ġremain":854,"Ġrib":855,"Ġpic":856,"Ġfract":857,"age":858,"Ġcould":859,"Ġref":860,"Ġpers":861,"tain":862,"ative":863,"itial":864,"uggest":865,"ap":866,"Ġbas":867,"Ġbre":868,"Ġsuggest":869,"ance":870,"iration":871,"Ġsig":872,"Ġtra":873,"ual":874,"Ġmult":875,"Ġwors":876,"and":877,"ale":878,"Ġcan":879,"Ġsvc":880,"Ġother":881,"Ġdue":882,"ior":883,"sseous":884,"cardiac":885,"oun":886,"Ġhave":887,"vic":888,"Ġam":889,"Ġstr":890,"Ġlarge":891,"iz":892,"Ġabnormality":893,"lu":894,"stitial":895,"orm":896,"Ġobtain":897,"Ġsp":898,"Ġstruct":899,"Ġpicc":900,"Ġasp":901,"qu":902,"Ġhyp":903,"lev":904,"ident":905,"Ġinterstitial":906,"Ġremo":907,"clud":908,"Ġres":909,"Ġobtained":910,"ting":911,"Ġosseous":912,"pa":913,"Ġappro":914,"ost":915,"Ġrepresent":916,"Ġi":917,"cern":918,"diaphragm":919,"Ġstructures":920,"ssib":921,"Ġreflect":922,"Ġconcern":923,"ig":924,"Ġwell":925,"all":926,"Ġbibasilar":927,"racheal":928,"Ġinfection":929,"Ġopacification":930,"Ġimproved":931,"Ġappearance":932,"Ġx":933,"Ġbreath":934,"Ġret":935,"ard":936,"omach":937,"ediastin":938,"Ġpm":939,"Ġstomach":940,"ronch":941,"Ġident":942,"astric":943,"ially":944,"Ġhemidiaphragm":945,"Ġlead":946,"Ġalso":947,"ediastinum":948,"Ġproj":949,"Ġslightly":950,"Ġidentified":951,"Ġshort":952,"Ġver":953,"Ġim":954,"Ġthoracic":955,"nal":956,"Ġpossib":957,"Ġconsistent":958,"fter":959,"chest":960,"Ġaspiration":961,"ise":962,"Ġbut":963,"Ġafter":964,"Ġdr":965,"Ġexclud":966,"ass":967,"Ġwas":968,"Ġminimal":969,"stant":970,"iple":971,"Ġear":972,"rom":973,"ove":974,"Ġinfiltrate":975,"ex":976,"rent":977,"Ġk":978,"mo":979,"ĠĠĊ":980,"nea":981,"Ġdef":982,"osis":983,"itt":984,"Ġaorta":985,"otracheal":986,"Ġabove":987,"Ġshortness":988,"Ġpac":989,"ule":990,"vere":991,"Ġworsening":992,"Ġchf":993,"Ġcent":994,"ree":995,"Ġproject":996,"Ġdise":997,"alc":998,"Ġdisease":999,"sion":1000,"rocardiac":1001,"Ġevaluation":1002,"ment":1003,"hilar":1004,"ys":1005,"Ġar":1006,"ronic":1007,"Ġdist":1008,"act":1009,"pneum":1010,"Ġdevic":1011,"Ġng":1012,"Ġexp":1013,"erior":1014,"wise":1015,"Ġabnormalities":1016,"atic":1017,"Ġnod":1018,"fic":1019,"Ġabd":1020,"Ġcentral":1021,"Ġ?.":1022,"ym":1023,"lated":1024,"Ġendotracheal":1025,"Ġbo":1026,"rough":1027,"ction":1028,"luid":1029,"Ġout":1030,"Ġne":1031,"crease":1032,"Ġmore":1033,"nific":1034,"Ġthrough":1035,"Ġterminates":1036,"Ġprovid":1037,"Ġpt":1038,"Ġbronch":1039,"ating":1040,"ak":1041,"Ġsignific":1042,"Ġintub":1043,"Ġmediastinum":1044,"Ġday":1045,"Ġcalc":1046,"tes":1047,"ite":1048,"Ġthan":1049,"Ġbasilar":1050,"Ġchronic":1051,"Ġmultiple":1052,"Ġretrocardiac":1053,"renchy":1054,"Ġprovided":1055,"omm":1056,"Ġfail":1057,"Ġsignificant":1058,"Ġfailure":1059,"Ġster":1060,"ina":1061,"Ġsur":1062,"ogastric":1063,"Ġsilhouettes":1064,"Ġhyper":1065,"Ġabdom":1066,"imilar":1067,"Ġbases":1068,"ysp":1069,"ill":1070,"Ġcarina":1071,"Ġparenchy":1072,"Ġappears":1073,"Ġearli":1074,"unction":1075,"Ġac":1076,"Ġsevere":1077,"Ġpersistent":1078,"ature":1079,"Ġav":1080,"Ġearlier":1081,"Ġfluid":1082,"Ġperf":1083,"ox":1084,"romin":1085,"Ġmildly":1086,"yspnea":1087,"Ġsimilar":1088,"lying":1089,"lung":1090,"ade":1091,"Ġ3":1092,"Ġdyspnea":1093,"Ġvolume":1094,"ome":1095,"Ġptx":1096,"Ġreg":1097,"Ġatri":1098,"Ġsid":1099,"oph":1100,"ns":1101,"Ġmade":1102,"Ġresp":1103,"Ġdiff":1104,"enous":1105,"ized":1106,"Ġresol":1107,"Ġsob":1108,"Ġremains":1109,"Ġconcerning":1110,"Ġintra":1111,"ple":1112,"Ġvascul":1113,"Ġapical":1114,"Ġpromin":1115,"atory":1116,"Ġ,":1117,"wn":1118,"Ġvasculature":1119,"ound":1120,"Ġhypox":1121,"Ġvent":1122,"inf":1123,"ably":1124,"Ġfracture":1125,"Ġdated":1126,"veral":1127,"Ġexcluded":1128,"wet":1129,"ray":1130,"Ġperform":1131,"Ġregion":1132,"Ġvis":1133,"mild":1134,"Ġfem":1135,"vel":1136,"Ġpart":1137,"asogastric":1138,"Ġjunction":1139,"pneumothorax":1140,"Ġcol":1141,"owever":1142,"Ġmark":1143,"Ġdefin":1144,"ced":1145,"ollow":1146,"Ġit":1147,"Ġfree":1148,"Ġkno":1149,"pt":1150,"Ġparenchymal":1151,"Ġotherwise":1152,"Ġelev":1153,"iratory":1154,"iv":1155,"Ġ______________________________________________________________________________":1156,"sis":1157,"Ġem":1158,"Ġthat":1159,"Ġconf":1160,"Ġvenous":1161,"Ġcor":1162,"ommend":1163,"Ġbelow":1164,"etting":1165,"Ġdecreased":1166,"Ġimprov":1167,"Ġprob":1168,"ution":1169,"Ġfemale":1170,"Ġintact":1171,"Ġsubstant":1172,"oma":1173,"Ġsetting":1174,"Ġbet":1175,"pri":1176,"moderate":1177,"priate":1178,"Ġ4":1179,"Ġplace":1180,"ailable":1181,"Ġenlargement":1182,"heart":1183,"Ġloc":1184,"Ġfollow":1185,"Ġavailable":1186,"notomy":1187,"left":1188,"Ġappropriate":1189,"Ġperformed":1190,"Ġwet":1191,"Ġends":1192,"ong":1193,"ker":1194,"Ġdevices":1195,"Ġspine":1196,"urrent":1197,"Ġimag":1198,"tion":1199,"el":1200,"atchy":1201,"ugular":1202,"anded":1203,"Ġmass":1204,"av":1205,"Ġ5":1206,"Ġreas":1207,"Ġdemonstrate":1208,"Ġpossible":1209,"rain":1210,"Ġlevel":1211,"Ġlin":1212,"Ġjugular":1213,"rec":1214,"ortu":1215,"Ġunder":1216,"Ġbac":1217,"ffuse":1218,"Ġnasogastric":1219,"ring":1220,"Ġsternotomy":1221,"line":1222,"quest":1223,"Ġreason":1224,"abg":1225,"lac":1226,"Ġmedi":1227,"Ġmale":1228,"hould":1229,"opd":1230,"Ġany":1231,"Ġshould":1232,"Ġfractures":1233,"Ġaortic":1234,"Ġtortu":1235,"ross":1236,"Ġatrium":1237,"Ġdemonstrated":1238,"Ġincrease":1239,"Ġtop":1240,"Ġleads":1241,"Ġmon":1242,"Ġrecently":1243,"Ġremoval":1244,"iated":1245,"od":1246,"emaker":1247,"lop":1248,"Ġcabg":1249,"Ġdefinite":1250,"gen":1251,"Ġremoved":1252,"cardiom":1253,"velop":1254,"Ġve":1255,"Ġfil":1256,"Ġcopd":1257,"co":1258,"load":1259,"Ġperi":1260,"Ġdiaphragm":1261,"though":1262,"//":1263,"Ġhowever":1264,"renic":1265,"Ġoverload":1266,"reat":1267,"Ġdevelop":1268,"Ġcannot":1269,"Ġvisual":1270,"Ġrecommend":1271,"Ġsc":1272,"verall":1273,"Ġtrache":1274,"Ġpacemaker":1275,"entially":1276,"rh":1277,"pace":1278,"Ġrespiratory":1279,"Ġwhe":1280,"Ġsome":1281,"Ġventric":1282,"question":1283,"Ġknown":1284,"Ġimprovement":1285,"inu":1286,"con":1287,"Ġintubated":1288,"mediastinal":1289,"Ġdiffuse":1290,"Ġdes":1291,"order":1292,"lungs":1293,"Ġang":1294,"Ġcost":1295,"Ġwall":1296,"itis":1297,"ately":1298,"Ġdrain":1299,"Ġfilm":1300,"Ġbetter":1301,"ian":1302,"iss":1303,"ho":1304,"Ġsurg":1305,"ension":1306,"Ġgross":1307,"Ġnodule":1308,"lap":1309,"Ġhypoxia":1310,"Ġinternal":1311,"Ġwid":1312,"ened":1313,"Ġpatchy":1314,"Ġabdomen":1315,"andard":1316,"Ġvisualized":1317,"Ġback":1318,"Ġintrathoracic":1319,"Ġprojecting":1320,"ck":1321,"usion":1322,"Ġstandard":1323,"ittle":1324,"Ġalthough":1325,"ophrenic":1326,"Ġif":1327,"xr":1328,"yp":1329,"hoff":1330,"Ġcostophrenic":1331,"tic":1332,"ame":1333,"Ġpersist":1334,"Ġboth":1335,"Ġcav":1336,"gor":1337,"Ġdob":1338,"Ġareas":1339,"Ġeso":1340,"Ġfall":1341,"Ġesoph":1342,"Ġinfect":1343,"carring":1344,"Ġrev":1345,"ell":1346,"cuss":1347,"xim":1348,"rect":1349,"eval":1350,"eous":1351,"mitt":1352,"Ġcancer":1353,"Ġrelev":1354,"gorg":1355,"Ġrelevant":1356,"Ġloss":1357,"Ġgrossly":1358,"leph":1359,"Ġlittle":1360,"Ġcxr":1361,"Ġhx":1362,"Ġapproxim":1363,"Ġangle":1364,"Ġ8":1365,"Ġengorg":1366,"Ġmet":1367,"cardiomediastinal":1368,"Ġpulm":1369,"creasing":1370,"Ġteleph":1371,"Ġdiscuss":1372,"Ġ10":1373,"Ġapproximately":1374,"Ġrel":1375,"Ġhyperinf":1376,"'s":1377,"emi":1378,"Ġinfectious":1379,"Ġquestion":1380,"Ġwires":1381,"Ġ?":1382,"wo":1383,"Ġexpanded":1384,"cy":1385,"day":1386,"Ġreview":1387,"Ġprobably":1388,"Ġdiscussed":1389,"small":1390,"Ġcalcification":1391,"**":1392,"itor":1393,"Ġass":1394,"space":1395,"oper":1396,"de":1397,"Ġtelephone":1398,"Ġett":1399,"ips":1400,"ek":1401,"phys":1402,"Ġterminating":1403,"Ġprog":1404,"Ġsubstantial":1405,"led":1406,"ony":1407,"Ġapprec":1408,"Ġbasal":1409,"Ġsupport":1410,"Ġoverall":1411,"Ġij":1412,"Ġcours":1413,"Ġsw":1414,"uate":1415,"ostomy":1416,"athy":1417,"Ġobs":1418,"ble":1419,"Ġscarring":1420,"Ġweek":1421,"ick":1422,"Ġcontinu":1423,"Ġairspace":1424,"ran":1425,"itoring":1426,"ĠĠĠĠĠ":1427,"Ġposterior":1428,"Ġemphys":1429,"Ġpreviously":1430,"Ġside":1431,"lateral":1432,"Ġcom":1433,"Ġlinear":1434,"icult":1435,"Ġtubes":1436,"iven":1437,"clav":1438,"Ġunderlying":1439,"Ġ6":1440,"opathy":1441,"clavian":1442,"pleural":1443,"Ġadv":1444,"Ġdistal":1445,"ending":1446,"Ġlym":1447,"Ġbl":1448,"ectomy":1449,"Ġsubclavian":1450,"Ġsuper":1451,"Ġlymph":1452,"Ġcollap":1453,"Ġdifficult":1454,"reater":1455,"Ġincreasing":1456,"Ġdete":1457,"ings":1458,"Ġtortuous":1459,"Ġhi":1460,"Ġhil":1461,"Ġclips":1462,"ight":1463,"Ġborder":1464,"Ġmonitoring":1465,"Ġdens":1466,"erative":1467,"olog":1468,"ma":1469,"Ġtwo":1470,"Ġconsid":1471,"tail":1472,"acent":1473,"Ġmarkings":1474,"Ġbilaterally":1475,"Ġthough":1476,"Ġcontour":1477,"igtail":1478,"Ġ0":1479,"Ġelevation":1480,"Ġ#":1481,"Ġversion":1482,"mitted":1483,"Ġperihilar":1484,"Ġcalcified":1485,"urther":1486,"Ġovert":1487,"Ġemphysema":1488,"Ġgreater":1489,"Ġpigtail":1490,"Ġmedian":1491,"Ġche":1492,"ensive":1493,"uri":1494,"Ġprominent":1495,"Ġcomb":1496,"Ġacc":1497,"dle":1498,"Ġdetect":1499,"ociated":1500,"osed":1501,"jacent":1502,"Ġrule":1503,"Ġthorac":1504,"Ġwould":1505,"Ġthick":1506,"ime":1507,"Ġrequ":1508,"Ġtach":1509,"rial":1510,"ardi":1511,"to":1512,"Ġarea":1513,"Ġmiddle":1514,"cop":1515,"imposed":1516,"Ġpres":1517,"evaluate":1518,"Ġarter":1519,"Ġpositioning":1520,"lete":1521,"Ġpls":1522,"Ġfe":1523,"ected":1524,"Ġshow":1525,"Ġresolution":1526,"use":1527,"tered":1528,"Ġreviewed":1529,"Ġassociated":1530,"Ġstill":1531,"Ġprominence":1532,"Ġfurther":1533,"Ġresid":1534,"Ġhyperinflated":1535,"dy":1536,"Ġsame":1537,"Ġ7":1538,"very":1539,"Ġsigns":1540,"Ġinj":1541,"Ġsemi":1542,"lation":1543,"Ġoverlying":1544,"Ġadjacent":1545,"atible":1546,"Ġinto":1547,"Ġmetast":1548,"ore":1549,"Ġcompatible":1550,"Ġcollapse":1551,"Ġsided":1552,"Ġalong":1553,"Ġ9":1554,"ign":1555,"Ġthickening":1556,"Ġgiven":1557,"Ġsuperimposed":1558,"atrial":1559,"Ġrecommended":1560,"Ġher":1561,"unting":1562,"ifocal":1563,"Ġro":1564,"Ġcombination":1565,"Ġventricle":1566,"laced":1567,"Ġcir":1568,"Ġenter":1569,"cath":1570,"Ġdiffe":1571,"oatrial":1572,"Ġdegen":1573,"ascular":1574,"row":1575,"Ġprojects":1576,"Ġy":1577,"Ġdegenerative":1578,"Ġdetected":1579,"clinical":1580,"Ġdisco":1581,"dist":1582,"Ġconsolidations":1583,"Ġtrans":1584,"lant":1585,"Ġrelative":1586,"Ġdiscovery":1587,"eding":1588,"Ġz":1589,"ount":1590,"Ġnon":1591,"Ġadvan":1592,"Ġvein":1593,"Ġintubation":1594,"esis":1595,"Ġtime":1596,"Ġcavoatrial":1597,"operative":1598,"Ġfi":1599,"Ġqu":1600,"met":1601,"dies":1602,"vascular":1603,"Ġco":1604,"Ġsuperior":1605,"Ġbroncho":1606,"ageal":1607,"ology":1608,"Ġcurrent":1609,"Ġngt":1610,"Ġtiss":1611,"Ġpacer":1612,"Ġextent":1613,"Ġneed":1614,"Ġdemonstrates":1615,"terior":1616,"duct":1617,"nia":1618,"Ġpresenting":1619,"Ġsy":1620,"Ġstent":1621,"ention":1622,"Ġresolved":1623,"Ġdensity":1624,"other":1625,"tle":1626,"rhosis":1627,"Ġchanged":1628,"eration":1629,"ressive":1630,"Ġtoday":1631,"akness":1632,"Ġpersists":1633,"Ġimage":1634,"Ġdays":1635,"Ġabdominal":1636,"Ġresidual":1637,"Ġgra":1638,"Ġso":1639,"Ġess":1640,"Ġcirrhosis":1641,"Ġme":1642,"Ġmultifocal":1643,"Ġbody":1644,"Ġanterior":1645,"ymmet":1646,"Ġweakness":1647,"are":1648,"Ġhead":1649,"Ġenteric":1650,"Ġworsened":1651,"unchanged":1652,"Ġessentially":1653,"ental":1654,"Ġconstant":1655,"uc":1656,"rant":1657,"dition":1658,"Ġ11":1659,"uration":1660,"aneous":1661,"Ġextensive":1662,"Ġrequi":1663,"Ġep":1664,"Ġfevers":1665,"Ġhernia":1666,"Ġtran":1667,"les":1668,"Ġinfiltrates":1669,"ats":1670,"Ġhemithorax":1671,"icardi":1672,"Ġless":1673,"ving":1674,"Ġinsp":1675,"urg":1676,"Ġblunting":1677,"Ġdevice":1678,"Ġval":1679,"Ġdo":1680,"Ġapex":1681,"Ġexclude":1682,"Ġmoderately":1683,"Ġtransp":1684,"Ġmal":1685,"ility":1686,"Ġdisp":1687,"ery":1688,"Ġbony":1689,"Ġmental":1690,"Ġnodular":1691,"pre":1692,"Ġcomplete":1693,"Ġelevated":1694,"Ġtracheostomy":1695,"Ġdecrease":1696,"Ġ___:":1697,"Ġdrainage":1698,"Ġimaged":1699,"Ġsuggesting":1700,"icular":1701,"ulated":1702,"Ġcp":1703,"Ġsuggestive":1704,"Ġweeks":1705,"usp":1706,"eld":1707,"fac":1708,"reak":1709,"ered":1710,"Ġlesion":1711,"Ġsupine":1712,"cond":1713,"Ġassessment":1714,"Ġfield":1715,"Ġengorgement":1716,"Ġpul":1717,"isting":1718,"rack":1719,"Ġsecond":1720,"Ġstu":1721,"Ġdate":1722,"Ġev":1723,"Ġminimally":1724,"Ġfx":1725,"Ġph":1726,"Ġtransplant":1727,"Ġstudies":1728,"avic":1729,"Ġsurfac":1730,"Ġappreci":1731,"ximal":1732,"Ġcalcifications":1733,"Ġpot":1734,"ymmetric":1735,"Ġdesc":1736,"Ġpresents":1737,"inter":1738,"Ġaf":1739,"Ġfib":1740,"Ġquad":1741,"Ġlarg":1742,"Ġlarger":1743,"Ġpneumo":1744,"Ġrelatively":1745,"Ġits":1746,"Ġaltered":1747,"Ġproximal":1748,"Ġcrow":1749,"ering":1750,"Ġmetastatic":1751,"Ġartery":1752,"cut":1753,"sc":1754,"Ġadvanced":1755,"Ġble":1756,"Ġquadrant":1757,"Ġvalve":1758,"enopathy":1759,"zy":1760,".,":1761,"Ġlocation":1762,"ec":1763,"Ġdual":1764,"cutaneous":1765,"existing":1766,"Ġsubtle":1767,"Ġsurfaces":1768,"irm":1769,"bilateral":1770,"Ġcontinued":1771,"Ġproduct":1772,"ward":1773,"Ġcrowding":1774,"icardial":1775,"Ġnodules":1776,"this":1777,"ster":1778,"tation":1779,"lowing":1780,"Ġbronchovascular":1781,"Ġdobhoff":1782,"utes":1783,"Ġpartially":1784,"osition":1785,"Ġconfirm":1786,"air":1787,"rement":1788,"Ġesophag":1789,"Ġcompl":1790,"Ġrequirement":1791,"Ġcta":1792,"Ġcrack":1793,"comparisons":1794,"Ġsusp":1795,"Ġpress":1796,"Ġdisplaced":1797,"reaky":1798,"yt":1799,"Ġminutes":1800,"teb":1801,"Ġextend":1802,"Ġmarked":1803,"Ġsom":1804,"Ġzone":1805,"ormation":1806,"lacement":1807,"bhoff":1808,"Ġdifferen":1809,"Ġcorre":1810,"Ġtissue":1811,"Ġ12":1812,"Ġone":1813,"Ġcheck":1814,"Ġcrackles":1815,"quent":1816,"Ġwho":1817,"Ġneeds":1818,"Ġsyn":1819,"Ġconsidered":1820,"Ġinformation":1821,"Ġportion":1822,"otherwise":1823,"Ġlay":1824,"Ġfl":1825,"thma":1826,"Ġaccent":1827,"Ġpotentially":1828,"Ġexpected":1829,"Ġprogression":1830,"Ġ-":1831,"stable":1832,"hat":1833,"Ġsurgery":1834,"ces":1835,"Ġlimited":1836,"ies":1837,"Ġaeration":1838,"indication":1839,"ribution":1840,"Ġcomparisons":1841,"cardia":1842,"Ġpossibly":1843,"ls":1844,"ewhat":1845,"Ġlayering":1846,"Ġaddition":1847,"Ġverteb":1848,"Ġdobbhoff":1849,"Ġtrace":1850,"side":1851,"py":1852,"Ġobscu":1853,"Ġrelated":1854,"Ġwidening":1855,"Ġhila":1856,"Ġfollowup":1857,"Ġsomewhat":1858,"Ġasthma":1859,"int":1860,"Ġfeeding":1861,"Ġful":1862,"Ġleast":1863,"Ġdeform":1864,"Ġplaced":1865,"Ġvs":1866,"bibasilar":1867,"Ġproductive":1868,"interval":1869,"Ġloculated":1870,"tn":1871,"Ġcourse":1872,"Ġsoft":1873,"Ġextub":1874,"emia":1875,"Ġpan":1876,"Ġhypert":1877,"Ġsubmitted":1878,"Ġtachy":1879,"Ġpressure":1880,"uk":1881,"entesis":1882,"Ġappreciable":1883,"Ġneck":1884,"Ġpar":1885,"Ġpred":1886,"Ġwhen":1887,"orrh":1888,"Ġpass":1889,"Ġsubstantially":1890,"fore":1891,"Ġpericardial":1892,"Ġleuk":1893,"icd":1894,"Ġatt":1895,"Ġsubcutaneous":1896,"Ġafib":1897,"alysis":1898,"set":1899,"Ġamount":1900,"Ġswan":1901,"Ġthese":1902,"mult":1903,"Ġarch":1904,"Ġasymmetric":1905,"new":1906,"Ġhypot":1907,"Ġcad":1908,"oli":1909,"vis":1910,"Ġvery":1911,"rotic":1912,"ertion":1913,"Ġsurgical":1914,"Ġhemorrh":1915,"elling":1916,"Ġrecurrent":1917,"Ġresection":1918,"atal":1919,"sequent":1920,"ile":1921,"Ġwhee":1922,"Ġextends":1923,"Ġrepresents":1924,"arent":1925,"Ġdifferences":1926,"Ġsuggests":1927,"minimal":1928,"ogen":1929,"thoraces":1930,"Ġshoulder":1931,"Ġmedial":1932,"Ġdeveloping":1933,"Ġworse":1934,"phal":1935,"ocyt":1936,"Ġcell":1937,"***":1938,"ift":1939,"Ġapparent":1940,"Ġstro":1941,"Ġradiographic":1942,"Ġpossibility":1943,"osity":1944,"Ġhiatal":1945,"Ġshift":1946,"Ġseiz":1947,"ible":1948,"Ġdevelopment":1949,"Ġonset":1950,"Ġlines":1951,"Ġinv":1952,"Ġtb":1953,"compan":1954,"Ġvats":1955,"Ġborderline":1956,"Ġsecondary":1957,"Ġvertebral":1958,"Ġpostoperative":1959,"Ġparticular":1960,"onent":1961,"ust":1962,"Ġlobes":1963,"Ġtraum":1964,"Ġatrial":1965,"Ġaccompan":1966,"Ġnotification":1967,"Ġhtn":1968,"Ġvesse":1969,"Ġesophagus":1970,"ocytosis":1971,"ital":1972,"Ġcomponent":1973,"Ġimages":1974,"Ġliver":1975,"Ġengorged":1976,"Ġvascularity":1977,"Ġcompressive":1978,"gan":1979,"Ġincl":1980,"Ġscan":1981,"Ġatelectatic":1982,"Ġhere":1983,"Ġhypotension":1984,"Ġrenal":1985,"exp":1986,"pna":1987,"uch":1988,"uries":1989,"Ġinjuries":1990,"Ġho":1991,"cc":1992,"sus":1993,"Ġstroke":1994,"nul":1995,"ops":1996,"Ġsignificantly":1997,"ically":1998,"Ġmidline":1999,"Ġreplacement":2000,"Ġearly":2001,"upright":2002,"uding":2003,"Ġsubsequent":2004,"ization":2005,"oral":2006,"Ġtrachea":2007,"Ġversus":2008,"pen":2009,"rest":2010,"erv":2011,"Ġnear":2012,"please":2013,"Ġtachycardia":2014,"Ġtortuosity":2015,"iny":2016,"Ġog":2017,"Ġprobable":2018,"Ġconflu":2019,"ock":2020,"Ġreflecting":2021,"Ġleukocytosis":2022,"itive":2023,"Ġventricular":2024,"Ġoutside":2025,"pneumonia":2026,"Ġpel":2027,"Ġpresence":2028,"Ġei":2029,"Ġpasses":2030,"struct":2031,"Ġconv":2032,"ising":2033,"Ġhours":2034,"Ġpe":2035,"Ġhigh":2036,"Ġtrach":2037,"ations":2038,"Ġlle":2039,"Ġincluding":2040,"ext":2041,"erated":2042,"Ġclavic":2043,"omin":2044,"Ġinvol":2045,"icated":2046,"ense":2047,"Ġrepair":2048,"Ġbefore":2049,"Ġstreaky":2050,"ogeneous":2051,"Ġpulled":2052,"Ġallowing":2053,"Ġfound":2054,"esoph":2055,"ype":2056,"Ġsternal":2057,"ond":2058,"Ġhypertension":2059,"dicated":2060,"Ġhemorrhage":2061,"sh":2062,"Ġpancre":2063,"icu":2064,"Ġfollowing":2065,"Ġrepe":2066,"Ġassessed":2067,"Ġeti":2068,"Ġdep":2069,"ency":2070,"Ġpath":2071,"Ġpmh":2072,"agno":2073,"Ġesophageal":2074,"Ġinspiration":2075,"Ġall":2076,"Ġaccompanied":2077,"Ġmy":2078,"Ġresult":2079,"pro":2080,"Ġvessels":2081,"rosc":2082,"cope":2083,"itone":2084,"Ġmm":2085,"Ġround":2086,"Ġpneumothoraces":2087,"chi":2088,"terogeneous":2089,"Ġcomm":2090,"Ġshows":2091,"Ġwed":2092,"notification":2093,"Ġlong":2094,"Ġaccentu":2095,"Ġthorax":2096,"like":2097,"Ġdiagno":2098,"ganz":2099,"Ġams":2100,"ful":2101,"oscop":2102,"Ġpect":2103,"Ġfiss":2104,"Ġappreciated":2105,"Ġwheez":2106,"ecif":2107,"Ġmain":2108,"Ġpredomin":2109,"ator":2110,"Ġabs":2111,"cin":2112,"Ġnote":2113,"adenopathy":2114,"Ġseveral":2115,"Ġexac":2116,"surg":2117,"Ġtiny":2118,"Ġarrest":2119,"Ġhep":2120,"Ġsep":2121,"uring":2122,"Ġgen":2123,"Ġdeg":2124,"Ġsever":2125,"Ġthoracentesis":2126,"owel":2127,"Ġbreast":2128,"Ġrepeat":2129,"Ġlymphadenopathy":2130,"cept":2131,"Ġcorrect":2132,"Ġexacer":2133,"vr":2134,"Ġseverity":2135,"Ġexacerb":2136,"Ġcompression":2137,"Ġpelvis":2138,"Ġinclud":2139,"Ġdegree":2140,"ury":2141,"ere":2142,"resp":2143,"history":2144,"ined":2145,"Ġeither":2146,"Ġetiology":2147,"Ġexertion":2148,"Ġlobectomy":2149,"Ġadmitted":2150,"rosis":2151,"ympt":2152,"ansion":2153,"Ġmalign":2154,"let":2155,"esophageal":2156,"surgical":2157,"Ġmight":2158,"we":2159,"rd":2160,"Ġimaging":2161,"Ġswelling":2162,"round":2163,"lerotic":2164,"ymptom":2165,"Ġinjury":2166,"sub":2167,"Ġobscured":2168,"Ġtor":2169,"Ġreflects":2170,"Ġtype":2171,"Ġpneumon":2172,"Ġdistress":2173,"Ġtachyp":2174,"oliosis":2175,"cephal":2176,"Ġgastric":2177,"Ġevaluated":2178,"Ġbowel":2179,"Ġconfluent":2180,"sess":2181,"Ġdescending":2182,"ning":2183,"Ġdeveloped":2184,"again":2185,"Ġknob":2186,"pm":2187,"Ġsinus":2188,"omediastinum":2189,"Ġperiph":2190,"Ġes":2191,"ler":2192,"multiple":2193,"Ġonly":2194,"Ġtorso":2195,"Ġbleed":2196,"Ġmonth":2197,"Ġshock":2198,"Ġexacerbation":2199,"Ġfully":2200,"increased":2201,"Ġwheezing":2202,"ware":2203,"xp":2204,"severe":2205,"ris":2206,"Ġhard":2207,"otic":2208,"Ġcourses":2209,"Ġwedge":2210,"Ġpectoral":2211,"Ġpresum":2212,"Ġtrauma":2213,"Ġparticularly":2214,"distribution":2215,"Ġling":2216,"however":2217,"iting":2218,"Ġadditional":2219,"opt":2220,"Ġgranul":2221,"Ġclinically":2222,"Ġexcept":2223,"ause":2224,"Ġcompletely":2225,"bony":2226,"Ġane":2227,"Ġvia":2228,"atitis":2229,"rahilar":2230,"ronchial":2231,"Ġextending":2232,"Ġesrd":2233,"Ġhazy":2234,"Ġhel":2235,"ula":2236,"lower":2237,"Ġsymptom":2238,"Ġcontinues":2239,"Ġvisible":2240,"pread":2241,"espread":2242,"Ġhosp":2243,"ones":2244,"30":2245,"Ġdecomp":2246,"inc":2247,"ute":2248,"Ġpneumomediastinum":2249,"bar":2250,"def":2251,"Ġobstruct":2252,"Ġcommun":2253,"Ġhelp":2254,"Ġcongestive":2255,"Ġmvc":2256,"Ġbi":2257,"Ġgast":2258,"otomy":2259,"00":2260,"lead":2261,"Ġhyd":2262,"Ġcurrently":2263,"tis":2264,"Ġevident":2265,"Ġlast":2266,"Ġsyncope":2267,"Ġcorrelation":2268,"cinoma":2269,"Ġnewly":2270,"Ġhospital":2271,"Ġheterogeneous":2272,"Ġtachypnea":2273,"Ġpleur":2274,"ressed":2275,"Ġpathology":2276,"rill":2277,"ended":2278,"Ġsepsis":2279,"oh":2280,"Ġextrem":2281,"Ġinferior":2282,"Ġasc":2283,"inct":2284,"iled":2285,"Ġpleuri":2286,"lin":2287,"omiting":2288,"Ġhardware":2289,"Ġaspect":2290,"Ġdeformity":2291,"Ġdense":2292,"ulation":2293,"Ġbra":2294,"Ġrepresenting":2295,"rapy":2296,"Ġpast":2297,"olar":2298,"Ġparenchyma":2299,"oscopy":2300,"Ġlymphoma":2301,"Ġcv":2302,"Ġhydro":2303,"Ġinvolving":2304,"ors":2305,"last":2306,"ater":2307,"Ġcarinal":2308,"pulm":2309,"acter":2310,"Ġventil":2311,"bo":2312,"Ġobsc":2313,"Ġsymptoms":2314,"therosc":2315,"Ġpleuritic":2316,"Ġtransf":2317,"reatment":2318,"iness":2319,"ards":2320,"opac":2321,"Ġpoor":2322,"Ġworris":2323,"Ġax":2324,"pers":2325,"Ġworrisome":2326,"Ġpal":2327,"itral":2328,"Ġwidened":2329,"Ġjust":2330,"Ġindic":2331,"mental":2332,"cont":2333,"ween":2334,"Ġphone":2335,"Ġredistribution":2336,"Ġvomiting":2337,"Ġcomplication":2338,"Ġchemo":2339,"ole":2340,"Ġhum":2341,"Ġbetween":2342,"Ġhypere":2343,"ills":2344,"olic":2345,"Ġminor":2346,"Ġimproving":2347,"Ġseizure":2348,"Ġred":2349,"Ġrot":2350,"Ġtak":2351,"maller":2352,"Ġreposition":2353,"Ġhyperexp":2354,"chf":2355,"Ġfissure":2356,"Ġluc":2357,"Ġsept":2358,"Ġaxill":2359,"assess":2360,"Ġtreatment":2361,"Ġradi":2362,"Ġribs":2363,"Ġbronchi":2364,"ep":2365,"Ġfinding":2366,"Ġhemat":2367,"Ġcaus":2368,"seg":2369,"ti":2370,"recommend":2371,"Ġthroughout":2372,"distinct":2373,"persistent":2374,"Ġhad":2375,"Ġavr":2376,"ribed":2377,"Ġdic":2378,"segmental":2379,"Ġser":2380,"ally":2381,"rely":2382,"Ġmitral":2383,"Ġdm":2384,"therosclerotic":2385,"Ġhelpful":2386,"defined":2387,"Ġards":2388,"Ġsmaller":2389,"Ġdesat":2390,"Ġago":2391,"Ġconfusion":2392,"ancy":2393,"Ġdating":2394,"Ġill":2395,"asal":2396,"Ġpron":2397,"ste":2398,"Ġcerv":2399,"aracter":2400,"ounced":2401,"Ġrounded":2402,"Ġcervical":2403,"Ġgastro":2404,"ounds":2405,"xy":2406,"ber":2407,"Ġpronounced":2408,"ng":2409,"Ġmr":2410,"att":2411,"Ġwidespread":2412,"nee":2413,"agg":2414,"dra":2415,"Ġdedicated":2416,"Ġprojection":2417,"Ġextubated":2418,"Ġetoh":2419,"ysis":2420,"Ġ***":2421,"king":2422,"large":2423,"Ġcharacter":2424,"Ġcorresp":2425,"way":2426,"roid":2427,"utum":2428,"Ġrotation":2429,"Ġicd":2430,"Ġpositioned":2431,"Ġexpl":2432,"Ġsat":2433,"Ġangles":2434,"Ġge":2435,"patient":2436,"Ġwithdra":2437,"Ġinflated":2438,"Ġoxy":2439,"Ġoxygen":2440,"Ġ___%":2441,"Ġknee":2442,"sed":2443,"Ġsputum":2444,"Ġbiops":2445,"Ġexagg":2446,"lood":2447,"Ġpositions":2448,"erect":2449,"veolar":2450,"ziness":2451,"Ġsmo":2452,"Ġsounds":2453,"Ġcollect":2454,"Ġpalp":2455,"cedure":2456,"Ġdecompens":2457,"Ġsubsegmental":2458,"ectasis":2459,"Ġdiagnosis":2460,"Ġemb":2461,"Ġpredominant":2462,"chan":2463,"Ġinspiratory":2464,"yroid":2465,"Ġcoronary":2466,"ms":2467,"Ġplacements":2468,"uation":2469,"Ġrotated":2470,"patchy":2471,"Ġchills":2472,"Ġrefer":2473,"atig":2474,"Ġopacifications":2475,"ester":2476,"remia":2477,"rani":2478,"Ġperipheral":2479,"ret":2480,"esterday":2481,"Ġenti":2482,"clusion":2483,"Ġfields":2484,"Ġpreced":2485,"clear":2486,"Ġnause":2487,"atigue":2488,"Ġnausea":2489,"Ġindistinct":2490,"Ġmalignancy":2491,"Ġblood":2492,"Ġyesterday":2493,"overall":2494,"iguration":2495,"incing":2496,"Ġairway":2497,"Ġconvincing":2498,"Ġalveolar":2499,"ices":2500,"ide":2501,"xt":2502,"Ġfusion":2503,"Ġins":2504,"ypical":2505,"Ġdilated":2506,"Ġdictation":2507,"Ġpreceding":2508,"Ġgo":2509,"Ġdialysis":2510,"hed":2511,"Ġiv":2512,"Ġheal":2513,"Ġconfiguration":2514,"lat":2515,"Ġsit":2516,"Ġgeneral":2517,"ged":2518,"Ġunf":2519,"Ġhemopt":2520,"Ġinfrahilar":2521,"Ġsuspected":2522,"Ġadd":2523,"kno":2524,"Ġseptic":2525,"Ġfatigue":2526,"Ġsuspic":2527,"ective":2528,"Ġrll":2529,"known":2530,"Ġlap":2531,"Ġhiv":2532,"Ġhilum":2533,"Ġdifferent":2534,"Ġimm":2535,"Ġcause":2536,"Ġhematoma":2537,"Ġattention":2538,"Ġdescribed":2539,"Ġbiopsy":2540,"aort":2541,"continu":2542,"Ġclo":2543,"Ġfibrosis":2544,"Ġbronchiectasis":2545,"Ġlll":2546,"Ġcollection":2547,"Ġ15":2548,"Ġprogressed":2549,"oint":2550,"urgent":2551,"Ġepis":2552,"Ġscoliosis":2553,"tern":2554,"Ġhemoptysis":2555,"Ġoste":2556,"nasogastric":2557,"ibasal":2558,"Ġtransfer":2559,"Ġbr":2560,"Ġdiss":2561,"Ġreported":2562,"Ġlum":2563,"Ġconsider":2564,"Ġclearly":2565,"Ġeff":2566,"Ġflatt":2567,"Ġbronchial":2568,"retrocardiac":2569,"endum":2570,"Ġrece":2571,"urys":2572,"ration":2573,"Ġnext":2574,"Ġsuggested":2575,"Ġyo":2576,"sup":2577,"che":2578,"Ġjoint":2579,"Ġhyperinflation":2580,"Ġact":2581,"expanded":2582,"Ġmarkedly":2583,"Ġaddendum":2584,"previous":2585,"Ġsar":2586,"Ġcolon":2587,"mia":2588,"stem":2589,"ues":2590,"ossib":2591,"Ġpancreatitis":2592,"amber":2593,"Ġlucency":2594,"ctomy":2595,"uff":2596,"Ġsuch":2597,"Ġdiures":2598,"Ġtaken":2599,"Ġphys":2600,"acute":2601,"Ġepig":2602,"Ġpod":2603,"Ġprocedure":2604,"Ġepisod":2605,"aged":2606,"cephalic":2607,"Ġhemothorax":2608,"ene":2609,"coid":2610,"own":2611,"Ġchole":2612,"late":2613,"ca":2614,"Ġfoc":2615,"specif":2616,"Ġpartial":2617,"Ġcle":2618,"Ġlonger":2619,"rast":2620,"bc":2621,"tub":2622,"rence":2623,"ipple":2624,"Ġgas":2625,"ission":2626,"Ġlesions":2627,"Ġcomplications":2628,"rop":2629,"Ġunclear":2630,"cardiomegaly":2631,"ameter":2632,"Ġinc":2633,"bri":2634,"Ġperib":2635,"Ġmarg":2636,"pe":2637,"Ġtem":2638,"operitone":2639,"Ġspace":2640,"Ġadenopathy":2641,"chio":2642,"Ġwar":2643,"Ġdiameter":2644,"Ġextubation":2645,"Ġhd":2646,"chiocephalic":2647,"enter":2648,"Ġatherosclerotic":2649,"Ġthyroid":2650,"termin":2651,"10":2652,"Ġcleared":2653,"upper":2654,"ases":2655,"Ġocc":2656,"sternal":2657,"Ġspinal":2658,"effusion":2659,"linear":2660,"Ġplate":2661,"position":2662,"Ġwork":2663,"Ġcou":2664,"cyst":2665,"Ġaneurys":2666,"Ġapices":2667,"oid":2668,"Ġogt":2669,"Ġepigastric":2670,"lasty":2671,"Ġbrachiocephalic":2672,"iap":2673,"iapical":2674,"current":2675,"ose":2676,"Ġdiaphragms":2677,"Ġneut":2678,"enteric":2679,"Ġradiation":2680,"Ġdirect":2681,"Ġbronchus":2682,"entional":2683,"continued":2684,"Ġpaged":2685,"paque":2686,"Ġhypoxemia":2687,"Ġprogressive":2688,"Ġhemo":2689,"slight":2690,"Ġalign":2691,"Ġwater":2692,"Ġbru":2693,"Ġcommunicated":2694,"Ġsarcoid":2695,"Ġdistended":2696,"Ġmuch":2697,"ah":2698,"rillation":2699,"Ġdoes":2700,"ossible":2701,"Ġpat":2702,"adow":2703,"Ġpos":2704,"spine":2705,"Ġbruising":2706,"Ġfore":2707,"Ġfibrillation":2708,"Ġdec":2709,"Ġintermitt":2710,"Ġaccentuated":2711,"venous":2712,"atelectasis":2713,"avicular":2714,"ted":2715,"Ġshadow":2716,"Ġwbc":2717,"Ġdoe":2718,"Ġcontrast":2719,"tra":2720,"Ġbal":2721,"Ġregions":2722,"Ġentirely":2723,"Ġpresumed":2724,"imaged":2725,"ived":2726,"Ġtissues":2727,"Ġsegm":2728,"Ġmyel":2729,"Ġevent":2730,"most":2731,"Ġintermittent":2732,"endotracheal":2733,"Ġfat":2734,"Ġobli":2735,"45":2736,"ropen":2737,"12":2738,"Ġadm":2739,"Ġreceived":2740,"ised":2741,"Ġck":2742,"idne":2743,"Ġbeing":2744,"aortic":2745,"Ġsite":2746,"Ġextremity":2747,"operitoneum":2748,"Ġperibronchial":2749,"Ġatypical":2750,"Ġdisc":2751,"Ġobstruction":2752,"Ġmargin":2753,"Ġdissection":2754,"15":2755,"teremia":2756,"Ġpalpit":2757,"Ġoverli":2758,"Ġir":2759,"Ġdiuresis":2760,"Ġclavicle":2761,"Ġhc":2762,"Ġpresented":2763,"ocar":2764,"Ġreferring":2765,"Ġneutropen":2766,"ry":2767,"Ġremaining":2768,"Ġforeign":2769,"Ġmor":2770,"idney":2771,"Ġlingula":2772,"Ġmyeloma":2773,"Ġbacteremia":2774,"yopathy":2775,"Ġrelate":2776,"Ġcardiomyopathy":2777,"wors":2778,"Ġhealed":2779,"ague":2780,"Ġdeformities":2781,"Ġlaterally":2782,"Ġwithdrawn":2783,"post":2784,"Ġcoiled":2785,"20":2786,"Ġpredominantly":2787,"Ġdistention":2788,"Ġosh":2789,"asp":2790,"Ġgastroesophageal":2791,"Ġrh":2792,"cum":2793,"adin":2794,"determin":2795,"Ġurgent":2796,"cm":2797,"pite":2798,"madin":2799,"emonstrated":2800,"50":2801,"Ġterminate":2802,"Ġhumeral":2803,"Ġdown":2804,"Ġexplain":2805,"Ġpalpitations":2806,"ument":2807,"rank":2808,"Ġckd":2809,"Ġbene":2810,"Ġtracheal":2811,"aint":2812,"Ġabsence":2813,"Ġhemidiaphragms":2814,"Ġabscess":2815,"Ġtension":2816,"Ġcholecyst":2817,"ilevel":2818,"diffuse":2819,"Ġaml":2820,"zyg":2821,"loon":2822,"ground":2823,"prior":2824,"Ġfrank":2825,"complete":2826,"Ġstri":2827,"Ġcoumadin":2828,"Ġballoon":2829,"pd":2830,"Ġdiffusely":2831,"itation":2832,"olded":2833,"fluid":2834,"zziness":2835,"40":2836,"Ġkidney":2837,"ena":2838,"cons":2839,"Ġpositive":2840,"border":2841,"Ġcorrespond":2842,"determinate":2843,"these":2844,"borderline":2845,"sthe":2846,"sure":2847,"Ġfocus":2848,"Ġactive":2849,"Ġadmission":2850,"genic":2851,"ord":2852,"Ġorogastric":2853,"Ġten":2854,"rays":2855,"Ġpneumoperitoneum":2856,"und":2857,"atous":2858,"Ġventilation":2859,"worsening":2860,"Ġpreop":2861,"Ġoff":2862,"Ġpull":2863,"Ġorig":2864,"Ġcount":2865,"Ġdizziness":2866,"Ġdesaturation":2867,"Ġinitial":2868,"Ġcomplicated":2869,"iring":2870,"Ġadvanc":2871,"go":2872,"term":2873,"itoneal":2874,"Ġhypoxic":2875,"ash":2876,"Ġdespite":2877,"Ġexams":2878,"log":2879,"kin":2880,"calc":2881,"anding":2882,"Ġmi":2883,"ocument":2884,"Ġsegment":2885,"Ġflattening":2886,"Ġopt":2887,"ician":2888,"Ġdocument":2889,"Ġbibasal":2890,"ump":2891,"Ġobscuration":2892,"Ġposteriorly":2893,"infiltr":2894,"Ġvena":2895,"Ġrul":2896,"Ġcava":2897,"Ġshe":2898,"Ġtransferred":2899,"Ġgranuloma":2900,"Ġbeneath":2901,"Ġel":2902,"Ġlies":2903,"-___":2904,"Ġazyg":2905,"Ġcompare":2906,"Ġappropriately":2907,"Ġwire":2908,"est":2909,"ribut":2910,"Ġcur":2911,"lectomy":2912,"Ġpneumonitis":2913,"Ġpet":2914,"),":2915,"Ġnotably":2916,"Ġradiopaque":2917,"Ġbleeding":2918,"Ġthree":2919,"Ġmechan":2920,"ocardi":2921,"Ġop":2922,"Ġgi":2923,"Ġbronchoscopy":2924,"yond":2925,"Ġmedic":2926,"Ġmvr":2927,"Ġbeyond":2928,"Ġfac":2929,"consolidation":2930,"Ġdou":2931,"Ġpancreatic":2932,"Ġindeterminate":2933,"Ġarm":2934,"Ġsynd":2935,"Ġresolving":2936,"Ġsee":2937,"Ġwhite":2938,"Ġnipple":2939,"rome":2940,"Ġ14":2941,"Ġdrains":2942,"Ġ16":2943,"Ġlocal":2944,"possible":2945,"Ġ13":2946,"Ġconventional":2947,"Ġhilus":2948,"Ġmuc":2949,"Ġdemonstrating":2950,"ging":2951,"Ġaneurysm":2952,"Ġdistribution":2953,"dh":2954,"onic":2955,"Ġgranulom":2956,"Ġembol":2957,"ons":2958,"Ġretract":2959,"Ġsah":2960,"11":2961,"equ":2962,"Ġhr":2963,"Ġtemp":2964,"Ġdecompensation":2965,"Ġcarcinoma":2966,"Ġfilms":2967,"Ġphysician":2968,"Ġdensities":2969,"Ġmonths":2970,"brile":2971,"Ġrequiring":2972,"Ġunfolded":2973,"reg":2974,"Ġma":2975,"Ġmechanical":2976,"Ġsyndrome":2977,"Ġascending":2978,"Ġaerated":2979,"going":2980,"Ġseizures":2981,"Ġreticular":2982,"Ġsten":2983,"Ġabout":2984,"Ġbiapical":2985,"Ġdev":2986,"Ġcoursing":2987,"Ġbronchogra":2988,"Ġsuspicious":2989,"Ġmeas":2990,"aise":2991,"Ġrightward":2992,"rit":2993,"Ġant":2994,"Ġradiolog":2995,"Ġtips":2996,"Ġdepend":2997,"iation":2998,"Ġincluded":2999,"Ġgrade":3000,"Ġfull":3001,"Ġaxillary":3002,"Ġopen":3003,"Ġrecommendation":3004,"ises":3005,"Ġstage":3006,"Ġaden":3007,"Ġresults":3008,"Ġweight":3009,"Ġsour":3010,"Ġcrani":3011,"Ġalco":3012,"Ġalcoh":3013,"cent":3014,"Ġspecif":3015,"itus":3016,"Ġloops":3017,"therapy":3018,"diaphragmatic":3019,"onchi":3020,"ocarcinoma":3021,"leads":3022,"Ġdys":3023,"Ġesp":3024,"Ġaside":3025,"Ġvague":3026,"focal":3027,"yst":3028,"Ġbackground":3029,"Ġadvised":3030,"Ġquestionable":3031,"Ġraises":3032,"Ġami":3033,"medi":3034,"Ġef":3035,"ind":3036,"Ġcvl":3037,"Ġoptimal":3038,"05":3039,"abet":3040,"ecially":3041,"chronic":3042,"Ġbyp":3043,"pyema":3044,"fe":3045,"Ġmalaise":3046,"cp":3047,"Ġbypass":3048,"Ġconcurrent":3049,"Ġperfor":3050,"Ġlumbar":3051,"Ġppm":3052,"infiltrate":3053,"promin":3054,"Ġfund":3055,"Ġtherapy":3056,"rectomy":3057,"Ġpattern":3058,"Ġstenosis":3059,"Ġfour":3060,"Ġsource":3061,"Ġindistinctness":3062,"Ġespecially":3063,"Ġcorrelate":3064,"osseous":3065,"aspiration":3066,"Ġile":3067,"ache":3068,"Ġpleurx":3069,"Ġaicd":3070,"ision":3071,"Ġimmun":3072,"Ġtender":3073,"Ġgraft":3074,"emin":3075,"arp":3076,"Ġconsp":3077,"Ġthoracotomy":3078,"Ġhepatic":3079,"cretion":3080,"dis":3081,"ull":3082,"ocarditis":3083,"Ġleftward":3084,"Ġexaggerated":3085,"25":3086,"Ġrepositioned":3087,"Ġbone":3088,"ism":3089,"Ġsens":3090,"Ġdiabet":3091,"Ġpump":3092,"Ġproper":3093,"Ġhyperexpansion":3094,"specific":3095,"Ġzones":3096,"Ġpla":3097,"Ġempyema":3098,"Ġconspicu":3099,"55":3100,"Ġrespective":3101,"Ġgood":3102,"erc":3103,"Ġrequest":3104,"Ġbronchograms":3105,"Ġcontusion":3106,"Ġclearing":3107,"Ġhip":3108,"Ġreplaced":3109,"Ġremainder":3110,"Ġinlet":3111,"dialysis":3112,"Ġsecretion":3113,"amm":3114,"Ġepisode":3115,"Ġcuff":3116,"Ġmassive":3117,"Ġsix":3118,"vt":3119,"regular":3120,"Ġlul":3121,"Ġending":3122,"wid":3123,"Ġsharp":3124,"Ġoblique":3125,"35":3126,"olumbar":3127,"Ġfebrile":3128,"here":3129,"ven":3130,"Ġhf":3131,"Ġaccentuate":3132,"Ġsdh":3133,"Ġchemotherapy":3134,"Ġbones":3135,"amp":3136,"Ġpacing":3137,"ternal":3138,"Ġarteries":3139,"avr":3140,"Ġendocarditis":3141,"atracheal":3142,"aps":3143,"Ġvar":3144,"ulc":3145,"Ġorigin":3146,"rol":3147,"Ġsulc":3148,"Ġseries":3149,"Ġmedical":3150,"Ġveins":3151,"allowing":3152,"Ġrecur":3153,"Ġ05":3154,"Ġhyperexpanded":3155,"Ġpol":3156,"Ġcal":3157,"Ġtre":3158,"Ġmarker":3159,"Ġpn":3160,"Ġdefinitive":3161,"Ġmetastases":3162,"mic":3163,"Ġdet":3164,"yn":3165,"Ġdifferential":3166,"fact":3167,"Ġclavicular":3168,"Ġsecretions":3169,"agectomy":3170,"Ġparatracheal":3171,"Ġ___/":3172,"Ġcardiogenic":3173,"bl":3174,"Ġwhether":3175,"Ġnum":3176,"odar":3177,"Ġalmost":3178,"peritoneal":3179,"ptx":3180,"Ġleg":3181,"Ġtenderness":3182,"ĠĠĠĊ":3183,"isfact":3184,"Ġ17":3185,"ith":3186,"Ġmultilevel":3187,"Ġbaseline":3188,"ales":3189,"attered":3190,"Ġische":3191,"irst":3192,"Ġlingular":3193,"two":3194,"08":3195,"odarone":3196,"streaky":3197,"impro":3198,"Ġdiaphragmatic":3199,"Ġesophagectomy":3200,"ient":3201,"abd":3202,"Ġhome":3203,"Ġppd":3204,"Ġlocated":3205,"Ġpriors":3206,"mid":3207,"Ġconsolid":3208,"verse":3209,"Ġsubdiaphragmatic":3210,"du":3211,"Ġprosthe":3212,"Ġazygos":3213,"Ġce":3214,"Ġelong":3215,"Ġthoracolumbar":3216,"Ġoverlies":3217,"Ġsut":3218,"Ġconve":3219,"17":3220,"Ġsbo":3221,"isfactory":3222,"previously":3223,"18":3224,"Ġart":3225,"ired":3226,"Ġincomplete":3227,"evaluation":3228,"haps":3229,"Ġbrain":3230,"Ġwhere":3231,"oplasty":3232,"Ġnur":3233,"den":3234,"ercul":3235,"Ġfirst":3236,"Ġcardiopulm":3237,"extensive":3238,"Ġbodies":3239,"Ġamiodarone":3240,"allow":3241,"trache":3242,"ewhere":3243,"Ġmasses":3244,"Ġexternal":3245,"Ġconspicuous":3246,"54":3247,"Ġaccess":3248,"expansion":3249,"ervation":3250,"deg":3251,"abp":3252,"mediastinum":3253,"37":3254,"Ġobscuring":3255,"hy":3256,"given":3257,"unt":3258,"Ġantib":3259,"Ġexaminations":3260,"Ġcoil":3261,"Ġdependent":3262,"lamm":3263,"Ġpresumably":3264,"Ġadvancement":3265,"vement":3266,"Ġrhonchi":3267,"Ġleak":3268,"subtle":3269,"26":3270,"Ġhemodialysis":3271,"Ġpmhx":3272,"46":3273,"ifact":3274,"47":3275,"rim":3276,"Ġgeneralized":3277,"Ġperhaps":3278,"Ġobservation":3279,"Ġsuggestion":3280,"Ġaxilla":3281,"Ġtreated":3282,"14":3283,"Ġtubercul":3284,"Ġfundus":3285,"ites":3286,"Ġneur":3287,"bt":3288,"Ġtight":3289,"Ġtoward":3290,"38":3291,"Ġsupra":3292,"compared":3293,"57":3294,"ability":3295,"Ġ20":3296,"Ġinfar":3297,"Ġapproach":3298,"56":3299,"Ġcharacterized":3300,"nel":3301,"its":3302,"emic":3303,"Ġbest":3304,"Ġcoar":3305,"Ġsatisfactory":3306,"Ġredemonstrated":3307,"Ġsinuses":3308,"23":3309,"Ġns":3310,"06":3311,"29":3312,"53":3313,"ques":3314,"lyc":3315,"Ġsign":3316,"iotic":3317,"with":3318,"Ġiabp":3319,"Ġintraperitoneal":3320,"ying":3321,"07":3322,"Ġmorning":3323,"02":3324,"Ġantibiotic":3325,"Ġhld":3326,"Ġtightness":3327,"22":3328,"umor":3329,"Ġbiv":3330,"04":3331,"Ġheadache":3332,"Ġincident":3333,"len":3334,"Ġcva":3335,"Ġdiabetes":3336,"Ġmidlung":3337,"19":3338,"59":3339,"Ġbreathing":3340,"ili":3341,"entric":3342,"opacity":3343,"Ġiph":3344,"Ġuse":3345,"28":3346,"yph":3347,"Ġ08":3348,"intub":3349,"Ġirregular":3350,"Ġartifact":3351,"ird":3352,"Ġtransverse":3353,"Ġhydropneumothorax":3354,"degen":3355,"Ġincompletely":3356,"Ġappe":3357,"degenerative":3358,"scarring":3359,"Ġeven":3360,"stemi":3361,"Ġunknown":3362,"Ġcholecystectomy":3363,"Ġseverely":3364,"ĠĠĠ":3365,"accum":3366,"Ġappreciably":3367,"16":3368,"Ġsmoking":3369,"48":3370,"Ġplug":3371,"ka":3372,"24":3373,"44":3374,"Ġtransvenous":3375,"prob":3376,"romb":3377,"odesis":3378,"49":3379,"09":3380,"Ġparts":3381,"Ġhypo":3382,"Ġneph":3383,"Ġcatheters":3384,"27":3385,"tip":3386,"Ġtumor":3387,"39":3388,"Ġnode":3389,"Ġsitu":3390,"42":3391,"ementia":3392,"Ġappeared":3393,"Ġabuse":3394,"Ġevol":3395,"Ġrest":3396,"Ġobvious":3397,"Ġground":3398,"Ġwhile":3399,"Ġdeviation":3400,"tube":3401,"Ġradiology":3402,"Ġongoing":3403,"opacification":3404,"Ġsarcoidosis":3405,"Ġind":3406,"tracheostomy":3407,"Ġchin":3408,"recommendation":3409,"ĠĠĠĠĠĊ":3410,"median":3411,"Ġsulcus":3412,"13":3413,"lass":3414,"inflated":3415,"sa":3416,"Ġnstemi":3417,"Ġobscures":3418,"lycemia":3419,"41":3420,"Ġmedially":3421,"Ġ18":3422,"Ġyears":3423,"ailed":3424,"blunting":3425,"follow":3426,"loc":3427,"phrenic":3428,"lex":3429,"Ġfew":3430,"Ġlobar":3431,"31":3432,"Ġul":3433,"36":3434,"clavicular":3435,"21":3436,"entricular":3437,"32":3438,"Ġpleurodesis":3439,"itary":3440,"support":3441,"positioned":3442,"although":3443,"Ġ09":3444,"Ġlargely":3445,"Ġdisorder":3446,"03":3447,"ily":3448,"Ġcurv":3449,"Ġcrit":3450,"Ġascites":3451,"Ġcollapsed":3452,"52":3453,"Ġbronchitis":3454,"Ġdx":3455,"Ġmd":3456,"Ġthromb":3457,"Ġincludes":3458,"Ġdementia":3459,"fr":3460,"Ġsystem":3461,"roph":3462,"bac":3463,"exam":3464,"Ġfaint":3465,"Ġinflamm":3466,"Ġlv":3467,"Ġreflective":3468,"xation":3469,"Ġthird":3470,"chamber":3471,"Ġcspine":3472,"addition":3473,"udden":3474,"Ġscattered":3475,"Ġduring":3476,"Ġcritical":3477,"ize":3478,"leno":3479,"Ġconj":3480,"ping":3481,"Ġshunt":3482,"Ġanemia":3483,"43":3484,"infection":3485,"Ġulcer":3486,"Ġur":3487,"Ġsmoker":3488,"yl":3489,"Ġclose":3490,"oden":3491,"Ġnearly":3492,"Ġprim":3493,"Ġri":3494,"34":3495,"conclusion":3496,"lob":3497,"Ġpostop":3498,"Ġextreme":3499,"Ġpoorly":3500,"latation":3501,"Ġresulting":3502,"Ġrap":3503,"Ġrepositioning":3504,"01":3505,"Ġimplant":3506,"jor":3507,"welling":3508,"Ġnodes":3509,"Ġicu":3510,"kelet":3511,"Ġgleno":3512,"osup":3513,"Ġnonspecific":3514,"Ġnight":3515,"Ġdvt":3516,"ibrill":3517,"Ġsudden":3518,"ibrillator":3519,"Ġdifficulty":3520,"abdom":3521,"Ġkyph":3522,"less":3523,"Ġspecifically":3524,"evid":3525,"Ġlac":3526,"Ġconjunction":3527,"Ġage":3528,"ks":3529,"Ġensure":3530,"uq":3531,"Ġchamber":3532,"Ġhypoxemic":3533,"Ġmajor":3534,"evidence":3535,"Ġsheath":3536,"some":3537,"Ġdoubt":3538,"Ġnoting":3539,"keletal":3540,"emineral":3541,"Ġrespectively":3542,"ished":3543,"Ġtavr":3544,"Ġdemineral":3545,"fort":3546,"of":3547,"Ġcolectomy":3548,"Ġaccount":3549,"probable":3550,"Ġtheir":3551,"Ġcardiophrenic":3552,"Ġcommunication":3553,"Ġcorresponds":3554,"atively":3555,"Ġdetail":3556,"Ġrvr":3557,"Ġfxs":3558,"ributed":3559,"Ġperforation":3560,"olang":3561,"allic":3562,"Ġgener":3563,"Ġfullness":3564,"iber":3565,"Ġheav":3566,"Ġadenocarcinoma":3567,"Ġplaques":3568,"Ġdu":3569,"Ġimmunosup":3570,"Ġ04":3571,"num":3572,"Ġdchf":3573,"Ġobstructive":3574,"ml":3575,"Ġgenerator":3576,"duction":3577,"Ġeffort":3578,"now":3579,".:":3580,"Ġheight":3581,"Ġdilatation":3582,"Ġtri":3583,"read":3584,"frontal":3585,"dm":3586,"Ġband":3587,"status":3588,"Ġseal":3589,"51":3590,"Ġprost":3591,"Ġneutropenia":3592,"Ġrapid":3593,"33":3594,"cor":3595,"diff":3596,"Ġmeasuring":3597,"Ġcephal":3598,"Ġms":3599,"Ġarth":3600,"Ġek":3601,"Ġstructure":3602,"inflation":3603,"Ġrequested":3604,"Ġencephal":3605,"Ġtracheob":3606,"Ġremote":3607,"58":3608,"Ġtraumatic":3609,"urred":3610,"hea":3611,"chn":3612,"Ġekg":3613,"):":3614,"Ġthen":3615,"Ġrales":3616,"Ġcaliber":3617,"Ġcholang":3618,"Ġnotable":3619,"ses":3620,"umeral":3621,"Ġfo":3622,"Ġpad":3623,"Ġstents":3624,"more":3625,"Ġmainstem":3626,"rhea":3627,"arrow":3628,"Ġloop":3629,"Ġadequ":3630,"Ġdefibrillator":3631,"Ġtowards":3632,"aped":3633,"abdominal":3634,").":3635,"Ġsilhouetting":3636,"Ġloo":3637,"dens":3638,"Ġraising":3639,"Ġprostate":3640,"Ġstemi":3641,"onding":3642,"io":3643,"izing":3644,"Ġmel":3645,"Ġdecort":3646,"Ġaligned":3647,",.":3648,"Ġ+":3649,"sin":3650,"Ġseven":3651,"ential":3652,"Ġconclusion":3653,"luc":3654,"Ġinfusion":3655,"Ġtechn":3656,"Ġcausing":3657,"Ġplatelike":3658,"Ġmelan":3659,"uction":3660,"Ġeg":3661,"Ġhcv":3662,"Ġtuberculosis":3663,"Ġimmunosupp":3664,"Ġswe":3665,"dr":3666,"omfort":3667,"Ġpreoperative":3668,"Ġinsertion":3669,"Ġmelanoma":3670,"Ġalignment":3671,"note":3672,"Ġ;":3673,"Ġfixation":3674,"hyper":3675,"Ġhumer":3676,"Ġdext":3677,"accumulation":3678,"Ġform":3679,"Ġmalignant":3680,"glass":3681,"Ġcath":3682,"ritis":3683,"Ġcaused":3684,"Ġdimin":3685,"Ġrecurrence":3686,"Ġwind":3687,"Ġduoden":3688,"Ġdiscomfort":3689,"ulitis":3690,"Ġwarrant":3691,"Ġnec":3692,"aerated":3693,"ordotic":3694,"ura":3695,"open":3696,"Ġdecompensated":3697,"Ġattem":3698,"Ġut":3699,"Ġsixth":3700,"ifth":3701,"Ġapparently":3702,"Ġhepatitis":3703,"Ġelongation":3704,"Ġsupraclavicular":3705,"Ġwindow":3706,"humeral":3707,"Ġich":3708,"Ġcongested":3709,"Ġhumerus":3710,"Ġscar":3711,"Ġrising":3712,"Ġworkup":3713,"Ġradiographically":3714,"Ġconsideration":3715,"Ġcross":3716,"ank":3717,"Ġshowed":3718,"Ġmca":3719,"Ġacrom":3720,"Ġsubsequently":3721,"Ġfifth":3722,"Ġskin":3723,"Ġexagger":3724,"arrhea":3725,"Ġappearing":3726,"Ġglenohumeral":3727,"olateral":3728,"Ġexpos":3729,"aryn":3730,"distended":3731,"dual":3732,"sized":3733,"Ġsymmetric":3734,"Ġsweats":3735,"Ġencephalopathy":3736,"Ġindicated":3737,"vd":3738,"seal":3739,"edema":3740,"usc":3741,"Ġsutures":3742,"Ġspont":3743,"grade":3744,"Ġattempt":3745,"part":3746,"Ġmater":3747,"Ġlordotic":3748,"Ġosteoph":3749,"Ġtract":3750,"zed":3751,"Ġfrx":3752,"Ġtot":3753,"Ġarterial":3754,"Ġintrac":3755,"Ġdiminished":3756,"Ġcorresponding":3757,"Ġscap":3758,"Ġmaterial":3759,"astolic":3760,"dense":3761,"Ġcyst":3762,"density":3763,"thora":3764,"Ġmetallic":3765,"Ġlad":3766,"Ġindwelling":3767,"since":3768,"Ġskeletal":3769,"ocl":3770,"aining":3771,"Ġretro":3772,"Ġischemic":3773,"Ġshallow":3774,"sw":3775,"Ġpeg":3776,"ymmetry":3777,"Ġplethora":3778,"also":3779,"ocentesis":3780,"soft":3781,"Ġinterim":3782,"Ġmv":3783,"Ġflu":3784,"Ġdiastolic":3785,"Ġfibrotic":3786,"Ġclamp":3787,"Ġdiarrhea":3788,"Ġdiagnosed":3789,"Ġperiphery":3790,"olding":3791,"Ġdecortication":3792,"Ġtox":3793,"standing":3794,"Ġosteophy":3795,"elev":3796,"vening":3797,"Ġindicative":3798,"Ġ___'":3799,"app":3800,"clc":3801,"Ġels":3802,"Ġelsewhere":3803,"Ġorth":3804,"placed":3805,"Ġdistension":3806,"Ġplain":3807,"Ġacqu":3808,"ake":3809,"Ġxray":3810,"interstitial":3811,"Ġwaterseal":3812,"Ġconvex":3813,"___.":3814,"ematous":3815,"Ġlimitations":3816,"nod":3817,"Ġadequate":3818,"Ġaround":3819,"Ġlvad":3820,"sy":3821,"Ġmot":3822,"Ġcoarse":3823,"Ġimmedi":3824,"tharg":3825,"Ġindicate":3826,"Ġasymmetrical":3827,"Ġthoracocentesis":3828,"whe":3829,"ranial":3830,"ghthe":3831,"aded":3832,"Ġ#___":3833,"prominence":3834,"lines":3835,"roscoliosis":3836,"Ġinclude":3837,"ila":3838,"certain":3839,"Ġscre":3840,"Ġseventh":3841,"Ġtoxic":3842,"Ġpoint":3843,"Ġscanning":3844,"Ġcr":3845,"Ġevac":3846,"channel":3847,"likely":3848,"Ġplan":3849,"Ġacromi":3850,"Ġhole":3851,"Ġremarkable":3852,"Ġov":3853,"enlarg":3854,"Ġdeep":3855,"Ġlighthe":3856,"Ġtbi":3857,"Ġhydrothorax":3858,"best":3859,"Ġruq":3860,"Ġpotential":3861,"Ġalcoholic":3862,"enz":3863,"Ġec":3864,"ured":3865,"Ġdry":3866,"uced":3867,"Ġclavicles":3868,"study":3869,"Ġsuspicion":3870,"uma":3871,"Ġ07":3872,"Ġuri":3873,"Ġhcap":3874,"fib":3875,"man":3876,"Ġletharg":3877,"ify":3878,"Ġcavitary":3879,"iduc":3880,"Ġpleura":3881,"erg":3882,"Ġbec":3883,"trans":3884,"Ġasymmetry":3885,"Ġpneumonectomy":3886,"iducial":3887,"Ġlapar":3888,"cough":3889,"Ġintracranial":3890,"oclavicular":3891,"Ġlightheaded":3892,"consid":3893,"Ġdisplacement":3894,"urn":3895,"Ġcauses":3896,"Ġneutropenic":3897,"Ġcraniotomy":3898,"Ġoverlap":3899,"Ġrather":3900,"optimal":3901,"Ġemboli":3902,"Ġ19":3903,"Ġneo":3904,"Ġmalpositioned":3905,"Ġuti":3906,"Ġcuffing":3907,"lerosis":3908,"hila":3909,"iter":3910,"Ġnurse":3911,"carb":3912,"Ġwheeze":3913,"Ġexposure":3914,"diograph":3915,"ha":3916,"mm":3917,"Ġcage":3918,"shaped":3919,"Ġpredominance":3920,"rule":3921,"Ġtracheobronch":3922,"sternotomy":3923,"Ġeventration":3924,"stage":3925,"Ġdone":3926,"Ġer":3927,"Ġflank":3928,"Ġhaziness":3929,"Ġwarranted":3930,"Ġhand":3931,"Ġspontaneous":3932,"Ġsupervening":3933,"Ġwithdraw":3934,"Ġintrapulmonary":3935,"Ġmri":3936,"Ġvir":3937,"Ġdiver":3938,"Ġconsolidative":3939,"luenz":3940,"Ġairways":3941,"luenza":3942,"both":3943,"location":3944,"Ġlethargy":3945,"Ġrequired":3946,"Ġfacial":3947,"Ġunfolding":3948,"Ġsensitive":3949,"Ġsick":3950,"ix":3951,"Ġcontin":3952,"Ġwound":3953,"Ġembolism":3954,"Ġstably":3955,"Ġwhose":3956,"Ġmak":3957,"Ġupon":3958,"Ġdefined":3959,"Ġdextroscoliosis":3960,"resis":3961,"Ġsb":3962,"Ġsuperiorly":3963,"Ġrefe":3964,"tubes":3965,"ergent":3966,"Ġgenerally":3967,"Ġcharacterization":3968,"erous":3969,"Ġlimiting":3970,"multifocal":3971,"Ġacromioclavicular":3972,"Ġpostsurgical":3973,"Ġlightheadedness":3974,"rium":3975,"Ġdeterm":3976,"Ġspe":3977,"Ġquite":3978,"Ġuncertain":3979,"Ġepisodes":3980,"Ġextremely":3981,"Ġmotor":3982,"agia":3983,"Ġfist":3984,"Ġintro":3985,"Ġsuboptimal":3986,"Ġcontinue":3987,"Ġacquired":3988,"Ġjoints":3989,"Ġdifference":3990,"Ġabx":3991,"Ġtotal":3992,"ought":3993,"Ġretraction":3994,"Ġstreak":3995,"phagia":3996,"Ġgranulomatous":3997,"Ġmerely":3998,"Ġmets":3999,"Ġtechnical":4000,"Ġinfarct":4001,"Ġsuprahilar":4002,"Ġprimary":4003,"Ġgranulomas":4004,"Ġbased":4005,"Ġnarrow":4006,"lf":4007,"rot":4008,"Ġshadows":4009,"Ġemphysematous":4010,"lucency":4011,"Ġneg":4012,"improved":4013,"rauma":4014,"oned":4015,"Ġthey":4016,"charge":4017,"Ġreact":4018,"Ġtoxicity":4019,"Ġrml":4020,"Ġdiscre":4021,"clips":4022,"Ġpea":4023,"Ġbiventricular":4024,"Ġmcc":4025,"Ġdeline":4026,"Ġcolitis":4027,"Ġfunction":4028,"Ġincidental":4029,"Ġreference":4030,"bet":4031,"Ġfistula":4032,"artment":4033,"Ġfollowed":4034,"Ġnsclc":4035,"Ġfiducial":4036,"Ġantibiotics":4037,"Ġconfluence":4038,"Ġaccentuates":4039,"increasing":4040,"Ġsuction":4041,"rel":4042,"calcified":4043,"upt":4044,"Ġfourth":4045,"Ġprosthetic":4046,"Ġschf":4047,"Ġmucous":4048,"Ġbul":4049,"Ġparam":4050,"Ġretracted":4051,"Ġfel":4052,"Ġstart":4053,"Ġfalls":4054,"oscopic":4055,"followup":4056,"uffic":4057,"Ġbrady":4058,"Ġcap":4059,"bital":4060,"Ġsyst":4061,"Ġpneumonic":4062,"ific":4063,"Ġhyperg":4064,"Ġegd":4065,"Ġalcohol":4066,"Ġileostomy":4067,"put":4068,"Ġvert":4069,"Ġdefinition":4070,"Ġsystolic":4071,"mon":4072,"Ġdemineralized":4073,"specifically":4074,"roplasty":4075,"rophic":4076,"arin":4077,"central":4078,"Ġhypercarb":4079,"erted":4080,"Ġhcc":4081,"Ġreduced":4082,"little":4083,"Ġaccentuating":4084,"inary":4085,"Ġinfluenza":4086,"Ġild":4087,"Ġwide":4088,"Ġrespons":4089,"Ġvalv":4090,"over":4091,"Ġdecreasing":4092,"Ġsubj":4093,"Ġmucus":4094,"within":4095,"better":4096,"Ġrosc":4097,"Ġmarkers":4098,"Ġrt":4099,"lum":4100,"Ġtr":4101,"Ġdiscrete":4102,"hout":4103,"ivocal":4104,"ias":4105,"usual":4106,"Ġsplen":4107,"iliary":4108,"la":4109,"Ġblock":4110,"utter":4111,"Ġ21":4112,"Ġreaccumulation":4113,"feeding":4114,"icle":4115,"Ġdeli":4116,"Ġdysphagia":4117,"Ġhyperglycemia":4118,"Ġhab":4119,"Ġnecess":4120,"Ġcurvature":4121,"Ġstem":4122,"Ġhabitus":4123,"Ġinferiorly":4124,"fil":4125,"rated":4126,"Ġplugging":4127,"Ġdetermine":4128,"olume":4129,"gone":4130,"Ġundergone":4131,"Ġesophagogastric":4132,"ytrauma":4133,"Ġindicating":4134,"single":4135,"displaced":4136,"Ġ--":4137,"recent":4138,"Ġdivertic":4139,"Ġinserted":4140,"heterogeneous":4141,"Ġstab":4142,"Ġevolving":4143,"copd":4144,"Ġoccult":4145,"corre":4146,"Ġflex":4147,"Ġthro":4148,"Ġveh":4149,"Ġinst":4150,"Ġname":4151,"yncope":4152,"Ġvehicle":4153,"Ġwill":4154,"text":4155,"Ġfelt":4156,"resol":4157,"Ġ___;":4158,"Ġprocesses":4159,"aa":4160,"Ġportions":4161,"Ġprol":4162,"Ġerect":4163,"Ġpolytrauma":4164,"Ġserial":4165,"Ġvt":4166,"Ġwashout":4167,"Ġabn":4168,"Ġelect":4169,"atherosclerotic":4170,"Ġsx":4171,"Ġ(___":4172,"ium":4173,"Ġorthop":4174,"Ġmicu":4175,"Ġcontext":4176,"calcification":4177,"Ġfar":4178,"Ġinfiltrative":4179,"ologic":4180,"hazy":4181,"Ġoverinflation":4182,"renchymal":4183,"Ġbasis":4184,"Ġsle":4185,"aseous":4186,"subcutaneous":4187,"Ġorbital":4188,"Ġepicardial":4189,"Ġexception":4190,"pulmonic":4191,"ner":4192,"mass":4193,"penet":4194,"volume":4195,"seud":4196,"hyp":4197,"urring":4198,"just":4199,"atosis":4200,"sob":4201,"ylor":4202,"nodular":4203,"Ġbradycardia":4204,"Ġpylor":4205,"consider":4206,"Ġfav":4207,"Ġmds":4208,"Ġthought":4209,"Ġsl":4210,"Ġentered":4211,"rong":4212,"Ġaccident":4213,"Ġproduction":4214,"intubation":4215,"Ġsickle":4216,"Ġii":4217,"prominent":4218,"Ġbull":4219,"opneum":4220,"Ġaccum":4221,"openia":4222,"isted":4223,"Ġsharply":4224,"cav":4225,"function":4226,"Ġconfirmed":4227,"back":4228,"Ġradiodensity":4229,"Ġpositional":4230,"Ġwhat":4231,"Ġmostly":4232,"Ġmrsa":4233,"ready":4234,"Ġsubpulmonic":4235,"Ġ03":4236,"appear":4237,"Ġradiography":4238,"Ġosteophytes":4239,"any":4240,"Ġrect":4241,"Ġmes":4242,"Ġwithdrawal":4243,"Ġanast":4244,"Ġnormally":4245,"Ġallo":4246,"Ġsubsternal":4247,"Ġ06":4248,"elevation":4249,"Ġasbest":4250,"Ġinvolvement":4251,"Ġalready":4252,"Ġtraver":4253,"Ġdrop":4254,"Ġmetastasis":4255,"Ġsclerotic":4256,"imeter":4257,"Ġfailed":4258,"Ġborders":4259,"onged":4260,"ternatively":4261,"Ġthroat":4262,"ounting":4263,"sing":4264,"Ġpvd":4265,"Ġstrong":4266,"Ġtoo":4267,"Ġlumen":4268,"filled":4269,"Ġpseud":4270,"Ġreduction":4271,"Ġcer":4272,"Ġparamediastinal":4273,"yc":4274,"Ġduodenum":4275,"fa":4276,"Ġsubjective":4277,"Ġbed":4278,"Ġcere":4279,"Ġcombined":4280,"Ġextra":4281,"Ġangio":4282,"peri":4283,"Ġevacuation":4284,"Ġchain":4285,"Ġcentered":4286,"Ġtake":4287,"Ġcoughing":4288,"'d":4289,"radiograph":4290,"Ġseque":4291,"trace":4292,"imul":4293,"Ġanother":4294,"Ġatelectases":4295,"bibasal":4296,"Ġpatients":4297,"Ġkyphosis":4298,"Ġunderpenet":4299,"Ġhemorrhag":4300,"cabg":4301,"pacemaker":4302,"Ġstrike":4303,"Ġcric":4304,"Ġrupt":4305,"Ġtx":4306,"Ġcereb":4307,"structive":4308,"Ġclosure":4309,"lumen":4310,"roh":4311,"Ġpleure":4312,"Ġcll":4313,"monitoring":4314,"Ġaaa":4315,"Ġradiating":4316,"Ġcall":4317,"Ġfeel":4318,"erved":4319,"Ġmig":4320,"Ġasses":4321,"Ġdelineated":4322,"Ġprolonged":4323,"Ġepile":4324,"arding":4325,"Ġnephrectomy":4326,"Ġdistributed":4327,"under":4328,"Ġannul":4329,"Ġenlarging":4330,"Ġsaturation":4331,"Ġrevision":4332,"Ġcephalization":4333,"Ġflash":4334,"Ġcomponents":4335,"Ġflattened":4336,"Ġhour":4337,"Ġcondition":4338,"Ġlevels":4339,"lay":4340,"Ġchronicity":4341,"Ġcommon":4342,"Ġaccounting":4343,"Ġsplenic":4344,"uxt":4345,"tained":4346,"Ġercp":4347,"ghth":4348,"Ġgain":4349,"Ġbleb":4350,"Ġlook":4351,"iency":4352,"ice":4353,"Ġspi":4354,"Ġdka":4355,"Ġhemidiaphragmatic":4356,"rotizing":4357,"hx":4358,"Ġshowing":4359,"Ġjuxt":4360,"Ġ22":4361,"Ġdepartment":4362,"Ġbecause":4363,"Ġcroh":4364,"Ġclip":4365,"Ġprovider":4366,"dose":4367,"Ġdefinitely":4368,"Ġthoracostomy":4369,"Ġventilator":4370,"Ġeighth":4371,"Ġpleurex":4372,"arily":4373,"Ġvap":4374,"Ġdislocation":4375,"Ġ102":4376,"Ġanteriorly":4377,"Ġviral":4378,"Ġclamped":4379,"Ġbil":4380,"Ġpericardi":4381,"Ġexpansion":4382,"respons":4383,"Ġinflammation":4384,"additional":4385,"tortu":4386,"Ġmulti":4387,"Ġpc":4388,"des":4389,"erent":4390,"copal":4391,"Ġstability":4392,"slightly":4393,"appa":4394,"Ġhypog":4395,"Ġfissural":4396,"Ġretrosternal":4397,"Ġnegative":4398,"ading":4399,"Ġivc":4400,"Ġsuspect":4401,"farin":4402,"resid":4403,"Ġsequela":4404,"Ġip":4405,"further":4406,"Ġcts":4407,"apparent":4408,"Ġequ":4409,"Ġnumb":4410,"Ġhemorrhagic":4411,"examination":4412,"Ġfoot":4413,"Ġq":4414,"Ġobes":4415,"Ġcoiling":4416,"Ġmie":4417,"intubated":4418,"Ġshoulders":4419,"Ġexplained":4420,"Ġcoils":4421,"ish":4422,"residual":4423,"sig":4424,"atremia":4425,"Ġcoll":4426,"Ġbur":4427,"parenchymal":4428,"Ġinflammatory":4429,"ĠĠĠĠĊ":4430,"odg":4431,"Ġimmediately":4432,"Ġablation":4433,"Ġtrack":4434,"ronically":4435,"Ġwarfarin":4436,"night":4437,"Ġnecrotizing":4438,"Ġaut":4439,"idural":4440,"Ġsteroid":4441,"Ġvp":4442,"Ġdocumented":4443,"Ġech":4444,"Ġunable":4445,"odgkin":4446,"..":4447,"mark":4448,"Ġreturn":4449,"uspid":4450,"transvenous":4451,"Ġbiliary":4452,"Ġmanag":4453,"Ġcontinuous":4454,"lement":4455,"Ġhighly":4456,"och":4457,"Ġedge":4458,"Ġoverlie":4459,"Ġke":4460,"omal":4461,"additionally":4462,"ett":4463,"Ġgib":4464,"ductive":4465,"igh":4466,"opacities":4467,"midline":4468,"Ġhypon":4469,"Ġnumerous":4470,"Ġnumbness":4471,"bronch":4472,"substant":4473,"Ġhospitalization":4474,"Ġasbestos":4475,"asia":4476,"Ġlimitation":4477,"Ġsternum":4478,"asm":4479,"Ġresusc":4480,"productive":4481,"itution":4482,"Ġorient":4483,"Ġris":4484,"Ġglob":4485,"Ġreassess":4486,"Ġinterst":4487,"Ġtransfusion":4488,"Ġcord":4489,"Ġunrespons":4490,"Ġinfiltration":4491,"Ġjuxta":4492,"Ġult":4493,"diation":4494,"Ġgoiter":4495,"underlying":4496,"Ġfre":4497,"icc":4498,"Ġ101":4499,"Ġmast":4500,"Ġteam":4501,"Ġgaseous":4502,"Ġfilter":4503,"Ġlact":4504,"adder":4505,"Ġmust":4506,"Ġdistort":4507,"imulator":4508,"agus":4509,"Ġlongstanding":4510,"Ġmanagement":4511,"Ġconver":4512,"widespread":4513,"Ġresponsible":4514,"opl":4515,"visual":4516,"Ġdelirium":4517,"iet":4518,"Ġkin":4519,"stomy":4520,"isone":4521,"lim":4522,"inear":4523,"Ġfact":4524,"ilinear":4525,"marked":4526,"bronchial":4527,"Ġelement":4528,"Ġrisk":4529,"Ġwhipple":4530,"Ġhemothoraces":4531,"Ġ\"":4532,"Ġpcp":4533,"eds":4534,"Ġnondistended":4535,"fever":4536,"Ġinitially":4537,"arynx":4538,"Ġhypercarbic":4539,"Ġsignificance":4540,"different":4541,"Ġimmunosuppression":4542,"Ġchronically":4543,"Ġpersistently":4544,"Ġvessel":4545,"Ġrounds":4546,"arian":4547,"dob":4548,"obstructive":4549,"Ġdesats":4550,"Ġcholangitis":4551,"Ġstenting":4552,"Ġhyponatremia":4553,"Ġflo":4554,"Ġbro":4555,"Ġscapula":4556,"Ġslurred":4557,"Ġ23":4558,"partially":4559,"substantial":4560,"Ġpalpation":4561,"Ġcontact":4562,"Ġhypoinflated":4563,"ling":4564,"ained":4565,"brid":4566,"iving":4567,"Ġpersisting":4568,"Ġsepar":4569,"Ġhaving":4570,"ech":4571,"rs":4572,"Ġbm":4573,"Ġinterpre":4574,"Ġrectal":4575,"Ġrelates":4576,"Ġresuscitation":4577,"Ġstimulator":4578,"Ġcare":4579,"view":4580,"Ġheads":4581,"vent":4582,"atem":4583,"Ġtherefore":4584,"Ġprosthesis":4585,"rt":4586,"ushed":4587,"Ġexertional":4588,"Ġoverdose":4589,"dural":4590,"eping":4591,"Ġobesity":4592,"Ġsats":4593,"Ġ00":4594,"Ġnarrowing":4595,"ytic":4596,"Ġtun":4597,"Ġentire":4598,"uck":4599,"Ġepidural":4600,"Ġadditionally":4601,"ej":4602,"Ġcommunications":4603,"limit":4604,"change":4605,"Ġpartly":4606,"Ġpredis":4607,"Ġovarian":4608,"Ġpnx":4609,"Ġinfarction":4610,"Ġaccumulation":4611,"mildly":4612,"Ġped":4613,"gestion":4614,"ounding":4615,"Ġfemur":4616,"Ġsclerosis":4617,"esophagus":4618,"tiny":4619,"quam":4620,"ault":4621,"ssa":4622,"emergent":4623,"Ġoutput":4624,"Ġtemper":4625,"Ġdouble":4626,"itu":4627,"ricuspid":4628,"Ġdepression":4629,"board":4630,"Ġrcc":4631,"pef":4632,"Ġwarning":4633,".___":4634,"ped":4635,"Ġhematem":4636,"Ġhis":4637,"Ġlocalized":4638,"limited":4639,"Ġassault":4640,"Ġports":4641,"Ġtelephoned":4642,"Ġinstitution":4643,"flow":4644,"Ġpen":4645,"ifest":4646,"Ġsubdural":4647,"ractory":4648,"quamous":4649,"Ġmanifest":4650,"Ġnecessary":4651,"Ġtypical":4652,"Ġindicates":4653,"yg":4654,"coma":4655,"nisone":4656,"Ġsecu":4657,"emonstration":4658,"ional":4659,"Ġconfirmation":4660,"com":4661,"stance":4662,"Ġsized":4663,"Ġemesis":4664,"Ġstanding":4665,"Ġparap":4666,"Ġspeech":4667,"Ġfloor":4668,"acia":4669,"Ġcholangi":4670,"short":4671,"ejun":4672,"gia":4673,"lb":4674,"gram":4675,"neled":4676,"otid":4677,"Ġantic":4678,"Ġ24":4679,"Ġincidentally":4680,"hd":4681,"Ġtricuspid":4682,"Ġpage":4683,"when":4684,"bridement":4685,"Ġdash":4686,"Ġraise":4687,"Ġdiverticulitis":4688,"hem":4689,"Ġlab":4690,"Ġheavy":4691,"Ġevolution":4692,"Ġanastom":4693,"Ġshifted":4694,"vity":4695,"Ġmonitor":4696,"Ġdashboard":4697,"Ġoutflow":4698,"swan":4699,"gressive":4700,"Ġu":4701,"Ġsyncopal":4702,"Ġoccurred":4703,"Ġkeeping":4704,"Ġdrug":4705,"erolateral":4706,"Ġdetection":4707,"Ġflare":4708,"Ġhematemesis":4709,"land":4710,"visualized":4711,"Ġtunneled":4712,"Ġscout":4713,"Ġtraverses":4714,"thyroid":4715,"Ġaccompanying":4716,"!.":4717,"Ġregurg":4718,"Ġrefractory":4719,"Ġmastectomy":4720,"biapical":4721,"Ġlup":4722,"Ġunw":4723,"yed":4724,"Ġfold":4725,"Ġpresyncope":4726,"Ġalternatively":4727,"Ġ02":4728,"Ġhfpef":4729,"Ġmakes":4730,"aso":4731,"itivity":4732,"uccess":4733,"Ġslow":4734,"Ġnash":4735,"Ġecmo":4736,"Ġventilated":4737,"ess":4738,"omatosis":4739,"osep":4740,"Ġdecub":4741,"ked":4742,"Ġlatent":4743,"Ġnature":4744,"Ġdebridement":4745,"Ġprednisone":4746,"Ġdysfunction":4747,"Ġileus":4748,"til":4749,"Ġsquamous":4750,"Ġhal":4751,"Ġlip":4752,"Ġprote":4753,"Ġretic":4754,"kle":4755,"Ġtracheobronchoplasty":4756,"osepsis":4757,"Ġlev":4758,"Ġovernight":4759,"Ġvq":4760,"outine":4761,"lt":4762,"idosis":4763,"adjacent":4764,"areas":4765,"rounding":4766,"Ġcavity":4767,"Ġzyg":4768,"Ġembolization":4769,"Ġformation":4770,"Ġcollision":4771,"___,":4772,"Ġdilation":4773,"Ġhypoglycemia":4774,"Ġoc":4775,"Ġfung":4776,"Ġosa":4777,"cardio":4778,"infect":4779,"Ġpredischarge":4780,"aring":4781,"Ġstripe":4782,"Ġintrodu":4783,"Ġgu":4784,"Ġlupus":4785,"abnormal":4786,"Ġdecompression":4787,"ored":4788,"Ġwean":4789,"aorta":4790,"Ġconveyed":4791,"odular":4792,"Ġtransesophageal":4793,"widening":4794,"infectious":4795,"demonstrated":4796,"obronchial":4797,"Ġcharacterize":4798,"Ġischemia":4799,"Ġtac":4800,"Ġdiaph":4801,"Ġblurring":4802,"rounded":4803,"constant":4804,"super":4805,"ynam":4806,"Ġconsolidated":4807,"nant":4808,"Ġtia":4809,"Ġmotion":4810,"Ġga":4811,"Ġcrohn":4812,"Ġportal":4813,"ger":4814,"hab":4815,"anc":4816,"Ġbmt":4817,"Ġterm":4818,"Ġsurrounding":4819,"Ġorthopnea":4820,"omatic":4821,"Ġarthritis":4822,"Ġrehab":4823,"Ġsubpleural":4824,"cedural":4825,"Ġneeded":4826,"Ġblebectomy":4827,"Ġregarding":4828,"Ġspecific":4829,"omalacia":4830,"Ġbip":4831,"Ġtobac":4832,"Ġrecord":4833,"hedule":4834,"Ġcarotid":4835,"Ġunusual":4836,"Ġpoin":4837,"Ġsteroids":4838,"differential":4839,"Ġus":4840,"Ġroutine":4841,"Ġpelvic":4842,"Ġmening":4843,"els":4844,"ref":4845,"Ġasymmetrically":4846,"Ġpointing":4847,"Ġbx":4848,"Ġexplor":4849,"Ġfoci":4850,"Ġtobacco":4851,"Ġabut":4852,"Ġzygomatic":4853,"Ġoper":4854,"Ġcircum":4855,"Ġleukemia":4856,"inth":4857,"picc":4858,"Ġsubacute":4859,"Ġfemoral":4860,"Ġrecog":4861,"Ġpylorus":4862,"Ġtempor":4863,"theless":4864,"umatic":4865,"Ġcoexisting":4866,"lastic":4867,"superimposed":4868,"Ġexaggerating":4869,"enlarged":4870,"Ġ>":4871,"ragment":4872,"Ġtest":4873,"Ġmove":4874,"Ġable":4875,"Ġorif":4876,"Ġfive":4877,"expl":4878,"Ġurosepsis":4879,"ella":4880,"Ġccu":4881,"Ġpectus":4882,"Ġfeeling":4883,"opneumothorax":4884,"enc":4885,"Ġdemonstration":4886,"ither":4887,"iddm":4888,"Ġregurgitation":4889,"Ġeach":4890,"Ġninth":4891,"Ġmva":4892,"Ġfavor":4893,"iculated":4894,"remain":4895,"Ġrequirements":4896,"ii":4897,"Ġgang":4898,"Ġpacs":4899,"Ġcellulitis":4900,"Ġcholecystitis":4901,"Ġfragment":4902,"Ġretained":4903,"Ġmanner":4904,"Ġfacility":4905,"basilar":4906,"Ġlater":4907,"multilevel":4908,"Ġneuro":4909,"Ġcertain":4910,"Ġpericarditis":4911,"Ġlactate":4912,"Ġtemperature":4913,"ras":4914,"veal":4915,"Ġportably":4916,"Ġpara":4917,"renal":4918,"Ġbladder":4919,"Ġwedging":4920,"Ġstreaks":4921,"elsewhere":4922,"Ġbs":4923,"Ġlying":4924,"Ġoccup":4925,"cell":4926,"Ġhypertrophic":4927,"widened":4928,"Ġann":4929,"Ġfeas":4930,"Ġconfigurational":4931,"Ġperforated":4932,"Ġ___:___":4933,"Ġhepat":4934,"Ġcalcific":4935,"Ġtracking":4936,"fi":4937,"Ġfeasible":4938,"tp":4939,"remainder":4940,"Ġnondisplaced":4941,"uem":4942,"Ġorgan":4943,"moderately":4944,"Ġschedule":4945,"catheter":4946,"Ġequivocal":4947,"Ġlaparoscopic":4948,"Ġdecubitus":4949,"angular":4950,"Ġshown":4951,"geal":4952,"Ġadjust":4953,"Ġlate":4954,"ances":4955,"test":4956,"rasound":4957,"Ġtree":4958,"Ġtubing":4959,"emphys":4960,"perihilar":4961,"Ġfrequent":4962,"Ġsple":4963,"relatively":4964,"Ġadvancing":4965,"Ġpushed":4966,"Ġacutely":4967,"Ġhodgkin":4968,"oca":4969,"Ġcentimeter":4970,"resolution":4971,"Ġsore":4972,"rive":4973,"aside":4974,"Ġoverlapping":4975,"Ġunresponsive":4976,"lutter":4977,"dedicated":4978,"Ġquant":4979,"radiation":4980,"Ġmediastin":4981,"Ġcrosses":4982,"self":4983,"ologies":4984,"Ġhealing":4985,"Ġlas":4986,"Ġcomplex":4987,"Ġhemopneumothorax":4988,"Ġ01":4989,"non":4990,"Ġ30":4991,"Ġultrasound":4992,"Ġtemporary":4993,"amin":4994,"Ġextension":4995,"idi":4996,"Ġposterolateral":4997,"assessment":4998,"Ġstabil":4999,"rained":5000,"repe":5001,"several":5002,"overed":5003,"Ġvisualization":5004,"Ġsitting":5005,"postoperative":5006,"Ġvarices":5007,"dg":5008,"ty":5009,"itic":5010,"Ġlesser":5011,"Ġmeasures":5012,"liminary":5013,"asymmetric":5014,"Ġphysical":5015,"Ġinterv":5016,"Ġendobronchial":5017,"Ġprojected":5018,"Ġsuture":5019,"Ġcurvilinear":5020,"lbcl":5021,"ased":5022,"Ġorder":5023,"Ġconsidering":5024,"greater":5025,"Ġaff":5026,"Ġscapular":5027,"Ġpur":5028,"pacer":5029,"Ġconsiderable":5030,"psy":5031,"Ġpedic":5032,"Ġdesired":5033,"encies":5034,"Ġexist":5035,"Ġgrow":5036,"Ġobscure":5037,"Ġreveal":5038,"Ġtelephoneon":5039,"Ġmyal":5040,"Ġcardiothoracic":5041,"Ġhiatus":5042,"Ġupward":5043,"Ġirregularity":5044,"Ġreaction":5045,"Ġcholangiocarcinoma":5046,"ef":5047,"Ġcomple":5048,"Ġspiculated":5049,"Ġankle":5050,"Ġcontusions":5051,"Ġtp":5052,"ptic":5053,"Ġthin":5054,"Ġlasix":5055,"Ġtib":5056,"hole":5057,"Ġthrive":5058,"Ġimpact":5059,"nificant":5060,"ush":5061,"Ġger":5062,"Ġannulus":5063,"opericardi":5064,"Ġpedicle":5065,"Ġdlbcl":5066,"Ġdesaturations":5067,"Ġprec":5068,"Ġitself":5069,"Ġundergoing":5070,"Ġexplan":5071,"Ġlaceration":5072,"Ġreexpansion":5073,"Ġclearance":5074,"ogenic":5075,"section":5076,"Ġ**":5077,"Ġili":5078,"Ġpci":5079,"peg":5080,"Ġrij":5081,"correlation":5082,"Ġcvid":5083,"Ġamb":5084,"Ġsurface":5085,"Ġmssa":5086,"gmoid":5087,"Ġgall":5088,"Ġobl":5089,"thyroidism":5090,"Ġaccentuation":5091,"Ġdetails":5092,"noid":5093,"Ġcontrib":5094,"asoenteric":5095,"nt":5096,"arth":5097,"procedure":5098,"Ġmake":5099,"Ġgre":5100,"quity":5101,"Ġobserved":5102,"rolled":5103,"Ġbedside":5104,"Ġattempted":5105,"ocol":5106,"Ġimpossible":5107,"Ġannular":5108,"type":5109,"Ġforward":5110,"Ġresident":5111,"Ġinterpretation":5112,"occ":5113,"Ġclin":5114,"odynam":5115,"Ġexpiratory":5116,"Ġexplanation":5117,"associated":5118,"Ġcorrelated":5119,"Ġrupture":5120,"Ġstate":5121,"gors":5122,"check":5123,"ins":5124,"arach":5125,"Ġrv":5126,"Ġvalvular":5127,"ressing":5128,"hypox":5129,"ht":5130,"off":5131,"ote":5132,"plate":5133,"nessed":5134,"Ġneuropathy":5135,"Ġdirected":5136,"Ġelongated":5137,"heal":5138,"omon":5139,"compression":5140,"Ġintox":5141,"Ġresultant":5142,"Ġcoars":5143,"Ġsty":5144,"Ġcentimeters":5145,"Ġaggressive":5146,"Ġfractured":5147,"appro":5148,"ĠĠĠĠĠĠĠĠĠĠĠĠĠĠĠĠĠĠĠĠĠĠĠĠĠĠĠĠĠĠĠĠĠĠĠĠĠĠĠĠĠĠĠĠĠĠĠĠĠĠĠĠĠĠĠĠĠĠĠĠĠĠĠĠ":5149,"Ġinsuffic":5150,"Ġdemineralization":5151,"ĠĠĠĠĠĠĠĊ":5152,"Ġsch":5153,"rency":5154,"ĠĠĠĠĠĠĠĠĠĠĠĠĠĠĠĠĠĠĠĠĠĠĠĠĠĠĠĠĠĠĠĠĠĠĠĠĠĠĠĠĠĠĠĠĠĠĠĠĠĠĠĠĠĠĠĠĠĠĠĠĠĠĠĠĠĠĠĠĠĠĠĊ":5155,"Ġhist":5156,"ondral":5157,"Ġexaggerate":5158,"Ġevd":5159,"Ġ(___)":5160,"Ġunderpenetration":5161,"Ġintroducer":5162,"Ġcompletion":5163,"gias":5164,"Ġreq":5165,"Ġstylet":5166,"wh":5167,"Ġprot":5168,"erve":5169,"repeat":5170,"Ġbri":5171,"Ġttp":5172,"Ġsensitivity":5173,"Ġlooped":5174,"Ġdra":5175,"Ġgv":5176,"Ġbacter":5177,"Ġdri":5178,"itium":5179,"Ġstructural":5180,"Ġacs":5181,"calcifications":5182,"testinal":5183,"Ġiddm":5184,"Ġthigh":5185,"Ġremission":5186,"Ġloculation":5187,"oag":5188,"similar":5189,"Ġattribut":5190,"Ġthrombosis":5191,"Ġconsiderations":5192,"Ġneoesophagus":5193,"arachnoid":5194,"subsequent":5195,"Ġscreening":5196,"Ġbore":5197,"Ġgastrectomy":5198,"Ġseptal":5199,"enlargement":5200,"Ġinterstitium":5201,"Ġrfa":5202,"Ġstruck":5203,"conf":5204,"Ġcolonic":5205,"Ġsegmentectomy":5206,"stri":5207,"Ġlocations":5208,"aryngeal":5209,"Ġanticoag":5210,"Ġsubt":5211,"Ġattributable":5212,"Ġoffic":5213,"Ġplcm":5214,"Ġextended":5215,"Ġprimarily":5216,"Ġplcmt":5217,"Ġect":5218,"opharynx":5219,"uccessful":5220,"Ġcop":5221,"Ġcavitation":5222,"decreased":5223,"Ġdistortion":5224,"Ġcomment":5225,"ov":5226,"gency":5227,"Ġtpa":5228,"Ġtrac":5229,"ids":5230,"Ġivdu":5231,"Ġsbr":5232,"Ġchan":5233,"Ġalone":5234,"Ġnonurgent":5235,"incident":5236,"Ġauto":5237,"Ġreflected":5238,"Ġcomplaining":5239,"Ġredemonstration":5240,"Ġcry":5241,"Ġpr":5242,"Ġwheezes":5243,"Ġstabilization":5244,"Ġobliquity":5245,"apical":5246,"Ġetiologies":5247,"Ġkyphotic":5248,"Ġexlap":5249,"Ġthus":5250,"arency":5251,"Ġhemodynam":5252,"Ġinsufficiency":5253,"Ġprod":5254,"result":5255,"radiographs":5256,"Ġepilepsy":5257,"Ġsigmoid":5258,"Ġcd":5259,"Ġsuffic":5260,"Ġdrained":5261,"Ġrecogni":5262,"mvr":5263,"Ġcyc":5264,"Ġring":5265,"Ġprojections":5266,"Ġscrew":5267,"Ġprotocol":5268,"Ġpathologic":5269,"Ġeffect":5270,"eminated":5271,"Ġrx":5272,"Ġprotection":5273,"Ġsed":5274,"Ġlymphang":5275,"Ġsufficient":5276,"nge":5277,"Ġpack":5278,"stead":5279,"stic":5280,"omyel":5281,"Ġtrue":5282,"ds":5283,"dyspnea":5284,"Ġmac":5285,"Ġsubarachnoid":5286,"Ġtransparency":5287,"Ġgerd":5288,"Ġden":5289,"Ġdefic":5290,"Ġlack":5291,"Ġagitation":5292,"Ġetc":5293,"cxr":5294,"Ġrle":5295,"susp":5296,"Ġinh":5297,"Ġtbm":5298,"Ġgvhd":5299,"Ġunlikely":5300,"Ġaspir":5301,"Ġdefinitively":5302,"Ġnasoenteric":5303,"Ġvol":5304,"Ġcystic":5305,"fer":5306,"ovascular":5307,"Ġuntil":5308,"Ġpostoperatively":5309,"Ġembolus":5310,":___":5311,"Ġonce":5312,"Ġclot":5313,"Ġpnuem":5314,"Ġtransient":5315,"Ġcomplaint":5316,"Ġdisseminated":5317,"rep":5318,"Ġgn":5319,"Ġ___%,":5320,"Ġbar":5321,"Ġmovement":5322,"ipid":5323,"opericardium":5324,"po":5325,"omyelitis":5326,"analysis":5327,"ulin":5328,"Ġsa":5329,"Ġrn":5330,"appearance":5331,"Ġtraced":5332,"Ġiss":5333,"Ġrigors":5334,"emphysema":5335,"related":5336,"Ġpresentation":5337,"Ġscans":5338,"Ġmorph":5339,"Ġplaque":5340,"Ġabnl":5341,"tt":5342,"hes":5343,"Ġenters":5344,"lor":5345,"ves":5346,"paces":5347,"Ġbulla":5348,"Ġug":5349,"Ġregard":5350,"Ġvertebra":5351,"Ġchannel":5352,"Ġpreliminary":5353,"results":5354,"Ġ@":5355,"Ġsecure":5356,"Ġantr":5357,"Ġoral":5358,"airs":5359,"cir":5360,"vical":5361,"cervical":5362,"Ġlucencies":5363,"Ġtriangular":5364,"abnormality":5365,"none":5366,"Ġaneurysmal":5367,"col":5368,"neic":5369,"Ġrecommendations":5370,"Ġmeth":5371,"Ġ/.":5372,"Ġrob":5373,"Ġlb":5374,"nectomy":5375,"Ġcarcin":5376,"Ġunilateral":5377,"Ġopacified":5378,"sthetic":5379,"ivity":5380,"Ġivh":5381,"than":5382,"neumonic":5383,"Ġperitoneal":5384,"Ġfissures":5385,"Ġdmii":5386,"oplasm":5387,"Ġja":5388,"Ġattributed":5389,"--___":5390,"Ġeating":5391,"omet":5392,"Ġreintubation":5393,"Ġdid":5394,"Ġcostoch":5395,"Ġivf":5396,"effusions":5397,"Ġwant":5398,"Ġelectro":5399,"'t":5400,"increase":5401,"Ġnerve":5402,"Ġbub":5403,"Ġverify":5404,"Ġserious":5405,"Ġhalf":5406,"oresis":5407,"Ġic":5408,"currently":5409,"Ġmanifestation":5410,"Ġhct":5411,"Ġillness":5412,"Ġps":5413,"Ġrate":5414,"Ġhypothyroidism":5415,"manent":5416,"Ġspiking":5417,"Ġprecise":5418,"acentesis":5419,"Ġoriginal":5420,"explained":5421,"pneumo":5422,"Ġsbp":5423,"Ġnor":5424,"Ġcontaining":5425,"Ġparapneumonic":5426,"for":5427,"Ġpne":5428,"Ġinability":5429,"osin":5430,"Ġspread":5431,"Ġpoly":5432,"Ġanalysis":5433,"ropathy":5434,"Ġbullous":5435,"Ġstarted":5436,"Ġcerebral":5437,"tortuous":5438,"Ġtoe":5439,"ually":5440,"improving":5441,"Ġlatest":5442,"Ġnever":5443,"Ġasper":5444,"Ġsparing":5445,"Ġmyalgias":5446,"Ġfdg":5447,"Ġstep":5448,"Ġactivity":5449,"atum":5450,"Ġseating":5451,"Ġinfx":5452,"Ġ100":5453,"Ġcontribute":5454,"Ġminute":5455,"ophil":5456,"dep":5457,"Ġextrapleural":5458,"Ġmigration":5459,"Ġlymphangitic":5460,"vague":5461,"Ġmargins":5462,"Ġbubble":5463,"etric":5464,"Ġgro":5465,"Ġhemic":5466,"Ġcolostomy":5467,"incidental":5468,"Ġeosin":5469,"pylor":5470,"based":5471,"Ġvisualize":5472,"Ġchem":5473,"Ġarthroplasty":5474,"Ġsited":5475,"Ġabutting":5476,"Ġbka":5477,"Ġhfref":5478,"top":5479,"through":5480,"Ġrecurred":5481,"Ġovoid":5482,"iety":5483,"cost":5484,"Ġunexplained":5485,"Ġtriple":5486,"Ġcostochondral":5487,"Ġwks":5488,"Ġazygous":5489,"significant":5490,"Ġjuxtahilar":5491,"asthe":5492,"Ġnodularity":5493,"Ġdepending":5494,"posterior":5495,"Ġrestri":5496,"dated":5497,"ylo":5498,"Ġscc":5499,"Ġatten":5500,"Ġtaking":5501,"Ġassesment":5502,"ecting":5503,"Ġremnant":5504,"procedural":5505,"Ġdz":5506,"Ġlatter":5507,"Ġlig":5508,"Ġsplenectomy":5509,"Ġpressures":5510,"Ġpersistence":5511,"iceal":5512,"Ġdiaphoresis":5513,"faint":5514,"indistinct":5515,"Ġdro":5516,"Ġself":5517,"ape":5518,"Ġstrict":5519,"Ġheavily":5520,"Ġgreen":5521,"Ġsicu":5522,"Ġanastomosis":5523,"iton":5524,"Ġcoales":5525,"Ġcollections":5526,"fract":5527,"Ġclinic":5528,"Ġduct":5529,"Ġsurve":5530,"Ġlaparotomy":5531,"ane":5532,"Ġhaze":5533,"Ġthickened":5534,"Ġcompar":5535,"Ġrhe":5536,"Ġartifactual":5537,"Ġroom":5538,"Ġparacentesis":5539,"Ġosteopenia":5540,"Ġeosinophil":5541,"Ġinvas":5542,"Ġimmediate":5543,"Ġproble":5544,"superior":5545,"Ġsideport":5546,"Ġgradual":5547,"bv":5548,"onade":5549,"Ġosteomyelitis":5550,"Ġsidehole":5551,"Ġvariceal":5552,"hyperinflation":5553,"Ġasperg":5554,"pyloric":5555,"wer":5556,"Ġuc":5557,"Ġcostal":5558,"lipid":5559,"chills":5560,"aine":5561,"Ġcoinc":5562,"Ġrepeated":5563,"rophy":5564,"hypert":5565,"Ġstrongly":5566,"lipidemia":5567,"pull":5568,"ische":5569,"ctive":5570,"Ġclar":5571,"Ġhyperlucency":5572,"amponade":5573,"unct":5574,"lod":5575,"positioning":5576,"anterior":5577,"Ġpneumopericardium":5578,"Ġstairs":5579,"Ġrecognized":5580,"Ġexcav":5581,"Ġruled":5582,"Ġexists":5583,"xia":5584,"Ġdiscontinu":5585,"correlate":5586,"Ġslowly":5587,"Ġexploratory":5588,"Ġsent":5589,"Ġpermanent":5590,"Ġmesenteric":5591,"Ġmeningitis":5592,"sectional":5593,"aff":5594,"iasis":5595,"Ġmic":5596,"nolen":5597,"Ġneither":5598,"Ġnonemergent":5599,"dobbhoff":5600,"Ġmaking":5601,"Ġintroduction":5602,"Ġvalves":5603,"Ġexcavatum":5604,"Ġimprove":5605,"Ġaches":5606,"Ġsac":5607,"Ġconsequ":5608,"Ġmultil":5609,"Ġ103":5610,"Ġdeposition":5611,"improvement":5612,"unted":5613,"Ġhepato":5614,"Ġgnr":5615,"ided":5616,"Ġshape":5617,"aking":5618,"Ġcorrel":5619,"Ġpseudomon":5620,"Ġconsequence":5621,"jection":5622,"Ġtrig":5623,"overlying":5624,"ischemic":5625,"kes":5626,"situ":5627,"Ġcentrally":5628,"Ġdiscovered":5629,"Ġcertainly":5630,"Ġimpaction":5631,"Ġreach":5632,"Ġtransbronchial":5633,"Ġreceiving":5634,"Ġocclusion":5635,"Ġmorphology":5636,"pel":5637,"Ġconst":5638,"verteb":5639,"oxys":5640,"Ġrotator":5641,"Ġreticul":5642,"Ġcrypt":5643,"Ġlytic":5644,"Ġmell":5645,"Ġreports":5646,"Ġmetal":5647,"Ġmellitus":5648,"cta":5649,"difficult":5650,"Ġpower":5651,"Ġsomnolen":5652,"intra":5653,"equivocal":5654,"while":5655,"sct":5656,"xiety":5657,"Ġanat":5658,"Ġbacterial":5659,"Ġantrum":5660,"Ġhor":5661,"Ġdht":5662,"Ġthanks":5663,"Ġhypotensive":5664,"Ġechocar":5665,"_________________":5666,"_________________________________________________________________________________":5667,"traumatic":5668,"oxysmal":5669,"Ġtamponade":5670,"Ġemergent":5671,"Ġtoler":5672,"Ġchild":5673,"Ġaflutter":5674,"Ġflutter":5675,"Ġflexed":5676,"free":5677,"omies":5678,"has":5679,"olectomy":5680,"Ġattenuation":5681,"Ġpes":5682,"Ġsymmetrically":5683,"pl":5684,"erable":5685,"Ġaspects":5686,"Ġperipherally":5687,"bd":5688,"Ġget":5689,"aken":5690,"Ġredo":5691,"numerable":5692,"Ġglobular":5693,"Ġ___)":5694,"Ġrapidly":5695,"vef":5696,"ellar":5697,"Ġconsiderably":5698,"Ġcoincid":5699,"Ġgold":5700,"Ġincr":5701,"Ġcore":5702,"itect":5703,"Ġparoxysmal":5704,"Ġreplacements":5705,"Ġlucent":5706,"Ġblunted":5707,"Ġrobotic":5708,"Ġmyasthe":5709,"Ġoperative":5710,"edic":5711,"Ġacross":5712,"Ġfungal":5713,"Ġrash":5714,"Ġcho":5715,"ference":5716,"Ġduodenal":5717,"hyd":5718,"Ġunwit":5719,"Ġschiz":5720,"appropriate":5721,"fl":5722,"Ġmed":5723,"Ġcannul":5724,"Ġintraparenchymal":5725,"Ġinfective":5726,"Ġassist":5727,"Ġtracheobronchomalacia":5728,"Ġreactive":5729,"Ġcerebellar":5730,"Ġhistor":5731,"ned":5732,"Ġlt":5733,"Ġrever":5734,"ains":5735,"otal":5736,"Ġdiagnostic":5737,"Ġdetailed":5738,"Ġcris":5739,"ocaine":5740,"Ġradiologist":5741,"Ġhistorian":5742,"adi":5743,"Ġopaque":5744,"anced":5745,"Ġloa":5746,"Ġperic":5747,"ends":5748,"ode":5749,"Ġconverted":5750,"Ġinvasive":5751,"Ġunwitnessed":5752,"Ġprobe":5753,"Ġdepic":5754,"Ġoriented":5755,"hc":5756,"atures":5757,"Ġwt":5758,"Ġflow":5759,"Ġlamin":5760,"enting":5761,"Ġvasculitis":5762,"Ġorientation":5763,"Ġfluids":5764,"Ġmediastinoscopy":5765,"fusion":5766,"Ġmigrated":5767,"ded":5768,"Ġisland":5769,"concern":5770,"distal":5771,"Ġcrisis":5772,"onodular":5773,"Ġfasc":5774,"hep":5775,"Ġswallow":5776,"cage":5777,"Ġsuperimp":5778,"relative":5779,"Ġgallst":5780,"legm":5781,"Ġstarting":5782,"idity":5783,"pfi":5784,"suggest":5785,"Ġaccur":5786,"Ġhypertensive":5787,"visional":5788,"isc":5789,"Ġdischarge":5790,"Ġsides":5791,"Ġcomparable":5792,"Ġmist":5793,"Ġperm":5794,"Ġdish":5795,"Ġribcage":5796,"Ġresiding":5797,"Ġarchitect":5798,"Ġaccounts":5799,"Ġnumber":5800,"Ġnurses":5801,"Ġneoplasm":5802,"Ġsedated":5803,"Ġexisting":5804,"Ġquestioned":5805,"Ġprogressing":5806,"tortuosity":5807,"vg":5808,"leman":5809,"eries":5810,"Ġanter":5811,"Ġwidth":5812,"Ġcover":5813,"Ġqa":5814,"jejun":5815,"reference":5816,"enign":5817,"ouse":5818,"Ġdroop":5819,":.":5820,"Ġgent":5821,"raction":5822,"Ġfollows":5823,"bow":5824,"uated":5825,"Ġstay":5826,"Ġvertebroplasty":5827,"Ġoccas":5828,"Ġnursing":5829,"aft":5830,"Ġfair":5831,"Ġtrial":5832,"Ġstat":5833,"Ġrange":5834,"Ġthoraco":5835,"Ġtxp":5836,"illance":5837,"scribed":5838,"Ġthrombus":5839,"Ġbilat":5840,"adily":5841,"svc":5842,"Ġevala":5843,"Ġgetting":5844,"Ġgoing":5845,"Ġmyasthenia":5846,"oin":5847,"Ġdon":5848,"Ġendomet":5849,"placement":5850,"umm":5851,"congestion":5852,"Ġmistaken":5853,"Ġmill":5854,"bleed":5855,"Ġtakeback":5856,"Ġ80":5857,"Ġventral":5858,"restrained":5859,"Ġpnuemonia":5860,"ju":5861,"ines":5862,"Ġest":5863,"Ġlim":5864,"Ġexc":5865,"hypoxia":5866,"Ġreadily":5867,"Ġbic":5868,"Ġpercutaneous":5869,"Ġsensation":5870,"Ġecho":5871,"osc":5872,"Ġrequire":5873,"Ġsurveillance":5874,"iable":5875,"Ġadjustment":5876,"Ġissues":5877,"Ġsuperimposition":5878,"Ġbarium":5879,"Ġbp":5880,"ubstance":5881,"uria":5882,"Ġpolys":5883,"vex":5884,"Ġfilled":5885,"struction":5886,"Ġheaviness":5887,"unctate":5888,"ergency":5889,"Ġmusc":5890,"Ġelbow":5891,"gu":5892,"Ġsumm":5893,"Ġmag":5894,"poor":5895,"Ġgentleman":5896,"Ġreintubated":5897,"ocyst":5898,"spinal":5899,"Ġhyperlipidemia":5900,"Ġsymmetrical":5901,"Ġunderpenetrated":5902,"Ġsure":5903,"path":5904,"Ġcold":5905,"Ġmarrow":5906,"Ġleading":5907,"Ġfood":5908,"signs":5909,"pticus":5910,"Ġtv":5911,"Ġunrestrained":5912,"Ġphlegm":5913,"Ġreticulonodular":5914,"thiasis":5915,"Ġspaces":5916,"Ġxrt":5917,"discuss":5918,"Ġfairly":5919,"par":5920,"possib":5921,"Ġpsy":5922,"arcoma":5923,"Ġbare":5924,"Ġupdated":5925,"Ġdistinct":5926,"cavoatrial":5927,"Ġhemicolectomy":5928,"Ġexchange":5929,"Ġgan":5930,"Ġlipomatosis":5931,"ngt":5932,"Ġadmissions":5933,"bre":5934,"omogeneous":5935,"ingu":5936,"Ġswallowing":5937,"Ġdeviated":5938,"Ġtuberculous":5939,"Ġcephalad":5940,"Ġlaminectomy":5941,"Ġcut":5942,"Ġtubular":5943,"lucent":5944,"entioned":5945,"Ġsarcoma":5946,"Ġpolysubstance":5947,"Ġll":5948,"ans":5949,"Ġvag":5950,"Ġchyl":5951,"compl":5952,"Ġgreat":5953,"pres":5954,"Ġinfections":5955,"Ġresides":5956,"Ġosteo":5957,"Ġcomplaints":5958,"Ġganz":5959,"do":5960,"atter":5961,"Ġsuccessful":5962,"imetric":5963,"cted":5964,"Ġbeh":5965,"Ġbrid":5966,"onse":5967,"altered":5968,"ley":5969,"Ġpassing":5970,"Ġfluor":5971,"elevated":5972,"Ġsk":5973,"Ġanxiety":5974,"Ġpacu":5975,"Ġurinary":5976,"Ġimmunosuppressed":5977,"Ġevalaute":5978,"Ġ)":5979,"Ġhypother":5980,"bs":5981,"Ġresponse":5982,"orexia":5983,"Ġepilepticus":5984,"strike":5985,"hypertrophic":5986,"rist":5987,"ulating":5988,"Ġsurgeries":5989,"Ġreturned":5990,"Ġsomnolence":5991,"Ġcns":5992,"Ġolder":5993,"Ġlie":5994,"igo":5995,"Ġsxs":5996,"discussed":5997,"asthma":5998,"axis":5999,"ulent":6000,"appearing":6001,"Ġiniti":6002,"Ġbile":6003,"Ġbms":6004,"Ġhouse":6005,"chole":6006,"Ġcontrolled":6007,"romised":6008,"Ġdict":6009,"Ġsegmental":6010,"Ġdc":6011,"Ġdetermin":6012,"cardic":6013,"aspinal":6014,"Ġdiabetic":6015,"Ġmiss":6016,"Ġemergency":6017,"minimally":6018,"cs":6019,"orogastric":6020,"Ġbarely":6021,"Ġingestion":6022,"fts":6023,"Ġpersistant":6024,"Ġherni":6025,"Ġface":6026,"Ġadenoca":6027,"Ġcoinciding":6028,"smo":6029,"Ġaph":6030,"Ġolt":6031,"atelectatic":6032,"respiratory":6033,"Ġdensely":6034,"Ġcalled":6035,"Ġsay":6036,"Ġdem":6037,"Ġanorexia":6038,"Ġamylo":6039,"Ġmas":6040,"Ġthoracoscopy":6041,"Ġthrombectomy":6042,"ventil":6043,"bid":6044,"Ġanch":6045,"Ġmandi":6046,"Ġnotified":6047,"Ġgangl":6048,"inguish":6049,"tach":6050,"Ġwrist":6051,"Ġdors":6052,"Ġboard":6053,"ject":6054,"xed":6055,"aily":6056,"Ġbipap":6057,"Ġfeeds":6058,"Ġreconstr":6059,"scattered":6060,"Ġparaspinal":6061,"Ġstricture":6062,"Ġstrokes":6063,"Ġruptured":6064,"healed":6065,"Ġtail":6066,"Ġtenting":6067,"Ġintoxication":6068,"Ġtolerate":6069,"Ġnasal":6070,"Ġbenign":6071,"Ġtravel":6072,"Ġtransplantation":6073,"Ġhigher":6074,"Ġthoracoabdominal":6075,"Ġmillimetric":6076,"Ġcult":6077,"Ġdull":6078,"Ġseem":6079,"umonia":6080,"Ġdaily":6081,"Ġrca":6082,"Ġsubtotal":6083,"Ġcx":6084,"Ġpancreas":6085,"Ġdram":6086,"Ġvre":6087,"endent":6088,"Ġtrap":6089,"Ġrepresentative":6090,"Ġgastrostomy":6091,"Ġpulling":6092,"abine":6093,"cyt":6094,"Ġvertigo":6095,"kal":6096,"Ġapic":6097,"Ġjejun":6098,"Ġtracheobronchial":6099,"Ġsequelae":6100,"dependent":6101,"Ġaw":6102,"Ġnp":6103,"Ġsituation":6104,"Ġdorsal":6105,"jugular":6106,"Ġperibronch":6107,"Ġgrowth":6108,"Ġthym":6109,"Ġpatch":6110,"Ġchylothorax":6111,"Ġansw":6112,"therosclerosis":6113,"Ġlooking":6114,"Ġsummation":6115,"Ġapart":6116,"Ġretur":6117,"supine":6118,"Ġcolonoscopy":6119,"Ġbroad":6120,"--":6121,"bi":6122,"Ġ___-___":6123,"Ġgait":6124,"hl":6125,"Ġcy":6126,"izontal":6127,"deform":6128,"coronary":6129,"dobhoff":6130,"Ġaffecting":6131,"/___":6132,"Ġatherosclerosis":6133,"Ġsvg":6134,"Ġlisted":6135,"Ġrs":6136,"Ġacidosis":6137,"Ġdropping":6138,"Ġanticoagulation":6139,"hydration":6140,"ten":6141,"Ġinnumerable":6142,"Ġinterspace":6143,"develop":6144,"vertebral":6145,"thy":6146,"Ġlar":6147,"Ġheadstrike":6148,"massive":6149,"Ġpurulent":6150,"Ġtear":6151,"Ġtracheoplasty":6152,"Ġmarginal":6153,"numerous":6154,"Ġganglia":6155,"tical":6156,"Ġreadmitted":6157,"Ġattending":6158,"Ġsulci":6159,"Ġfol":6160,"Ġyou":6161,"ystrophy":6162,"Ġpenet":6163,"Ġusual":6164,"Ġidentify":6165,"Ġpeer":6166,"ymptomatic":6167,"Ġpy":6168,"itabine":6169,"oughly":6170,"Ġdistinguish":6171,"ominant":6172,"Ġdriver":6173,"Ġcryptogenic":6174,"Ġcocaine":6175,"ers":6176,"Ġflap":6177,"Ġnc":6178,"oplastic":6179,"Ġintravascular":6180,"Ġscale":6181,"Ġqual":6182,"Ġrecords":6183,"uous":6184,"Ġisin":6185,"Ġent":6186,"Ġoverinflated":6187,"Ġshaft":6188,"iveness":6189,"operitoneal":6190,"reas":6191,"amine":6192,"Ġluq":6193,"itr":6194,"Ġthose":6195,"osarcoma":6196,"Ġtransjugular":6197,"lerg":6198,"Ġnevertheless":6199,"bx":6200,"Ġmentioned":6201,"Ġpermits":6202,"Ġtalc":6203,"uloperitoneal":6204,"Ġunde":6205,"Ġshaped":6206,"Ġidio":6207,"Ġcallus":6208,"Ġectatic":6209,"superiorly":6210,"oce":6211,"Ġpv":6212,"Ġmod":6213,"Ġinfected":6214,"ological":6215,"Ġintervention":6216,"Ġreconstruction":6217,"fiss":6218,"Ġwk":6219,"Ġroughly":6220,"utri":6221,"oneph":6222,"Ġperson":6223,"Ġhorizontal":6224,"Ġaphasia":6225,"Ġtap":6226,"imm":6227,"Ġbronchopneum":6228,"Ġtemporal":6229,"uter":6230,"Ġrun":6231,"pelvis":6232,"Ġlue":6233,"Ġtrop":6234,"entation":6235,"ching":6236,"obacter":6237,"Ġpalsy":6238,"Ġmorbid":6239,"Ġstriking":6240,"Ġhrs":6241,"pathic":6242,"aeration":6243,"Ġsal":6244,"Ġadmin":6245,"Ġscrews":6246,"aneurys":6247,"Ġrheum":6248,"ool":6249,"emb":6250,"Ġthyroidectomy":6251,"Ġformer":6252,"Ġoffice":6253,"Ġcarcinomatosis":6254,"Ġidiopathic":6255,"utrition":6256,"Ġtend":6257,"emonstrates":6258,"oxic":6259,"Ġsupporting":6260,"Ġpseudo":6261,"bones":6262,"sal":6263,"ipital":6264,"hyperinflated":6265,"shortness":6266,"onset":6267,"Ġeffus":6268,"Ġonto":6269,"Ġimplantation":6270,"Ġfavoring":6271,"Ġcode":6272,"omor":6273,"etoh":6274,"Ġamput":6275,"Ġbipolar":6276,"pan":6277,"standard":6278,"edown":6279,"Ġhbv":6280,"Ġintermedi":6281,"ocomp":6282,"jejunostomy":6283,"cpd":6284,"odic":6285,"Ġficu":6286,"Ġdiscontinued":6287,"Ġsimilarly":6288,"Ġsoon":6289,"Ġpressors":6290,"ondy":6291,"Ġting":6292,"Ġhomogeneous":6293,"Ġradiodense":6294,"version":6295,"Ġobject":6296,"Ġphysi":6297,"ken":6298,"Ġtakedown":6299,"Ġparaesophageal":6300,"Ġpericar":6301,"cal":6302,"Ġgland":6303,"ogast":6304,"Ġcurled":6305,"Ġimmunocomp":6306,"Ġannuloplasty":6307,"Ġdepicted":6308,"Ġhypothermia":6309,"Ġccy":6310,"Ġlvef":6311,"Ġbran":6312,"Ġdelay":6313,"Ġconversion":6314,"Ġugib":6315,"Ġsss":6316,"Ġhh":6317,"Ġflush":6318,"Ġdim":6319,"Ġcirc":6320,"Ġinclusion":6321,"aresis":6322,"Ġaids":6323,"Ġallow":6324,"Ġhypopharynx":6325,"coar":6326,"attention":6327,"Ġorthopedic":6328,"Ġour":6329,"Ġ___),":6330,"Ġpseudomonas":6331,"Ġbronchopneumonia":6332,"bil":6333,"Ġtim":6334,"Ġinsulin":6335,"Ġdiscord":6336,"Ġlooks":6337,"Ġseriously":6338,"Ġeight":6339,"Ġnonproductive":6340,"cholecyst":6341,"Ġapicolateral":6342,"immun":6343,"Ġcc":6344,"Ġturn":6345,"ents":6346,"Ġangina":6347,"Ġcorrectly":6348,"Ġhematoc":6349,"Ġabscesses":6350,"Ġaspirated":6351,"reason":6352,"Ġadminist":6353,"atoid":6354,"rape":6355,"Ġupgrade":6356,"Ġallerg":6357,"present":6358,"iptical":6359,"aches":6360,"ulate":6361,"Ġdependence":6362,"Ġanatom":6363,"Ġquality":6364,"Ġsequent":6365,"irregular":6366,"Ġfocally":6367,"utic":6368,"Ġsequential":6369,"Ġconne":6370,"Ġulcerative":6371,"hemothorax":6372,"Ġamputation":6373,"bore":6374,"well":6375,"Ġrelap":6376,"Ġmany":6377,"Ġbreak":6378,"centimeter":6379,"ietal":6380,"rapeutic":6381,"nodule":6382,"oscoliosis":6383,"aneurysm":6384,"muc":6385,"itated":6386,"Ġasymptomatic":6387,"lot":6388,"Ġpreg":6389,"Ġ-___":6390,"Ġsuctioning":6391,"hepatic":6392,"onch":6393,"Ġfine":6394,"valve":6395,"Ġunequivocal":6396,"Ġsiz":6397,"Ġvanc":6398,"istic":6399,"extub":6400,"Ġnsip":6401,"Ġinhal":6402,"Ġcoalescent":6403,"crow":6404,"oth":6405,"Ġrejection":6406,"opa":6407,"decrease":6408,"Ġdistally":6409,"Ġtbbx":6410,"Ġsymptomatic":6411,"contrast":6412,"Ġosteophyte":6413,"rine":6414,"alle":6415,"Ġell":6416,"Ġronchi":6417,"pneumomediastinum":6418,"Ġrespect":6419,"openic":6420,"Ġtooth":6421,"Ġdonor":6422,"var":6423,"rex":6424,"Ġpole":6425,"Ġlight":6426,"Ġoutlet":6427,"recurrent":6428,"Ġesophagogast":6429,"Ġiii":6430,"Ġfactors":6431,"smoker":6432,"sia":6433,"Ġoval":6434,"Ġaorto":6435,"convex":6436,"cardiogenic":6437,"juv":6438,"Ġmask":6439,"Ġpunctate":6440,"Ġunstable":6441,"Ġtachypneic":6442,"Ġdeficiency":6443,"Ġgallstone":6444,"Ġaccurately":6445,"Ġlimb":6446,"Ġpd":6447,"aden":6448,"Ġdislod":6449,"otrex":6450,"Ġmethotrex":6451,"Ġrheumatoid":6452,"Ġimmunocompromised":6453,"Ġmethotrexate":6454,"rexp":6455,"stro":6456,"Ġhemodynamically":6457,"Ġproblems":6458,"Ġhematocrit":6459,"Ġram":6460,"Ġoverloaded":6461,"Ġmyc":6462,"Ġulcers":6463,"Ġdictated":6464,"syncope":6465,"Ġreading":6466,"Ġresected":6467,"Ġtachycardic":6468,"Ġtemps":6469,"Ġglobal":6470,"Ġoccupying":6471,"Ġiliac":6472,"Ġnhl":6473,"adv":6474,"arget":6475,"airspace":6476,"full":6477,"Ġendometrial":6478,"Ġlargest":6479,"Ġpericardio":6480,"Ġ'":6481,"only":6482,"dice":6483,"uted":6484,"ellow":6485,"Ġscene":6486,"Ġdextro":6487,"Ġpyloric":6488,"nic":6489,"Ġbif":6490,"Ġhaart":6491,"Ġemailed":6492,"Ġpredominating":6493,"Ġobstructing":6494,"Ġkinked":6495,"pr":6496,"never":6497,"Ġmoved":6498,"Ġendplate":6499,"Ġvisc":6500,"Ġbiopsies":6501,"Ġgsw":6502,"Ġgiving":6503,"omycin":6504,"subsegmental":6505,"Ġbridging":6506,"utamine":6507,"Ġintake":6508,"Ġsupp":6509,"iguous":6510,"Ġdobutamine":6511,"Ġdetecting":6512,"whether":6513,"Ġplanned":6514,"Ġcommonly":6515,"Ġbroken":6516,"au":6517,"centesis":6518,"intestinal":6519,"Ġwob":6520,"Ġcontribut":6521,"Ġcardiovascular":6522,"Ġdesatting":6523,"Ġcannula":6524,"Ġelliptical":6525,"aiting":6526,"eve":6527,"report":6528,"Ġbol":6529,"oculated":6530,"Ġappen":6531,"Ġglass":6532,"Ġretention":6533,"Ġnecessarily":6534,"suspect":6535,"crowding":6536,"juvant":6537,"nif":6538,"Ġdestruction":6539,"Ġbloody":6540,"Ġtace":6541,"costal":6542,"Ġmt":6543,"Ġyet":6544,"Ġvarious":6545,"Ġsafe":6546,"demonstrates":6547,"Ġappend":6548,"losis":6549,"Ġcordis":6550,"Ġtenth":6551,"fracture":6552,"be":6553,"ulus":6554,"Ġangi":6555,"that":6556,"Ġcort":6557,"Ġpending":6558,"Ġpostobstructive":6559,"Ġangulation":6560,"Ġquery":6561,"week":6562,"Ġoptimally":6563,"desc":6564,"complicated":6565,"ts":6566,"Ġbig":6567,"eness":6568,"arm":6569,"Ġgli":6570,"Ġhypercarbia":6571,"Ġdislodged":6572,"Ġsct":6573,"Ġsimp":6574,"atectomy":6575,"Ġvari":6576,"comb":6577,"omorrow":6578,"Ġesophagogastrectomy":6579,"ventricular":6580,"went":6581,"vest":6582,"iform":6583,"Ġgtt":6584,"Ġevents":6585,"Ġeosinophilic":6586,"Ġcorrelates":6587,"Ġcovering":6588,"bal":6589,"rll":6590,"lobular":6591,"Ġdenote":6592,"Ġsm":6593,"ides":6594,"oling":6595,"remote":6596,"Ġendoscopy":6597,"Ġventriculoperitoneal":6598,"drt":6599,"whee":6600,"dale":6601,"form":6602,"pos":6603,"sut":6604,"Ġlobulated":6605,"Ġposted":6606,"Ġoutpatient":6607,"Ġfavors":6608,"Ġseparation":6609,"hype":6610,"hanced":6611,"Ġcase":6612,"tect":6613,"uretic":6614,"Ġmycobacter":6615,"pop":6616,"chdale":6617,"Ġcardioversion":6618,"Ġyellow":6619,"Ġmye":6620,"proximal":6621,"Ġexaggeration":6622,"apprec":6623,"Ġipf":6624,"charg":6625,"Ġunaltered":6626,"Ġtell":6627,"Ġavidity":6628,"Ġperiod":6629,"metast":6630,"Ġdiuresed":6631,"circum":6632,"cx":6633,"Ġure":6634,"they":6635,"Ġintestinal":6636,"portion":6637,"Ġdysp":6638,"pericardial":6639,"Ġsubstantiated":6640,"Ġproperly":6641,"Ġusing":6642,"Ġdimension":6643,"Ġunequivocally":6644,"chdalek":6645,"mitral":6646,"pigtail":6647,"splant":6648,"Ġdocumentation":6649,"Ġmultiloculated":6650,"deformity":6651,"fullness":6652,"charged":6653,"bra":6654,"thing":6655,"Ġinstead":6656,"Ġlist":6657,"rable":6658,"Ġcontiguous":6659,"ipation":6660,"Ġhemip":6661,"newly":6662,"postsurgical":6663,"Ġpoints":6664,"Ġflexure":6665,"hyperexp":6666,"tectable":6667,"Ġker":6668,"Ġproximally":6669,"Ġplanning":6670,"Ġbolus":6671,"Ġom":6672,"Ġarms":6673,"basal":6674,"tvr":6675,"oup":6676,"Ġdiuretic":6677,"Ġventilatory":6678,"Ġprogressively":6679,"Ġvirt":6680,"Ġpsych":6681,"cholecystectomy":6682,"appreciable":6683,"#___":6684,"bul":6685,"size":6686,"Ġheter":6687,"Ġinfil":6688,"Ġpreexisting":6689,"Ġgp":6690,"Ġjaw":6691,"Ġexcision":6692,"Ġmuscle":6693,"dilated":6694,"unremarkable":6695,"Ġhl":6696,"Ġexact":6697,"perib":6698,"Ġdischarged":6699,"oblast":6700,"Ġpanc":6701,"Ġpeak":6702,"Ġoccupies":6703,"onephritis":6704,"pls":6705,"arca":6706,"Ġconce":6707,"Ġamio":6708,"diography":6709,"Ġfactor":6710,"Ġreversal":6711,"Ġseems":6712,"direct":6713,"cet":6714,"ssel":6715,"clus":6716,"Ġamen":6717,"Ġintravenous":6718,"Ġsu":6719,"radio":6720,"illary":6721,"Ġfeatures":6722,"Ġindentation":6723,"ora":6724,"Ġbent":6725,"Ġhow":6726,"Ġanoxic":6727,"Ġstra":6728,"chym":6729,"oplication":6730,"Ġorganizing":6731,"Ġpericardiocentesis":6732,"bus":6733,"dou":6734,"Ġrods":6735,"Ġlocalizing":6736,"Ġtomorrow":6737,"Ġradic":6738,"sseus":6739,"ivascular":6740,"Ġcrowded":6741,"Ġosteopenic":6742,"kalemia":6743,"Ġglioblast":6744,"Ġamenable":6745,"Ġosseus":6746,"Ġfam":6747,"Ġbb":6748,"Ġconcurrently":6749,"Ġrig":6750,"Ġreticulation":6751,"Ġintermedius":6752,"clusive":6753,"base":6754,"gastric":6755,"Ġbochdalek":6756,"Ġmasslike":6757,"cephalus":6758,"Ġcouple":6759,"Ġdetermined":6760,"Ġpseudoaneurysm":6761,"Ġkerley":6762,"cur":6763,"zing":6764,"Ġfell":6765,"Ġreaches":6766,"Ġmax":6767,"ament":6768,"Ġdefect":6769,"Ġcontinuing":6770,"Ġyr":6771,"metallic":6772,"prog":6773,"Ġcephalic":6774,"Ġtrapped":6775,"ua":6776,"ye":6777,"prosthetic":6778,"Ġpneumonias":6779,"indwelling":6780,"venox":6781,"Ġanastomotic":6782,"vomiting":6783,"Ġcml":6784,"ption":6785,"Ġfundoplication":6786,"duced":6787,"nevertheless":6788,"circumscribed":6789,"Ġhsct":6790,"avix":6791,"Ġdownward":6792,"ocardial":6793,"iate":6794,"Ġtong":6795,"ulations":6796,"neck":6797,"Ġentering":6798,"Ġglioblastoma":6799,"lto":6800,"stability":6801,"Ġreal":6802,"Ġreaccum":6803,"Ġtvr":6804,"Ġmainly":6805,"Ġanterolateral":6806,"htn":6807,"vole":6808,"omegaly":6809,"Ġperiton":6810,"Ġperivascular":6811,"Ġembo":6812,"Ġinvolve":6813,"Ġprojectional":6814,"ventional":6815,"aning":6816,"Ġxr":6817,"Ġimplants":6818,"Ġfungemia":6819,"cardiopulmonary":6820,"Ġfragments":6821,"Ġscheduled":6822,"Ġadministration":6823,"drain":6824,"alternatively":6825,"Ġeu":6826,"noon":6827,"Ġrue":6828,"Ġsubcentimeter":6829,"Ġextraction":6830,"olithiasis":6831,"expected":6832,"Ġsheet":6833,"confirm":6834,"Ġsacral":6835,"peribronchial":6836,"Ġtongue":6837,"skeletal":6838,"enced":6839,"Ġafternoon":6840,"Ġ40":6841,"arelto":6842,"Ġresections":6843,"bronchi":6844,"Ġseparately":6845,"Ġgrowing":6846,"Ġaspergill":6847,"Ġinters":6848,"Ġdetectable":6849,"Ġoxygenation":6850,"ancement":6851,"ventilation":6852,"combination":6853,"rup":6854,"rian":6855,"ilities":6856,"Ġatx":6857,"Ġdiscern":6858,"Ġarri":6859,"Ġdraining":6860,"Ġblast":6861,"Ġphtn":6862,"Ġmesh":6863,"Ġoblit":6864,"Ġechocardiography":6865,"Ġmandible":6866,"vestig":6867,"metastatic":6868,"minuted":6869,"Ġcatheterization":6870,"Ġspondy":6871,"immune":6872,"argeted":6873,"calcemia":6874,"Ġscars":6875,"Ġanastam":6876,"Ġpedal":6877,"asarca":6878,"rostomy":6879,"Ġreadjust":6880,"Ġspurring":6881,"Ġdenser":6882,"indistinctness":6883,"Ġradiographdemonstrates":6884,"axia":6885,"changes":6886,"Ġconcerned":6887,"Ġmedication":6888,"Ġparalle":6889,"Ġunwell":6890,"Ġbehind":6891,"bing":6892,"zhe":6893,"thm":6894,"Ġprefer":6895,"ransplant":6896,"Ġparalysis":6897,"Ġglenoid":6898,"Ġcrossing":6899,"Ġambulation":6900,"Ġbullae":6901,"Ġrestrictive":6902,"Ġclarify":6903,"zheim":6904,"me":6905,"Ġchna":6906,"Ġresidua":6907,"Ġdepos":6908,"bowel":6909,"gross":6910,"Ġaltern":6911,"Ġtropon":6912,"amic":6913,"Ġrecall":6914,"Ġagainst":6915,"Ġvision":6916,"Ġhemodynamic":6917,"Ġsizable":6918,"aicd":6919,"uge":6920,"thro":6921,"Ġinte":6922,"Ġincar":6923,"itting":6924,"used":6925,"rightward":6926,"Ġxarelto":6927,"Ġpreserved":6928,"estrian":6929,"loculated":6930,"Ġbulging":6931,"Ġperitonitis":6932,"ky":6933,"renia":6934,"chial":6935,"opro":6936,"Ġcombines":6937,"Ġgangre":6938,"Ġelectrodes":6939,"Ġligament":6940,"bm":6941,"esides":6942,"Ġanasarca":6943,"Ġbeg":6944,"Ġplacem":6945,"Ġplacment":6946,"Ġburning":6947,"Ġinvestig":6948,"andoned":6949,"Ġdiscussion":6950,"provisional":6951,"infiltrates":6952,"vol":6953,"Ġwal":6954,"Ġdeh":6955,"Ġappearances":6956,"ophrenia":6957,"Ġcoarsening":6958,"after":6959,"cle":6960,"pain":6961,"Ġcbleed":6962,"atically":6963,"neath":6964,"Ġmixed":6965,"Ġtotally":6966,"Ġelective":6967,"Ġtermination":6968,"Ġvertebrae":6969,"Ġcontributing":6970,"Ġchnage":6971,"Ġebus":6972,"head":6973,"Ġacuity":6974,"Ġcontains":6975,"Ġthank":6976,"Ġlady":6977,"Ġinfarcts":6978,"Ġbigger":6979,"hi":6980,"Ġunderneath":6981,"ullary":6982,"Ġnephropathy":6983,"Ġburst":6984,"Ġparaple":6985,"Ġinterventional":6986,"oventricular":6987,"attery":6988,"early":6989,"spasm":6990,"ipsilateral":6991,"face":6992,"progression":6993,"Ġts":6994,"undice":6995,"imated":6996,"obsc":6997,"issen":6998,"Ġheroin":6999,"Ġsites":7000,"Ġinstability":7001,"Ġcra":7002,"alp":7003,"Ġfolded":7004,"Ġlcx":7005,"Ġstrep":7006,"Ġlovenox":7007,"Ġexpanding":7008,"Ġhypercalcemia":7009,"ucity":7010,"Ġdvts":7011,"Ġmissed":7012,"eron":7013,"Ġnissen":7014,"iferon":7015,"Ġairless":7016,"Ġarf":7017,"Ġrod":7018,"Ġhydrocephalus":7019,"Ġreassessment":7020,"Ġcoarsened":7021,"Ġanswered":7022,"eper":7023,"Ġfill":7024,"Ġsust":7025,"Ġbesides":7026,"rance":7027,"transesophageal":7028,"fissural":7029,"Ġvariant":7030,"Ġway":7031,"Ġlfts":7032,"Ġreli":7033,"Ġapsingle":7034,"Ġpaf":7035,"Ġrr":7036,"liver":7037,"leftward":7038,"Ġcraniectomy":7039,"Ġjaundice":7040,"Ġhemiparesis":7041,"Ġdehisc":7042,"np":7043,"Ġipsilateral":7044,"riple":7045,"therefore":7046,"Ġclass":7047,"Ġrequires":7048,"Ġnecrotic":7049,"resolved":7050,"Ġawaiting":7051,"thick":7052,"Ġinr":7053,"Ġcontribution":7054,"ogenous":7055,"Ġrelay":7056,"Ġyom":7057,"Ġdescends":7058,"partial":7059,"ycle":7060,"Ġgroin":7061,"Ġbicycle":7062,"extubation":7063,"obscuration":7064,"crack":7065,"pectomy":7066,"wing":7067,"dicitis":7068,"quency":7069,"Ġrepresented":7070,"Ġbands":7071,"lena":7072,"Ġataxia":7073,"vice":7074,"Ġneoplastic":7075,"inflamm":7076,"questionable":7077,"Ġmeld":7078,"Ġpedestrian":7079,"posed":7080,"Ġtur":7081,"olitis":7082,"abl":7083,"Ġcarri":7084,"ocrine":7085,"ocytopenia":7086,"Ġrny":7087,"Ġarchitecture":7088,"Ġpop":7089,"Ġalzheim":7090,"Ġaca":7091,"Ġgastrointestinal":7092,"Ġfeels":7093,"Ġquantiferon":7094,"Ġstool":7095,"Ġuppermost":7096,"Ġyrs":7097,"Ġkink":7098,"Ġmicron":7099,"Ġincarcer":7100,"Ġcarries":7101,"ioma":7102,"oke":7103,"rum":7104,"Ġcompartment":7105,"Ġadrenal":7106,"Ġesophagitis":7107,"collap":7108,"bb":7109,"Ġhit":7110,"Ġdominant":7111,"Ġavoid":7112,"Ġevening":7113,"Ġtpc":7114,"coarse":7115,"Ġaka":7116,"isition":7117,"Ġprof":7118,"outside":7119,"paresis":7120,"Ġmyocardial":7121,"Ġexaggerates":7122,"Ġcareful":7123,"Ġgrown":7124,"cap":7125,"stomach":7126,"Ġbattery":7127,"ococc":7128,"carinal":7129,"otomies":7130,"Ġemail":7131,"Ġscle":7132,"Ġreferrable":7133,"Ġschizophrenia":7134,"Ġfasci":7135,"Ġundetectable":7136,"high":7137,"tod":7138,"Ġproct":7139,"Ġrhonch":7140,"guided":7141,"developing":7142,"Ġbentall":7143,"today":7144,"licular":7145,"Ġery":7146,"Ġmaln":7147,"shallow":7148,"Ġincision":7149,"Ġvariation":7150,"Ġneoad":7151,"Ġdiscontinuity":7152,"Ġoccasional":7153,"Ġrelayed":7154,"duc":7155,"Ġsfa":7156,"Ġmis":7157,"lll":7158,"Ġmelena":7159,"Ġconspicuity":7160,"Ġelectrode":7161,"Ġparaplegia":7162,"isy":7163,"Ġpossibilities":7164,"Ġhyperlucent":7165,"cycle":7166,"weakness":7167,"Ġnecrosis":7168,"Ġconvexity":7169,"Ġcholed":7170,"hcv":7171,"Ġimport":7172,"Ġcoming":7173,"Ġdesatur":7174,"Ġprocedural":7175,"Ġoropharynx":7176,"Ġrepo":7177,"Ġprovide":7178,"hood":7179,"Ġdiuresing":7180,"Ġkinking":7181,"Ġconstipation":7182,"Ġdullness":7183,"curv":7184,"hodgkin":7185,"vasc":7186,"Ġphe":7187,"orous":7188,"Ġtka":7189,"Ġnoon":7190,"Ġimpella":7191,"Ġcalcium":7192,"Ġhematuria":7193,"Ġservice":7194,"Ġmedicine":7195,"Ġheadaches":7196,"periph":7197,"Ġate":7198,"inous":7199,"Ġhuge":7200,"Ġvl":7201,"Ġthal":7202,"Ġexcludes":7203,"Ġfibro":7204,"Ġinvolves":7205,"Ġdirectly":7206,"Ġarthropathy":7207,"Ġbecome":7208,"Ġlevoscoliosis":7209,"Ġreveals":7210,"Ġappendicitis":7211,"Ġconceiv":7212,"Ġdehiscence":7213,"down":7214,"Ġset":7215,"Ġmg":7216,"Ġroot":7217,"Ġurine":7218,"Ġcorevalve":7219,"Ġtailored":7220,"Ġfollicular":7221,"xn":7222,"alasia":7223,"Ġpark":7224,"Ġostomy":7225,"Ġunit":7226,"Ġgj":7227,"Ġremained":7228,"Ġcomminuted":7229,"Ġmalfunction":7230,"Ġthrombocytopenia":7231,"Ġaccounted":7232,"Ġfolds":7233,"Ġrelapsed":7234,"Ġmalnutrition":7235,"hard":7236,"still":7237,"olysis":7238,"Ġpaucity":7239,"Ġfront":7240,"endocrine":7241,"Ġnarrowed":7242,"Ġangiogram":7243,"Ġcontacted":7244,"Ġcircumstance":7245,"Ġherniation":7246,"Ġvirtually":7247,"Ġreevaluate":7248,"Ġcaring":7249,"active":7250,"conventional":7251,"Ġlegion":7252,"Ġanchors":7253,"nd":7254,"uster":7255,"arte":7256,"Ġoss":7257,"Ġinduced":7258,"Ġvom":7259,"ficial":7260,"Ġwalls":7261,"leted":7262,"Ġlocalize":7263,"dislocation":7264,"Ġtechnically":7265,"Ġcycle":7266,"cirrhosis":7267,"cation":7268,"Ġai":7269,"Ġhyperkalemia":7270,"Ġlabs":7271,"Ġica":7272,"___%":7273,"Ġseed":7274,"opic":7275,"obectomy":7276,"Ġcpd":7277,"Ġembolic":7278,"Ġfilling":7279,"peripheral":7280,"transplant":7281,"Ġray":7282,"ubic":7283,"Ġgcs":7284,"Ġaccept":7285,"Ġevar":7286,"Ġfacet":7287,"Ġcrt":7288,"Ġobliter":7289,"Ġdiscordance":7290,"mph":7291,"seiz":7292,"Ġobliques":7293,"Ġneurologic":7294,"Ġadequately":7295,"Ġadjusted":7296,"can":7297,"ited":7298,"Ġendarte":7299,"Ġmeant":7300,"Ġbike":7301,"Ġcranial":7302,"Ġcrohns":7303,"Ġpenumonia":7304,"Ġlabored":7305,"Ġcopious":7306,"Ġcholedoch":7307,"hardware":7308,"oaff":7309,"pot":7310,"stent":7311,"Ġddrt":7312,"Ġradiolucency":7313,"luent":7314,"Ġgastroparesis":7315,"Ġmajority":7316,"Ġutis":7317,"Ġexposures":7318,"cellular":7319,"Ġautoimmune":7320,"Ġmacro":7321,"ansile":7322,"Ġgangrene":7323,"oaffective":7324,"ori":7325,"Ġwit":7326,"Ġunstead":7327,"irub":7328,"oster":7329,"Ġatrioventricular":7330,"Ġdepressed":7331,"Ġpathological":7332,"Ġexplaining":7333,"Ġclamping":7334,"Ġneuroendocrine":7335,"Ġvolv":7336,"Ġmagnif":7337,"Ġvagal":7338,"Ġusually":7339,"Ġcortical":7340,"stances":7341,"Ġtah":7342,"Ġexisted":7343,"lobar":7344,"assisted":7345,"Ġmarking":7346,"Ġadvance":7347,"despite":7348,"ituitary":7349,"healing":7350,"treatment":7351,"ami":7352,"pacity":7353,"cluding":7354,"Ġsubcarinal":7355,"Ġsmooth":7356,"Ġweighted":7357,"Ġuseful":7358,"Ġseparate":7359,"pneumothoraces":7360,"Ġaspergil":7361,"Ġpyel":7362,"Ġpreferably":7363,"Ġmeantime":7364,"cause":7365,"oac":7366,"Ġperc":7367,"ophoff":7368,"Ġafe":7369,"Ġbiopro":7370,"Ġgrafting":7371,"lobe":7372,"Ġvertical":7373,"Ġhepatocellular":7374,"Ġobliteration":7375,"Ġdeposits":7376,"Ġbegin":7377,"Ġlegionella":7378,"dx":7379,"Ġdophoff":7380,"Ġcongen":7381,"nife":7382,"Ġporta":7383,"Ġevidenced":7384,"pleura":7385,"lace":7386,"distributed":7387,"considering":7388,"Ġofficer":7389,"Ġacceptable":7390,"omas":7391,"Ġexce":7392,"chain":7393,"Ġstress":7394,"Ġattn":7395,"Ġdehydration":7396,"Ġworst":7397,"Ġgram":7398,"Ġformations":7399,"Ġtraversing":7400,"bronchoscopy":7401,"Ġthymectomy":7402,"Ġparkins":7403,"Ġcompleted":7404,"Ġapnea":7405,"Ġabandoned":7406,"Ġsettings":7407,"Ġnephrostomy":7408,"Ġguarding":7409,"Ġexploration":7410,"Ġpsl":7411,"Ġallergic":7412,"Ġangioplasty":7413,"hiatal":7414,"iph":7415,"Ġcbd":7416,"Ġpituitary":7417,"ria":7418,"Ġbc":7419,"Ġheparin":7420,"Ġmassively":7421,"Ġalzheimer":7422,"Ġvolvulus":7423,"Ġcome":7424,"Ġpin":7425,"Ġrl":7426,"Ġgr":7427,"cluded":7428,"Ġ70":7429,"Ġparietal":7430,"Ġadmit":7431,"Ġligation":7432,"Ġdramatically":7433,"Ġsuic":7434,"Ġerythe":7435,"Ġcongenital":7436,"Ġouter":7437,"Ġevalute":7438,"Ġket":7439,"Ġintrafissural":7440,"Ġpredominately":7441,"Ġ___%.":7442,"Ġneutral":7443,"Ġhypoventilation":7444,"curvilinear":7445,"ps":7446,"Ġum":7447,"onal":7448,"Ġaz":7449,"Ġreporting":7450,"Ġdistant":7451,"Ġrhabd":7452,"Ġspeed":7453,"Ġmesent":7454,"Ġugi":7455,"Ġreaching":7456,"tachy":7457,"Ġjejunum":7458,"suture":7459,"inflammatory":7460,"Ġafebrile":7461,"atric":7462,"ssion":7463,"Ġdyp":7464,"hyperexpansion":7465,"thickening":7466,"ducible":7467,"flutter":7468,"ached":7469,"umed":7470,"itant":7471,"Ġdose":7472,"Ġword":7473,"Ġapproval":7474,"pneumoperitoneum":7475,"Ġpatency":7476,"Ġattempts":7477,"Ġbulge":7478,"Ġaspergillosis":7479,"Ġpyelonephritis":7480,"Ġtargeted":7481,"Ġvf":7482,"Ġinterposition":7483,"Ġcontrol":7484,"compare":7485,"Ġgive":7486,"Ġpulmon":7487,"Ġimplanted":7488,"Ġvertically":7489,"Ġunresponsiveness":7490,"Ġcycles":7491,"Ġestabl":7492,"Ġdextroconvex":7493,"irubin":7494,"ars":7495,"lymph":7496,"Ġstaff":7497,"Ġeffective":7498,"Ġsaturations":7499,"doubt":7500,"bronchiectasis":7501,"crackles":7502,"Ġwax":7503,"Ġmu":7504,"aban":7505,"cectomy":7506,"Ġintercostal":7507,"ontine":7508,"Ġpancyt":7509,"Ġhealthy":7510,"Ġbrb":7511,"Ġdiverticul":7512,"Ġordering":7513,"Ġendarterectomy":7514,"oacidosis":7515,"Ġketoacidosis":7516,"Ġta":7517,"ouble":7518,"ams":7519,"Ġprev":7520,"ople":7521,"alyzed":7522,"Ġresolve":7523,"Ġ--___":7524,"Ġcrrt":7525,"Ġelectronic":7526,"Ġfluoroscopic":7527,"Ġcyber":7528,"Ġradical":7529,"Ġtsicu":7530,"therapeutic":7531,"enhanced":7532,"Ġsublu":7533,"Ġcluster":7534,"Ġpulmonic":7535,"Ġscreen":7536,"Ġcreat":7537,"Ġexud":7538,"aging":7539,"Ġcoli":7540,"rectal":7541,"Ġassoc":7542,"Ġsits":7543,"Ġcystectomy":7544,"suspected":7545,"event":7546,"gaseous":7547,"zone":7548,"acath":7549,"Ġdystrophy":7550,"Ġcontents":7551,"Ġcpr":7552,"Ġsleep":7553,"knife":7554,"Ġsvt":7555,"Ġcardiomediastinum":7556,"Ġalter":7557,"Ġrepro":7558,"controlled":7559,"Ġintoxicated":7560,"Ġpneu":7561,"Ġsclero":7562,"Ġthalamic":7563,"Ġlaryngeal":7564,"ominate":7565,"Ġcollected":7566,"worsened":7567,"Ġstrid":7568,"Ġcircumstances":7569,"Ġfamily":7570,"Ġnj":7571,"Ġinterface":7572,"lig":7573,"obar":7574,"Ġcpap":7575,"Ġpharynx":7576,"Ġbronchiolitis":7577,"Ġcholecystostomy":7578,"Ġwhiteout":7579,"Ġspiked":7580,"Ġamyloid":7581,"Ġneoadjuvant":7582,"thus":7583,"Ġmind":7584,"Ġig":7585,"Ġavm":7586,"operatively":7587,"Ġeva":7588,"Ġbronchogram":7589,"Ġrestrained":7590,"Ġweaning":7591,"Ġphysiology":7592,"othoracic":7593,"Ġws":7594,"Ġvac":7595,"Ġunderwent":7596,"Ġquestions":7597,"Ġladder":7598,"fibrosis":7599,"Ġtimes":7600,"Ġrigid":7601,"Ġtroponin":7602,"Ġbioprosthetic":7603,"teral":7604,"repa":7605,"Ġliter":7606,"Ġredistributed":7607,"abolic":7608,"Ġcartil":7609,"redemonstrated":7610,"Ġendogastric":7611,"Ġtracheomalacia":7612,"Ġmalposition":7613,"Ġreferred":7614,"Ġbullet":7615,"arthritis":7616,"Ġchemora":7617,"Ġlysis":7618,"Ġanti":7619,"cule":7620,"remaining":7621,"Ġloculations":7622,"Ġaneurysms":7623,"background":7624,"Ġrevealing":7625,"Ġmicro":7626,"Ġtaper":7627,"eventration":7628,",,":7629,"sat":7630,"review":7631,"Ġstump":7632,"dered":7633,"Ġexplains":7634,"Ġtransfusions":7635,"platelike":7636,"Ġconclusive":7637,"Ġstaph":7638,"angio":7639,"Ġmanaged":7640,"Ġendovascular":7641,"Ġsystemic":7642,"Ġbandlike":7643,"Ġinitiation":7644,"stroke":7645,"Ġpancytopenia":7646,"Ġcyberknife":7647,"ouch":7648,"imum":7649,"near":7650,"Ġappy":7651,"Ġmos":7652,"Ġcmv":7653,"Ġdisplay":7654,"Ġbrief":7655,"Ġschizoaffective":7656,"Ġstridor":7657,"da":7658,"Ġunless":7659,"defin":7660,"Ġbrachial":7661,"Ġdecitabine":7662,"Ġpenetration":7663,"Ġpregnant":7664,"Ġincarcerated":7665,"Ġreproducible":7666,"repair":7667,"Ġuns":7668,"Ġportacath":7669,"ocytic":7670,"Ġgbm":7671,"Ġtraction":7672,"Ġinterstial":7673,"Ġabc":7674,"loss":7675,"Ġregressed":7676,"opharyngeal":7677,"Ġfalling":7678,"Ġblunt":7679,"ologist":7680,"Ġinspirational":7681,"Ġcollecting":7682,"Ġdifferentiate":7683,"Ġactually":7684,"Ġnephritis":7685,"Ġmodal":7686,"brady":7687,"aids":7688,"Ġide":7689,"Ġach":7690,"diagno":7691,"diogram":7692,"gered":7693,"Ġemp":7694,"nonspecific":7695,"Ġconceivably":7696,"Ġput":7697,"elong":7698,"Ġefffusion":7699,"Ġoccipital":7700,"Ġmarginated":7701,"Ġcraniotomies":7702,"Ġheights":7703,"Ġanatomic":7704,"advancement":7705,"Ġmucoid":7706,"ppd":7707,"sens":7708,"retic":7709,"Ġao":7710,"Ġintrapulm":7711,"Ġmediport":7712,"general":7713,"pancreas":7714,"collapse":7715,"Ġerythema":7716,"ae":7717,"fo":7718,"should":7719,"wi":7720,"indeterminate":7721,"Ġfin":7722,"Ġreally":7723,"rap":7724,"chond":7725,"Ġcondu":7726,"spect":7727,"Ġintraabdominal":7728,"probably":7729,"Ġabuts":7730,"Ġarchitectural":7731,"Ġreturning":7732,"bilical":7733,"Ġalternative":7734,"Ġconduit":7735,"ie":7736,"smaller":7737,"streak":7738,"Ġload":7739,"gether":7740,"Ġinterlobar":7741,"minor":7742,"Ġ,.":7743,"Ġ60":7744,"lucination":7745,"Ġthink":7746,"confluent":7747,"Ġperibronchovascular":7748,"tin":7749,"orb":7750,"esrd":7751,"Ġasess":7752,"Ġsubq":7753,"sions":7754,"Ġapproximate":7755,"ylaxis":7756,"Ġwarrants":7757,"Ġtrouble":7758,"Ġhallucination":7759,"Ġsubtly":7760,"evol":7761,"reated":7762,"rection":7763,"alveolar":7764,"itating":7765,"Ġchb":7766,"Ġinfl":7767,"Ġliving":7768,"Ġendo":7769,"medial":7770,"recently":7771,"opleural":7772,"Ġftt":7773,"Ġsubjacent":7774,"aple":7775,"Ġkub":7776,"Ġdoboff":7777,"****":7778,"lasties":7779,"Ġworked":7780,"Ġsegments":7781,"Ġcervic":7782,"arthria":7783,"Ġdrip":7784,"possibility":7785,"Ġllq":7786,"Ġturned":7787,"wheezing":7788,"Ġimportant":7789,"ser":7790,"Ġpontine":7791,"themia":7792,"Ġeye":7793,"istaxis":7794,"Ġfeet":7795,"Ġinjection":7796,"duce":7797,"Ġuop":7798,"Ġechocardiogram":7799,"ocystis":7800,"possibly":7801,"Ġaortopulmonary":7802,"ee":7803,"Ġcrep":7804,"Ġpig":7805,"Ġpalc":7806,"Ġingest":7807,"ffee":7808,"graft":7809,"Ġenough":7810,"Ġ25":7811,"concurrent":7812,"Ġnoncardiogenic":7813,"Ġcoffee":7814,"Ġmrcp":7815,"Ġresponsive":7816,"resolving":7817,"Ġultim":7818,"Ġtingling":7819,"pul":7820,"wed":7821,"Ġthem":7822,"Ġod":7823,"Ġsclc":7824,"Ġplavix":7825,"Ġrou":7826,"clip":7827,"cline":7828,"Ġlookup":7829,"difficulty":7830,"Ġcultures":7831,"kidney":7832,"nominate":7833,"she":7834,"skin":7835,"Ġhorm":7836,"Ġvad":7837,"Ġexample":7838,"Ġgun":7839,"otopic":7840,"ralateral":7841,"Ġexpansile":7842,"Ġneedle":7843,"calcific":7844,"duoden":7845,"layering":7846,"adenoma":7847,"Ġembolectomy":7848,"Ġwaxing":7849,"Ġchemoradiation":7850,"Ġunsuccessful":7851,"cad":7852,"rupt":7853,"Ġeas":7854,"Ġmen":7855,"Ġstone":7856,"Ġuniform":7857,"Ġproduce":7858,"Ġmidportion":7859,"Ġamong":7860,"Ġpleurisy":7861,"Ġdysarthria":7862,"Ġwhereas":7863,"Ġsituated":7864,"finding":7865,"itud":7866,"ulature":7867,"Ġpneumocystis":7868,"rob":7869,"Ġstation":7870,"Ġspur":7871,"Ġ90":7872,"Ġcooling":7873,"scap":7874,"Ġreportedly":7875,"Ġiiib":7876,"Ġpseudocyst":7877,"Ġeosinophilia":7878,"Ġtriggered":7879,"described":7880,"Ġgpc":7881,"cence":7882,"Ġdeeper":7883,"Ġrp":7884,"Ġcabgx":7885,"Ġnephr":7886,"Ġguided":7887,"costophrenic":7888,"Ġtrigger":7889,"Ġanastamosis":7890,"fx":7891,"thmia":7892,"Ġtrem":7893,"Ġprovisional":7894,"ectomies":7895,"ipated":7896,"Ġhyperdensity":7897,"Ġessential":7898,"Ġepistaxis":7899,"lobulin":7900,"Ġfrequency":7901,"throax":7902,"Ġcartilage":7903,"Ġhormone":7904,"blood":7905,"Ġsolid":7906,"Ġreeval":7907,"Ġalongside":7908,"ches":7909,"Ġplateau":7910,"Ġmeningioma":7911,"Ġamyloidosis":7912,"Ġrsxn":7913,"Ġinhalation":7914,"Ġarrival":7915,"ued":7916,"Ġln":7917,"creting":7918,"Ġunderinflated":7919,"Ġmetabolic":7920,"Ġ___%),":7921,"Ġurgency":7922,"Ġsecured":7923,"Ġculture":7924,"Ġdiuretics":7925,"Ġmacroadenoma":7926,"cd":7927,"rvr":7928,"ording":7929,"Ġsuccess":7930,"Ġmeds":7931,"Ġpneumost":7932,"Ġpoc":7933,"admitted":7934,"Ġileoce":7935,"Ġimmunosuppress":7936,"hypot":7937,"Ġspike":7938,"Ġhodgkins":7939,"Ġdeficits":7940,"Ġreturns":7941,"Ġhallucinations":7942,"Ġcervicothoracic":7943,"vp":7944,"Ġia":7945,"Ġib":7946,"Ġctx":7947,"Ġimping":7948,"Ġworsen":7949,"nsr":7950,"Ġmyot":7951,"progressive":7952,"Ġeffac":7953,"Ġproblem":7954,"Ġrami":7955,"Ġrlq":7956,"rate":7957,"som":7958,"tal":7959,"Ġflowing":7960,"Ġunint":7961,"Ġcontralateral":7962,"Ġpostradiation":7963,"obli":7964,"Ġ48":7965,"recommendations":7966,"Ġgastrojejunostomy":7967,"trach":7968,"induced":7969,"bladder":7970,"Ġnsr":7971,"Ġacquisition":7972,"Ġbeginning":7973,"bular":7974,"cular":7975,"due":7976,"lc":7977,"lad":7978,"Ġpubic":7979,"clamp":7980,"opulm":7981,"secreting":7982,"Ġperiodic":7983,"intact":7984,"Ġspeaking":7985,"Ġdelayed":7986,"oparenchymal":7987,"Ġaspergillus":7988,"iolar":7989,"pred":7990,"Ġmat":7991,"Ġbnp":7992,"Ġvi":7993,"Ġuncomplicated":7994,"derma":7995,"Ġevaluating":7996,"Ġassessing":7997,"ximab":7998,"shot":7999,"Ġpads":8000,"Ġdiscontinuation":8001,"Ġbcg":8002,"Ġmesentery":8003,"Ġstop":8004,"Ġspo":8005,"Ġdiameters":8006,"aminitis":8007,"Ġcirculation":8008,"Ġpalcement":8009,"Ġultimately":8010,"Ġ*":8011,"three":8012,"Ġcec":8013,"Ġfro":8014,"Ġlq":8015,"Ġforp":8016,"Ġdistance":8017,"cythemia":8018,"Ġaccording":8019,"Ġhepatectomy":8020,"Ġcalf":8021,"Ġecchym":8022,"breath":8023,"Ġmicronodular":8024,"tinent":8025,"Ġcrepitus":8026,"azyg":8027,"sew":8028,"Ġtw":8029,"riding":8030,"Ġhold":8031,"Ġmanub":8032,"lose":8033,"rhy":8034,"Ġcomplains":8035,"Ġflat":8036,"Ġcurve":8037,"Ġlocalization":8038,"ruption":8039,"definite":8040,"Ġroux":8041,"df":8042,"Ġloose":8043,"Ġordered":8044,"identified":8045,"Ġretri":8046,"Ġangioedema":8047,"Ġanticipated":8048,"Ġanticoagulated":8049,"Ġpolycythemia":8050,"Ġestimated":8051,"doe":8052,"Ġperibronchiolar":8053,"Ġbranch":8054,"Ġparkinsons":8055,"semi":8056,"Ġtral":8057,"Ġcompens":8058,"emp":8059,"Ġtext":8060,"Ġalc":8061,"Ġals":8062,"spe":8063,"ultation":8064,"ogn":8065,"pmh":8066,"Ġclog":8067,"Ġaccessed":8068,"Ġkyphoplasty":8069,"Ġ(___),":8070,"Ġmanifested":8071,"Ġrestricted":8072,"Ġinduction":8073,"itored":8074,"ctur":8075,"adone":8076,"Ġinform":8077,"Ġposttraumatic":8078,"oste":8079,"pneumon":8080,"Ġhypercap":8081,"avitary":8082,"Ġmonitored":8083,"Ġprostheses":8084,"Ġdenot":8085,"Ġappendage":8086,"Ġsustained":8087,"cturnal":8088,"by":8089,"ario":8090,"enario":8091,"Ġmud":8092,"nes":8093,"Ġonline":8094,"roma":8095,"Ġbronchoscopic":8096,"Ġscenario":8097,"Ġfossa":8098,"Ġoriginally":8099,"Ġingested":8100,"Ġtrali":8101,"tx":8102,"Ġthor":8103,"Ġaware":8104,"Ġausc":8105,"Ġwaning":8106,"Ġstaple":8107,"Ġasa":8108,"ositis":8109,"Ġsupple":8110,"apse":8111,"Ġexpect":8112,"infold":8113,"lacing":8114,"Ġzoster":8115,"Ġquadriple":8116,"Ġpatent":8117,"Ġintracavitary":8118,"bsi":8119,"radiopaque":8120,"Ġdesaturating":8121,"Ġmpe":8122,"Ġexchanged":8123,"Ġunexpected":8124,"Ġperit":8125,"Ġexpiration":8126,"Ġregression":8127,"range":8128,"Ġhemoptx":8129,"yncopal":8130,"trachea":8131,"Ġretroperitoneal":8132,"Ġsplenomegaly":8133,"Ġgroup":8134,"lom":8135,"vir":8136,"liative":8137,"strument":8138,"subclavian":8139,"Ġcrush":8140,"Ġmagnified":8141,"Ġbrbpr":8142,"Ġoften":8143,"Ġworking":8144,"xrt":8145,"opsy":8146,"Ġflexion":8147,"Ġclipping":8148,"Ġdemand":8149,"wedge":8150,"lobulinemia":8151,"ched":8152,"dient":8153,"appe":8154,"Ġgradient":8155,"Ġflail":8156,"Ġencephalitis":8157,"lingular":8158,"Ġuter":8159,"Ġgallbladder":8160,"baseline":8161,"Ġsubluxation":8162,"bsiella":8163,"appeared":8164,"oval":8165,"snea":8166,"Ġ___).":8167,"Ġtk":8168,"Ġnocturnal":8169,"Ġstated":8170,"Ġcardipulm":8171,"Ġconcerns":8172,"Ġprogress":8173,"Ġpeep":8174,"Ġpleuroparenchymal":8175,"Ġpalliative":8176,"Ġsimply":8177,"Ġhick":8178,"Ġkle":8179,"Ġearliest":8180,"sedated":8181,"roplasties":8182,"Ġmedically":8183,"Ġclosely":8184,"Ġpnem":8185,"Ġosteoarthritis":8186,"vasculature":8187,"Ġdypsnea":8188,"Ġgunshot":8189,"somewhat":8190,"Ġperitracheal":8191,"cours":8192,"care":8193,"tracheal":8194,"wor":8195,"Ġcat":8196,"Ġacet":8197,"Ġwti":8198,"hemo":8199,"Ġsirs":8200,"Ġappet":8201,"Ġhair":8202,"Ġinspir":8203,"Ġfibr":8204,"Ġhoff":8205,"epig":8206,"Ġfaintly":8207,"iccup":8208,"Ġused":8209,"Ġswallowed":8210,"mucus":8211,"Ġsuicide":8212,"tachycardia":8213,"ognitive":8214,"Ġwtih":8215,"cious":8216,"dext":8217,"Ġpsc":8218,"orth":8219,"oration":8220,"outh":8221,"Ġhiccup":8222,"Ġconscious":8223,"rending":8224,"pleur":8225,"Ġincreasingly":8226,"Ġhepc":8227,"Ġrequesting":8228,"Ġbulky":8229,"comitant":8230,"Ġoccluded":8231,"Ġprbc":8232,"Ġoccasion":8233,"Ġskinfold":8234,"Ġdramatic":8235,"Ġstraight":8236,"Ġcovered":8237,"Ġsz":8238,"Ġdj":8239,"Ġprep":8240,"liance":8241,"Ġremic":8242,"seen":8243,"Ġtransaminitis":8244,"Ġcharacteristic":8245,"Ġsmoke":8246,"Ġimmune":8247,"Ġtechnologist":8248,"Ġparamedi":8249,"Ġbilirubin":8250,"Ġbrown":8251,"Ġchildhood":8252,"mucous":8253,"Ġsuccessive":8254,"Ġcecal":8255,"even":8256,"fet":8257,"ties":8258,"atro":8259,"atoce":8260,"Ġarrange":8261,"Ġreasonably":8262,"Ġpulse":8263,"Ġpolyp":8264,"itudinal":8265,"ograph":8266,"treated":8267,"Ġinnominate":8268,"Ġbanding":8269,"Ġexclusion":8270,"Ġmanip":8271,"Ġgem":8272,"Ġsubstance":8273,"thoracentesis":8274,"days":8275,"Ġfluct":8276,"Ġamounts":8277,"Ġlongitudinal":8278,"Ġpointed":8279,"comment":8280,"Ġoperation":8281,"Ġwitnessed":8282,"Ġretrieval":8283,"band":8284,"Ġcomprom":8285,"Ġapix":8286,"ptal":8287,"Ġroof":8288,"Ġconfirms":8289,"Ġinterpreted":8290,"Ġspleen":8291,"Ġgreatly":8292,"ave":8293,"cv":8294,"Ġtogether":8295,"Ġraised":8296,"vessel":8297,"Ġnormalized":8298,"vert":8299,"Ġreflection":8300,"Ġexacerbated":8301,"Ġbrachy":8302,"Ġasbestosis":8303,"Ġdistorted":8304,"flatt":8305,"Ġflushing":8306,"ococcal":8307,"duodenal":8308,"Ġwounds":8309,"acin":8310,"Ġsection":8311,"Ġupt":8312,"apart":8313,"odystrophy":8314,"Ġcavitated":8315,"Ġrelating":8316,"Ġshifting":8317,"Ġosteodystrophy":8318,"Ġdecr":8319,"diffusely":8320,"Ġmethadone":8321,"Ġparalleling":8322,"Ġhickman":8323,"Ġklebsiella":8324,"wks":8325,"arc":8326,"aryng":8327,"Ġcaval":8328,"scoliosis":8329,"Ġdifferentiated":8330,"Ġ@___":8331,"Ġanchor":8332,"Ġtapered":8333,"Ġtinged":8334,"Ġureteral":8335,"Ġheterogenous":8336,"Ġumbilical":8337,"(___":8338,"pple":8339,"Ġau":8340,"Ġinstrument":8341,"Ġlif":8342,"Ġlami":8343,"Ġbph":8344,"nipple":8345,"astic":8346,"Ġtevar":8347,"lox":8348,"Ġwegen":8349,"Ġhemiarth":8350,"Ġmini":8351,"ritu":8352,"Ġlooping":8353,"Ġecg":8354,"masses":8355,"occipital":8356,"Ġgradually":8357,"Ġecchymosis":8358,",___":8359,"cort":8360,"ira":8361,"diaph":8362,"Ġreached":8363,"Ġmouth":8364,"ros":8365,"Ġradiopacity":8366,"Ġmilder":8367,"obs":8368,"Ġmech":8369,"sclerotic":8370,"Ġmaintained":8371,"Ġepisodic":8372,"Ġradiologic":8373,"thmatic":8374,"course":8375,"Ġappetite":8376,"atrogenic":8377,"fep":8378,"nition":8379,"place":8380,"swe":8381,"Ġthecavoatrial":8382,"Ġlg":8383,"Ġtlc":8384,"lux":8385,"Ġintermittently":8386,"Ġretrospect":8387,"rotated":8388,"Ġrecognition":8389,"Ġcarcinoid":8390,"Ġmedullary":8391,"Ġexceeding":8392,"Ġparamedian":8393,"ai":8394,"urrence":8395,"teleph":8396,"Ġviewed":8397,"Ġproven":8398,"Ġintervening":8399,"Ġgot":8400,"sep":8401,"Ġneeding":8402,"Ġavf":8403,"Ġitp":8404,"Ġconfused":8405,"Ġrelax":8406,"Ġmyotomy":8407,"Ġcircumscribed":8408,"Ġtesticular":8409,"Ġupwards":8410,"volemia":8411,"Ġproctectomy":8412,"Ġremicade":8413,"->":8414,"tips":8415,"Ġhost":8416,"Ġpneumatoce":8417,"Ġede":8418,"Ġplz":8419,"Ġdig":8420,"oses":8421,"Ġiatrogenic":8422,"following":8423,"Ġsleeve":8424,"Ġiiia":8425,"Ġmultilobar":8426,"Ġcutaneous":8427,"lottic":8428,"fepime":8429,"sv":8430,"lec":8431,"Ġdah":8432,"Ġselect":8433,"Ġabrupt":8434,"ants":8435,"Ġcanal":8436,"Ġcorpectomy":8437,"oliotic":8438,"Ġmaze":8439,"fractures":8440,"Ġrheumatic":8441,"Ġreadjusted":8442,"Ġincisional":8443,"Ġmodality":8444,"Ġpfi":8445,"Ġfu":8446,"inger":8447,"Ġduration":8448,"istant":8449,"Ġpostprocedural":8450,"Ġdisloc":8451,"Ġacdf":8452,"ivation":8453,"Ġnondedicated":8454,"logy":8455,"Ġpenum":8456,"Ġsalping":8457,"Ġtendin":8458,"Ġcrash":8459,"Ġpneumostat":8460,"Ġuterine":8461,"Ġtkr":8462,"sweats":8463,"telephone":8464,"sepsis":8465,"tb":8466,"Ġveg":8467,"Ġanu":8468,"emoral":8469,"Ġproph":8470,"ascending":8471,"Ġspect":8472,"Ġ45":8473,"Ġinvolved":8474,"consolidations":8475,"Ġmotorcycle":8476,"Ġcertainty":8477,"suggestion":8478,"lomer":8479,"epigastric":8480,"orectal":8481,"vas":8482,"iscule":8483,"Ġbot":8484,"Ġdop":8485,"Ġasthmatic":8486,"osi":8487,"Ġmidthoracic":8488,"Ġptbd":8489,"Ġacomm":8490,"Ġbrought":8491,"Ġoptim":8492,"partum":8493,"hemorrh":8494,"Ġterminal":8495,"presumed":8496,"itrate":8497,"Ġossification":8498,"Ġsalpingo":8499,"bag":8500,"fatigue":8501,"replaced":8502,"Ġstates":8503,"Ġstran":8504,"Ġpertinent":8505,"Ġdiscon":8506,"Ġagent":8507,"Ġrepeating":8508,"Ġhydration":8509,"consolid":8510,"degree":8511,"Ġburden":8512,"Ġtibial":8513,"biopsy":8514,"Ġblasts":8515,"Ġachalasia":8516,"reticular":8517,"Ġrelaxation":8518,"mur":8519,"Ġmar":8520,"Ġmim":8521,"Ġconcomitant":8522,"Ġpock":8523,"Ġobtaining":8524,"Ġspared":8525,"Ġvisa":8526,"Ġscalp":8527,"ranous":8528,"Ġdevelopmental":8529,"Ġpalps":8530,"Ġrhin":8531,"particular":8532,"bronchovascular":8533,"Ġintroduced":8534,"Ġconnected":8535,"Ġhiccups":8536,"Ġpocket":8537,"Ġmur":8538,"imus":8539,"chop":8540,"Ġpleas":8541,"Ġcardia":8542,"Ġinfra":8543,"Ġrol":8544,"Ġbronchs":8545,"Ġ-->":8546,"laying":8547,"Ġinclusions":8548,"Ġclogged":8549,"Ġconsciousness":8550,"ather":8551,"sdh":8552,"Ġsj":8553,"Ġenc":8554,"Ġcardiomeg":8555,"Ġcapt":8556,"external":8557,"Ġrole":8558,"Ġanatomy":8559,"Ġassociation":8560,"Ġunintentional":8561,"Ġauscultation":8562,"Ġexceedingly":8563,"bone":8564,"hrs":8565,"iric":8566,"Ġpor":8567,"Ġlav":8568,"Ġdd":8569,"Ġseg":8570,"Ġ130":8571,"Ġidentif":8572,"Ġtrached":8573,"ologous":8574,"Ġbronchospasm":8575,"Ġadeno":8576,"Ġriding":8577,"abdomen":8578,"Ġalcoholism":8579,"Ġautologous":8580,"Ġdcd":8581,"embol":8582,"Ġholds":8583,"Ġquadriplegia":8584,"omedi":8585,"neither":8586,"Ġintervally":8587,"Ġintended":8588,"clage":8589,"Ġpresently":8590,"Ġfeature":8591,"defibrillator":8592,"oley":8593,"densities":8594,"Ġchoking":8595,"embranous":8596,"Ġviscus":8597,"Ġprofound":8598,"seizure":8599,"Ġigg":8600,"Ġhemiarthroplasty":8601,"ci":8602,"glottic":8603,"hr":8604,"wk":8605,"did":8606,"Ġfoley":8607,"Ġnine":8608,"Ġnose":8609,"Ġpah":8610,"eti":8611,"Ġproced":8612,"Ġspan":8613,"quis":8614,"Ġ35":8615,"ypnea":8616,"Ġcomes":8617,"Ġpassed":8618,"Ġpelase":8619,"extrem":8620,"Ġpericardium":8621,"Ġsmear":8622,"Ġmurmur":8623,"cine":8624,"ojejunostomy":8625,"tv":8626,"what":8627,"Ġthelower":8628,"verbal":8629,"Ġrecover":8630,"Ġbronchopleural":8631,"Ġcea":8632,"Ġcaps":8633,"Ġpseudomonal":8634,"nodules":8635,"Ġsimple":8636,"Ġspectrum":8637,"boned":8638,"orectomy":8639,"Ġaug":8640,"Ġmil":8641,"Ġmembranous":8642,"ulopathy":8643,"angi":8644,"Ġorific":8645,"Ġhyperdense":8646,"ophorectomy":8647,"Ġfio":8648,"Ġsomet":8649,"Ġsuboptimally":8650,"Ġpheresis":8651,"satisfactory":8652,"Ġbrachycephalic":8653,"Ġorifice":8654,"ture":8655,"chct":8656,"lotic":8657,"lithiasis":8658,"osurg":8659,"Ġcentralized":8660,"Ġdetermination":8661,"overt":8662,"Ġmediastinitis":8663,"Ġcyclo":8664,"Ġbifur":8665,"Ġappendectomy":8666,"Ġrhonchorous":8667,"scapular":8668,"Ġcdiff":8669,"Ġcognitive":8670,"Ġatn":8671,"Ġinterposed":8672,"Ġdestructive":8673,"Ġgut":8674,"Ġhemithoraces":8675,"Ġminiscule":8676,"quin":8677,"Ġregional":8678,"coexisting":8679,"Ġassisted":8680,"Ġmyx":8681,"Ġclarification":8682,"cytoma":8683,"Ġrsv":8684,"Ġcircular":8685,"Ġmyelo":8686,"Ġazith":8687,"Ġliters":8688,"generalized":8689,"orbidi":8690,"Ġeasily":8691,"loxacin":8692,"Ġwegener":8693,"extreme":8694,"Ġcres":8695,"Ġcah":8696,"try":8697,"ignificant":8698,"Ġdiffic":8699,"Ġpleuritis":8700,"Ġinsignificant":8701,"Ġadded":8702,"Ġorthotopic":8703,"Ġoblong":8704,"Ġcorrelating":8705,"Ġmtx":8706,"Ġempiric":8707,"sensitivity":8708,"during":8709,"demonstration":8710,"fall":8711,"fiducial":8712,"gas":8713,"Ġok":8714,"Ġtons":8715,"ostosis":8716,"available":8717,"ekg":8718,"Ġphrenic":8719,"Ġtbna":8720,"nerval":8721,"Ġramus":8722,"Ġaudi":8723,"Ġedeam":8724,"af":8725,"Ġ<":8726,"Ġuncontrolled":8727,"Ġbronchovasculature":8728,"Ġattac":8729,"Ġhospitalized":8730,"Ġcvv":8731,"Ġproduc":8732,"Ġcholedocholithiasis":8733,"Ġcompromise":8734,"Ġprocedures":8735,"orbidities":8736,"citabine":8737,"long":8738,"nf":8739,"pet":8740,"third":8741,"Ġmut":8742,"Ġasyst":8743,"Ġcaud":8744,"Ġhemiple":8745,"Ġitnerval":8746,"Ġintubations":8747,"Ġgastrop":8748,"fibrotic":8749,"Ġmyalgia":8750,"Ġskull":8751,"Ġmycobacterium":8752,"Ġinterspaces":8753,"Ġinformed":8754,"Ġolig":8755,"omatous":8756,"rilobular":8757,"Ġleav":8758,"Ġenh":8759,"ipped":8760,"Ġweak":8761,"ogt":8762,"alcoh":8763,"Ġresponding":8764,"Ġintraventricular":8765,"Ġextremities":8766,"Ġaccumulating":8767,"Ġvisceral":8768,"Ġdiverticulum":8769,"gative":8770,"lasia":8771,"pressed":8772,"Ġtee":8773,"lectasis":8774,"Ġchanging":8775,"Ġdirection":8776,"Ġintract":8777,"opor":8778,"second":8779,"ivessel":8780,"exy":8781,"Ġarrhy":8782,"Ġrelation":8783,"Ġpnas":8784,"Ġsupratherapeutic":8785,"Ġsafely":8786,"Ġgemcitabine":8787,"lv":8788,"Ġcre":8789,"Ġejection":8790,"Ġste":8791,"Ġplu":8792,"spor":8793,"Ġdisappeared":8794,"Ġosteopor":8795,"Ġevacuated":8796,"Ġvtach":8797,"Ġcerclage":8798,"Ġlavage":8799,"cr":8800,"sah":8801,"Ġcolum":8802,"Ġcied":8803,"enger":8804,"Ġvo":8805,"Ġproved":8806,"ectable":8807,"lover":8808,"Ġmultivessel":8809,"Ġhypersensitivity":8810,"dles":8811,"Ġmean":8812,"Ġpassenger":8813,"Ġesld":8814,"Ġobviously":8815,"emphysematous":8816,"Ġtpn":8817,"Ġsedation":8818,"Ġicps":8819,"Ġhepatorenal":8820,"opaque":8821,"Ġpatencycxr":8822,"evolving":8823,"Ġacetab":8824,"afib":8825,"close":8826,"ival":8827,"Ġritu":8828,"repositioning":8829,"Ġfinger":8830,"Ġtren":8831,"imes":8832,"net":8833,"malign":8834,"Ġenchond":8835,"Ġasd":8836,"Ġdislo":8837,"Ġmaybe":8838,"ody":8839,"ckd":8840,"Ġflushed":8841,"Ġparalyzed":8842,"Ġtrip":8843,"Ġbulb":8844,"hypo":8845,"Ġmarginally":8846,"Ġobliterating":8847,"Ġunsteady":8848,"Ġevaulate":8849,"Ġapixaban":8850,"Ġhemiplegia":8851,"kyph":8852,"inine":8853,"ata":8854,"lesion":8855,"heav":8856,"Ġton":8857,"Ġvocal":8858,"Ġconsisting":8859,"creatic":8860,"osum":8861,"Ġadhe":8862,"Ġwash":8863,"Ġsomething":8864,"Ġdesating":8865,"Ġassum":8866,"Ġcysts":8867,"Ġmissing":8868,"Ġeffectively":8869,"Ġaugment":8870,"kitt":8871,"mot":8872,"nancy":8873,"rin":8874,"insp":8875,"orrhea":8876,"orption":8877,"engorg":8878,"Ġmit":8879,"pha":8880,"advert":8881,"Ġspec":8882,"Ġhyperostosis":8883,"inferior":8884,"Ġtransplants":8885,"ynamic":8886,"dgement":8887,"Ġrunning":8888,"drainage":8889,"hypotension":8890,"clampsia":8891,"Ġenchondroma":8892,"ges":8893,"leak":8894,"dium":8895,"Ġsia":8896,"Ġisol":8897,"Ġsession":8898,"resion":8899,"Ġabort":8900,"Ġreasonable":8901,"Ġscr":8902,"Ġsupportive":8903,"Ġpressor":8904,"Ġtracks":8905,"asymmetrical":8906,"Ġmycobacterial":8907,"Ġwalking":8908,"Ġanuric":8909,"but":8910,"mer":8911,"Ġinadvert":8912,"need":8913,"Ġstaged":8914,"Ġmidnight":8915,"quired":8916,"Ġsterno":8917,"Ġcirrh":8918,"Ġabsent":8919,"Ġburkitt":8920,"Ġtibia":8921,"oblique":8922,"bound":8923,"Ġcfa":8924,"Ġingu":8925,"Ġsag":8926,"Ġsma":8927,"Ġtris":8928,"Ġchi":8929,"ages":8930,"Ġmeasure":8931,"Ġileal":8932,"carbic":8933,"lumbar":8934,"Ġcholangioca":8935,"Ġliposarcoma":8936,"Ġlevof":8937,"Ġcutdown":8938,"Ġphysiologic":8939,"Ġomr":8940,"Ġstopped":8941,"sewn":8942,"Ġcvvh":8943,"Ġplueral":8944,"Ġtonight":8945,"Ġsiadh":8946,"could":8947,"mit":8948,"Ġ=":8949,"atypical":8950,"Ġpw":8951,"Ġomental":8952,"Ġsym":8953,"abs":8954,"Ġlost":8955,"Ġcontain":8956,"ectatic":8957,"creases":8958,"liquis":8959,"Ġsubglottic":8960,"thoracolumbar":8961,"Ġcandid":8962,"romatosis":8963,"Ġavail":8964,"Ġcolorectal":8965,"Ġcoag":8966,"Ġdecompressed":8967,"ferent":8968,"Ġhomeless":8969,"Ġlaparoscopy":8970,"Ġdiverting":8971,"month":8972,"Ġgallstones":8973,"Ġstrad":8974,"shoulder":8975,"consolidative":8976,"Ġosteoporosis":8977,"bally":8978,"mg":8979,"wal":8980,"ions":8981,"Ġwider":8982,"umb":8983,"Ġconstri":8984,"atell":8985,"Ġcontained":8986,"Ġamp":8987,"Ġverbally":8988,"Ġknow":8989,"Ġparast":8990,"trauma":8991,"rolimus":8992,"volemic":8993,"Ġfasciotomy":8994,"arseness":8995,"Ġmenisc":8996,"Ġcri":8997,"align":8998,"___-":8999,"Ġtm":9000,"Ġoropharyngeal":9001,"spoke":9002,"Ġpicture":9003,"Ġtranscatheter":9004,"Ġappreciate":9005,"Ġbleeds":9006,"Ġcommunity":9007,"Ġclosed":9008,"Ġbeneficial":9009,"Ġcranially":9010,"Ġreactivation":9011,"Ġaffect":9012,"Ġaccurate":9013,"Ġestablish":9014,"Ġcreatinine":9015,"streaks":9016,"Ġileocecectomy":9017,"azygos":9018,"Ġbifurcation":9019,"Ġdifficile":9020,"hf":9021,"opulmonary":9022,"would":9023,"rees":9024,"theli":9025,"Ġeliquis":9026,"Ġsug":9027,"Ġsound":9028,"Ġtte":9029,"Ġcomparing":9030,"olytic":9031,"Ġtef":9032,"Ġinflation":9033,"removal":9034,"Ġmidsternal":9035,"Ġshaking":9036,"Ġreflux":9037,"ogene":9038,"Ġceft":9039,"Ġsaccular":9040,"Ġdyspneic":9041,"grossly":9042,"Ġscleroderma":9043,"Ġhostage":9044,"hld":9045,"Ġcs":9046,"alectasis":9047,"Ġpract":9048,"orph":9049,"Ġtherapeutic":9050,"Ġsq":9051,"enth":9052,"Ġreins":9053,"Ġmem":9054,"acquired":9055,"Ġvide":9056,"Ġpap":9057,"Ġatalectasis":9058,"Ġperip":9059,"Ġintr":9060,"Ġrecon":9061,"ophed":9062,"Ġampull":9063,"Ġesopha":9064,"Ġpulmo":9065,"Ġgranulomatosis":9066,"lodysp":9067,"intrathoracic":9068,"opulmonic":9069,"pneumonitis":9070,"embolization":9071,"pose":9072,"rul":9073,"sias":9074,"oni":9075,"Ġcyt":9076,"Ġsimul":9077,"Ġreverse":9078,"ssage":9079,"Ġexerc":9080,"ittal":9081,"Ġvisit":9082,"Ġmessage":9083,"preop":9084,"Ġobliquely":9085,"Ġpnd":9086,"Ġorthost":9087,"Ġwithdrawing":9088,"Ġabnorm":9089,"markedly":9090,"Ġlevophed":9091,"Ġchemical":9092,"Ġfluctu":9093,"Ġsometimes":9094,"osurgery":9095,"Ġcolumn":9096,"Ġdislodgement":9097,"oked":9098,"inj":9099,"lerance":9100,"Ġaortopulmonic":9101,"Ġapprox":9102,"Ġscoliotic":9103,"Ġplane":9104,"Ġpcxr":9105,"Ġquantify":9106,"Ġclinician":9107,"flank":9108,"Ġsuppression":9109,"descending":9110,"Ġpnemonia":9111,"Ġspanning":9112,"Ġmeniscus":9113,"bec":9114,"biliary":9115,"riax":9116,"rog":9117,"Ġsti":9118,"Ġgist":9119,"Ġreasons":9120,"Ġdevast":9121,"Ġbullectomy":9122,"ocaval":9123,"Ġjejunal":9124,"Ġrhabdo":9125,"riaxone":9126,"itz":9127,"Ġvel":9128,"graphy":9129,"vered":9130,"Ġatra":9131,"Ġchangeplease":9132,"Ġmidclavicular":9133,"Ġspot":9134,"Ġcosto":9135,"preliminary":9136,"chiatric":9137,"Ġgastroduodenal":9138,"Ġcholelithiasis":9139,"Ġallogenic":9140,"Ġextravas":9141,"fevers":9142,"Ġimpacted":9143,"Ġductal":9144,"Ġfluoroscopy":9145,"Ġpenetrated":9146,"Ġbreakthrough":9147,"Ġnephrolithiasis":9148,"Ġcyclospor":9149,"ogeneity":9150,"bso":9151,"Ġarg":9152,"Ġpfts":9153,"arism":9154,"dimer":9155,"itarism":9156,"Ġstorm":9157,"Ġseeds":9158,"Ġpercuss":9159,"Ġposter":9160,"opitu":9161,"Ġnodosum":9162,"Ġblur":9163,"Ġmyocl":9164,"Ġneurogenic":9165,"Ġprostatectomy":9166,"Ġquantity":9167,"Ġpsori":9168,"breast":9169,"Ġspurrs":9170,"Ġeffacement":9171,"orthop":9172,"Ġfuo":9173,"Ġvideo":9174,"opituitarism":9175,"Ġpsoriatic":9176,"gs":9177,"plant":9178,"raclip":9179,"Ġpostpartum":9180,"septic":9181,"Ġsplin":9182,"Ġemph":9183,"Ġcorac":9184,"Ġpanhyp":9185,"extent":9186,"tubing":9187,"Ġhandsewn":9188,"Ġdelivered":9189,"tender":9190,"Ġentity":9191,"itrates":9192,"Ġbranching":9193,"Ġpregnancy":9194,"Ġmanipulation":9195,"Ġacetabular":9196,"Ġsplinting":9197,"Ġrim":9198,"another":9199,"Ġdental":9200,"aml":9201,"Ġsec":9202,"Ġcentrilobular":9203,"ymetric":9204,"Ġpancreatectomy":9205,"sterectomy":9206,"nging":9207,"Ġosteosarcoma":9208,"Ġwashouts":9209,"differentiated":9210,"Ġturning":9211,"Ġstools":9212,"Ġcarefully":9213,"Ġfibrosing":9214,"Ġveget":9215,"Ġrollover":9216,"etiology":9217,"Ġsagittal":9218,"az":9219,"Ġnutrition":9220,"Ġnocardia":9221,"icin":9222,"imaging":9223,"Ġsuboccipital":9224,"illar":9225,"Ġintraoperative":9226,"Ġapically":9227,"iventricular":9228,"loaded":9229,"Ġpigtails":9230,"Ġmycop":9231,"Ġdelineate":9232,"Ġlipoma":9233,"Ġectasia":9234,"Ġhepatopulmonary":9235,"presence":9236,"Ġtendon":9237,"potentially":9238,"Ġmyotonic":9239,"Ġcompensatory":9240,"dextroscoliosis":9241,"Ġceftriaxone":9242,"Ġwent":9243,"Ġfiring":9244,"implant":9245,"Ġentry":9246,"loy":9247,"Ġlift":9248,"Ġdisruption":9249,"Ġnodulation":9250,"oxy":9251,"Ġlocally":9252,"Ġproducts":9253,"Ġblebs":9254,"omonas":9255,"ovir":9256,"Ġexudate":9257,"Ġcahnge":9258,"Ġisolated":9259,"Ġ__":9260,"Ġastro":9261,"level":9262,"Ġtf":9263,"axillary":9264,"Ġasx":9265,"Ġprominently":9266,"distention":9267,"Ġsinusitis":9268,"lucencies":9269,"Ġambul":9270,"Ġcontributes":9271,"Ġhemicrani":9272,"Ġherniated":9273,"Ġreaccumulated":9274,"Ġreadjustment":9275,"talati":9276,"Ġintractable":9277,"Ġvoice":9278,"Ġastrocytoma":9279,"\".":9280,"iocytosis":9281,"Ġwish":9282,"ram":9283,"portun":9284,"Ġconsolidationct":9285,"Ġpreca":9286,"Ġobt":9287,"Ġems":9288,"Ġcxrs":9289,"Ġdifficulties":9290,"Ġventricles":9291,"Ġnonsup":9292,"ccv":9293,"retraction":9294,"Ġtreating":9295,"Ġapproaching":9296,"Ġwidely":9297,"Ġcollar":9298,"Ġtemperatures":9299,"Ġprophylaxis":9300,"Ġaborted":9301,"injury":9302,"Ġprecaution":9303,"Ġnonsuppressed":9304,"lvef":9305,"otheli":9306,"pn":9307,"dig":9308,"ulose":9309,"Ġvv":9310,"Ġ28":9311,"lute":9312,"Ġveil":9313,"rhonchi":9314,"Ġcomorbidities":9315,"Ġpectoralis":9316,"Ġivig":9317,"chemo":9318,"Ġforearm":9319,"ashion":9320,"Ġmdr":9321,"Ġparahilar":9322,"Ġfolf":9323,"Ġinstrumentation":9324,"Ġpneumatocele":9325,"hemorrhage":9326,"Ġlevofloxacin":9327,"Ġampullary":9328,"Ġpercussion":9329,"eled":9330,"fem":9331,"oophorectomy":9332,"rad":9333,"astrium":9334,"Ġlobular":9335,"osa":9336,"Ġjump":9337,"Ġsupported":9338,"multi":9339,"persist":9340,"uemonia":9341,"thanks":9342,"Ġinfxn":9343,"Ġpsychiatric":9344,"poses":9345,"Ġmyelodysp":9346,"Ġinadvertent":9347,"Ġpanhypopituitarism":9348,"jecting":9349,"ny":9350,"Ġcf":9351,"Ġfal":9352,"Ġfashion":9353,"ulsion":9354,"ocon":9355,"Ġmantle":9356,"Ġdip":9357,"Ġdiet":9358,"ibility":9359,"Ġhysterectomy":9360,"osyn":9361,"Ġendole":9362,"Ġatriocaval":9363,"Ġdisplacing":9364,"Ġtransformation":9365,"Ġtakes":9366,"Ġequival":9367,"irregularity":9368,"Ġmitraclip":9369,"Ġendoleak":9370,"Ġcame":9371,"Ġnic":9372,"asma":9373,"Ġbso":9374,"Ġcavitating":9375,"Ġsuperficial":9376,"Ġlymphatic":9377,"Ġdiscoid":9378,"ecchym":9379,"Ġepigastrium":9380,"Ġneurosurgery":9381,"Ġstabbing":9382,"Ġmandibular":9383,"Ġdisplayed":9384,"Ġimmunosuppressants":9385,"Ġviremia":9386,"observed":9387,"Ġmilrin":9388,"Ġmyelofibrosis":9389,"Ġtriseg":9390,"Ġconstrictive":9391,"Ġextravasation":9392,"Ġmilrinone":9393,"flu":9394,"Ġisout":9395,"lycer":9396,"Ġleng":9397,"Ġteach":9398,"Ġbeli":9399,"Ġanymore":9400,"athyroid":9401,"Ġphase":9402,"Ġpalpitation":9403,"ammag":9404,"----":9405,"Ġobjects":9406,"elongation":9407,"Ġporcine":9408,"Ġcrescent":9409,"Ġgastropexy":9410,"Ġprecautions":9411,"Ġequivalent":9412,"mv":9413,"Ġtonic":9414,"Ġmediast":9415,"Ġbk":9416,"unately":9417,"Ġexcess":9418,"Ġcong":9419,"Ġunrelated":9420,"Ġintervertebral":9421,"Ġgir":9422,"Ġcardiology":9423,"ope":9424,"Ġ50":9425,"Ġlymphaden":9426,"Ġenterotomy":9427,"process":9428,"Ġdegrees":9429,"ohumeral":9430,"Ġdmi":9431,"Ġgeograph":9432,"Ġmorg":9433,"Ġbandemia":9434,"Ġacromiohumeral":9435,"uckle":9436,"refer":9437,"Ġsuccessfully":9438,"Ġatelec":9439,"Ġselected":9440,"particularly":9441,"loyment":9442,"eic":9443,"ire":9444,"my":9445,"leuk":9446,"Ġflight":9447,"Ġvicin":9448,"urt":9449,"Ġundifferentiated":9450,"Ġinterlobular":9451,"Ġglute":9452,"Ġlij":9453,"Ġairbag":9454,"Ġcenter":9455,"geneic":9456,"coil":9457,"Ġscatter":9458,"ellation":9459,"Ġpancreat":9460,"undant":9461,"lycemic":9462,"Ġdelineation":9463,"Ġallogeneic":9464,"Ġcoalescence":9465,"Ġbehav":9466,"presenting":9467,"flattening":9468,"Ġcaptured":9469,"tenderness":9470,"Ġvicinity":9471,"thin":9472,"Ġsad":9473,"Ġbab":9474,"nec":9475,"empyema":9476,"Ġapml":9477,"ange":9478,"Ġpta":9479,"Ġ37":9480,"Ġ104":9481,"Ġwhole":9482,"Ġlayers":9483,"Ġlegs":9484,"Ġlactulose":9485,"Ġrevealed":9486,"Ġpnuemothorax":9487,"Ġlbbb":9488,"Ġmedications":9489,"Ġlgib":9490,"Ġrecovering":9491,"Ġsternoclavicular":9492,"portunistic":9493,"!!":9494,"cou":9495,"temp":9496,"diures":9497,"unc":9498,"Ġdam":9499,"Ġexamined":9500,"ulmin":9501,"Ġonc":9502,"Ġmoving":9503,"Ġoverlay":9504,"Ġnodal":9505,"Ġhypervolemia":9506,"Ġtransport":9507,"Ġpneumothroax":9508,"Ġopposed":9509,"Ġlulobectomy":9510,"Ġirregularly":9511,"Ġrapidity":9512,"Ġchilds":9513,"hcap":9514,"Ġallows":9515,"Ġideal":9516,"Ġinguinal":9517,"because":9518,"Ġnicm":9519,"athe":9520,"hand":9521,"vac":9522,"Ġavid":9523,"Ġtyp":9524,"axa":9525,"Ġascertain":9526,"oneyc":9527,"Ġsubmassive":9528,"opar":9529,"osph":9530,"agni":9531,"Ġhemidiaph":9532,"Ġxfer":9533,"Ġidentical":9534,"Ġeleventh":9535,"Ġ46":9536,"ximately":9537,"lining":9538,"Ġdiscitis":9539,"hypercarbic":9540,"Ġoptimized":9541,"inspiratory":9542,"oneycom":9543,"biventricular":9544,"fre":9545,"ios":9546,"Ġcvc":9547,"Ġoa":9548,"Ġssc":9549,"Ġlurt":9550,"Ġ___=":9551,"Ġhar":9552,"Ġsequ":9553,"Ġ___,.":9554,"Ġprevascular":9555,"otroph":9556,"Ġintracardiac":9557,"coast":9558,"projecting":9559,"Ġhumira":9560,"Ġlumpectomy":9561,"Ġyof":9562,"Ġcefepime":9563,"Ġduo":9564,"Ġcapping":9565,"Ġhypogammag":9566,"lima":9567,"which":9568,"Ġlbs":9569,"pelvic":9570,"Ġinvestigated":9571,"Ġcatat":9572,"Ġblurry":9573,"Ġmyoclonic":9574,"ovirus":9575,"had":9576,"innumerable":9577,"dif":9578,"oly":9579,"Ġunavailable":9580,"Ġbeam":9581,"Ġdecline":9582,"Ġinferolateral":9583,"Ġplacing":9584,"Ġperine":9585,"see":9586,"deed":9587,"Ġpresyncopal":9588,"Ġextubate":9589,"Ġhypertrophy":9590,"Ġtachypnic":9591,"contin":9592,"cmp":9593,"Ġrecurring":9594,"Ġsystems":9595,"Ġaccidentally":9596,"Ġprecip":9597,"Ġambulating":9598,"appropriately":9599,"Ġpsychosis":9600,"Ġintersitial":9601,"Ġspondyl":9602,"Ġinflitrates":9603,"omedial":9604,"ferential":9605,"ecchymoses":9606,"fluenza":9607,"rml":9608,"Ġpud":9609,"Ġfb":9610,"Ġtoup":9611,"neur":9612,"chromatosis":9613,"Ġ//.":9614,"lder":9615,"Ġchor":9616,"Ġthy":9617,"ainfluenza":9618,"udent":9619,"Ġuploaded":9620,"racted":9621,"Ġresorption":9622,"Ġshortly":9623,"infrahilar":9624,"Ġconform":9625,"Ġleukopenia":9626,"Ġcurved":9627,"Ġstenotroph":9628,"Ġarthral":9629,"Ġdropped":9630,"Ġangiography":9631,"Ġcoarseness":9632,"Ġpericard":9633,"Ġrhabdomy":9634,"predominant":9635,"Ġsupplemental":9636,"hemodialysis":9637,"Ġrhinorrhea":9638,"Ġtonsillar":9639,"Ġbehavior":9640,"Ġbabes":9641,"oparietal":9642,"Ġtoupet":9643,"oled":9644,"pect":9645,"punctate":9646,"uine":9647,"Ġpouch":9648,"Ġprad":9649,"Ġebv":9650,"Ġdccv":9651,"Ġtele":9652,"Ġpooling":9653,"Ġdele":9654,"Ġabra":9655,"Ġpains":9656,"spri":9657,"noted":9658,"vicu":9659,"exspri":9660,"Ġfecal":9661,"area":9662,"Ġeps":9663,"Ġopi":9664,"Ġlabeled":9665,"Ġdetermining":9666,"presents":9667,"Ġconnective":9668,"Ġattack":9669,"coumadin":9670,"Ġpradaxa":9671,"where":9672,"Ġsco":9673,"Ġrecess":9674,"Ġexamine":9675,"Ġradiotherapy":9676,"Ġlocu":9677,"resthe":9678,"resection":9679,"lier":9680,"rales":9681,"Ġremove":9682,"Ġoutlining":9683,"severely":9684,"Ġdecan":9685,"Ġsources":9686,"Ġpnm":9687,"Ġimmunosuppressive":9688,"Ġ>___":9689,"Ġpulmonar":9690,"lymphadenopathy":9691,"diagnosed":9692,"fety":9693,"Ġazithr":9694,"Ġaudible":9695,"oconvex":9696,"Ġmorgagni":9697,"pes":9698,"tavr":9699,"vf":9700,"Ġbun":9701,"Ġhtx":9702,"Ġhoneycom":9703,"Ġexperi":9704,"ffy":9705,"Ġproxim":9706,"ource":9707,"Ġrecr":9708,"Ġglomer":9709,"existed":9710,"icking":9711,"ways":9712,"Ġcloser":9713,"Ġobese":9714,"visualization":9715,"Ġpurposes":9716,"approximately":9717,"extremely":9718,"heavy":9719,"Ġdiplop":9720,"Ġlength":9721,"Ġgluteal":9722,"Ġproximity":9723,"eved":9724,"was":9725,"Ġsim":9726,"Ġsol":9727,"ube":9728,"updated":9729,"Ġintersection":9730,"compliance":9731,"Ġfailing":9732,"adequ":9733,"Ġelevate":9734,"ives":9735,"Ġundergo":9736,"evaluated":9737,"internal":9738,"Ġretracting":9739,"kley":9740,"Ġtacrolimus":9741,"Ġendometri":9742,"tachypnea":9743,"fissures":9744,"Ġheterogeneity":9745,"Ġmanubrium":9746,"Ġtrend":9747,"Ġesophagram":9748,"Ġexercise":9749,"Ġmyelodysplastic":9750,"cspine":9751,"hg":9752,"ij":9753,"ivc":9754,"tte":9755,"uab":9756,"thromb":9757,"Ġpi":9758,"Ġpatell":9759,"Ġnchct":9760,"Ġmiliary":9761,"Ġholding":9762,"Ġhsv":9763,"needs":9764,"Ġaplastic":9765,"ister":9766,"Ġuntreated":9767,"versus":9768,"udes":9769,"Ġheartware":9770,"Ġtransparent":9771,"Ġpancoast":9772,"Ġparainfluenza":9773,"pda":9774,"Ġcurls":9775,"insic":9776,"Ġschool":9777,"Ġstrictures":9778,"coars":9779,"potential":9780,"Ġuptrending":9781,"aryngitis":9782,"Ġarrhythmia":9783,"Ġpapillary":9784,"Ġsscp":9785,"aiton":9786,"Ġelder":9787,"Ġnas":9788,"using":9789,"esity":9790,"Ġank":9791,"Ġfinally":9792,"Ġresistant":9793,"Ġassymetric":9794,"Ġlymphocytic":9795,"Ġnonsmoker":9796,"Ġhoarseness":9797,"Ġradial":9798,"Ġbronchiectatic":9799,"Ġgrafts":9800,"Ġthrombosed":9801,"hemi":9802,"plavix":9803,"Ġtrapping":9804,"Ġunsteadiness":9805,"Ġexudative":9806,"Ġproducing":9807,"Ġazithromycin":9808,"Ġglomerul":9809,"Ġelderly":9810,"nl":9811,"source":9812,"arter":9813,"Ġethan":9814,"dilatation":9815,"rads":9816,"Ġcompressed":9817,"Ġpager":9818,"Ġhemolytic":9819,"oxin":9820,"Ġcavities":9821,"Ġvaried":9822,"Ġarthroplasties":9823,"Ġacromegaly":9824,"Ġbilious":9825,"development":9826,"Ġparallel":9827,"speaking":9828,"Ġdamage":9829,"Ġdiplopia":9830,"brain":9831,"dvt":9832,"either":9833,"pcp":9834,"Ġpj":9835,"diarrhea":9836,"Ġfulmin":9837,"Ġml":9838,"accompan":9839,"Ġstrain":9840,"malaise":9841,"Ġperistent":9842,"compressive":9843,"Ġintral":9844,"ensitive":9845,"obesity":9846,"Ġfraction":9847,"Ġsplaying":9848,"Ġaspirations":9849,"Ġbutt":9850,"Ġwheel":9851,"Ġweekend":9852,"Ġtbili":9853,"Ġinsensitive":9854,"Ġplatelet":9855,"Ġcurves":9856,"Ġecf":9857,"hemat":9858,"Ġtacro":9859,"exploration":9860,"vertebroplasty":9861,"Ġlima":9862,"Ġmagnes":9863,"Ġpvi":9864,"Ġanatomical":9865,"Ġestablished":9866,"rapid":9867,"Ġfibrous":9868,"Ġadhesions":9869,"alignment":9870,"diuresis":9871,"Ġcatatonia":9872,"Ġmagnesium":9873,"/-":9874,"found":9875,"incomplete":9876,"atin":9877,"Ġincreases":9878,"Ġblow":9879,"Ġdoxy":9880,"Ġstones":9881,"Ġ//___":9882,"redemonstration":9883,"Ġmodif":9884,"Ġlobulation":9885,"clin":9886,"otx":9887,"Ġadjuvant":9888,"Ġbreathe":9889,"mentectomy":9890,"Ġ500":9891,"Ġrevascular":9892,"Ġcrowd":9893,"Ġgastritis":9894,"Ġleaking":9895,"poorly":9896,"Ġallowances":9897,"Ġmimic":9898,"Ġrevascularization":9899,"ok":9900,"organ":9901,"static":9902,"Ġos":9903,"Ġnit":9904,"ription":9905,"Ġvav":9906,"urs":9907,"Ġopaciti":9908,"Ġconsist":9909,"Ġenhanced":9910,"perhaps":9911,"Ġrise":9912,"gestive":9913,"Ġalkal":9914,"asses":9915,"Ġarising":9916,"Ġcompressions":9917,"Ġdisclo":9918,"Ġopportunistic":9919,"Ġbulk":9920,"Ġconstellation":9921,"Ġvagotomy":9922,"Ġspondylosis":9923,"Ġfasciitis":9924,"Ġleaves":9925,"Ġsequence":9926,"Ġdelerium":9927,"much":9928,"rating":9929,"Ġpec":9930,"Ġot":9931,"Ġfast":9932,"esare":9933,"Ġdegra":9934,"ipment":9935,"ultaneous":9936,"Ġ:___":9937,"Ġangulated":9938,"Ġlyme":9939,"Ġlymp":9940,"usea":9941,"persisting":9942,"Ġmigra":9943,"Ġortho":9944,"Ġequipment":9945,"Ġlevoconvex":9946,"Ġafferent":9947,"Ġdrawing":9948,"Ġbactermia":9949,"subsequently":9950,"Ġinvestigation":9951,"Ġreinsertion":9952,"Ġbelieve":9953,"referring":9954,"Ġsaddle":9955,"esarean":9956,"cys":9957,"iabp":9958,"oesophageal":9959,"sar":9960,"initial":9961,"thx":9962,"isms":9963,"Ġincontin":9964,"Ġbow":9965,"Ġvary":9966,"character":9967,"idal":9968,"rocycle":9969,"Ġpaid":9970,"resh":9971,"Ġsizeable":9972,"Ġalpha":9973,"Ġlikley":9974,"achalasia":9975,"vicd":9976,"Ġconfident":9977,"Ġexacerbations":9978,"Ġanesthe":9979,"Ġpleuroscopy":9980,"msb":9981,"rity":9982,"Ġmotrocycle":9983,"Ġreassessed":9984,"breather":9985,"Ġanastamotic":9986,"Ġfibrothorax":9987,"oriocarcinoma":9988,"Ġfinished":9989,"Ġdevastation":9990,"Ġcostodiaphragmatic":9991,"Ġjumped":9992,"Ġhoneycombing":9993,"Ġvavle":9994,"body":9995,"elect":9996,"her":9997,"thal":9998,"orn":9999}