{"<s>":0,"<pad>":1,"</s>":2,"<unk>":3,"<mask>":4,"<sep>":5,"<cls>":6,"!":7,"\"":8,"#":9,"$":10,"%":11,"&":12,"'":13,"(":14,")":15,"*":16,"+":17,",":18,"-":19,".":20,"/":21,"0":22,"1":23,"2":24,"3":25,"4":26,"5":27,"6":28,"7":29,"8":30,"9":31,":":32,";":33,"<":34,"=":35,">":36,"?":37,"@":38,"A":39,"B":40,"C":41,"D":42,"E":43,"F":44,"G":45,"H":46,"I":47,"J":48,"K":49,"L":50,"M":51,"N":52,"O":53,"P":54,"Q":55,"R":56,"S":57,"T":58,"U":59,"V":60,"W":61,"X":62,"Y":63,"Z":64,"[":65,"\\":66,"]":67,"^":68,"_":69,"`":70,"a":71,"b":72,"c":73,"d":74,"e":75,"f":76,"g":77,"h":78,"i":79,"j":80,"k":81,"l":82,"m":83,"n":84,"o":85,"p":86,"q":87,"r":88,"s":89,"t":90,"u":91,"v":92,"w":93,"x":94,"y":95,"z":96,"{":97,"|":98,"}":99,"~":100,"¡":101,"¢":102,"£":103,"¤":104,"¥":105,"¦":106,"§":107,"¨":108,"©":109,"ª":110,"«":111,"¬":112,"®":113,"¯":114,"°":115,"±":116,"²":117,"³":118,"´":119,"µ":120,"¶":121,"·":122,"¸":123,"¹":124,"º":125,"»":126,"¼":127,"½":128,"¾":129,"¿":130,"À":131,"Á":132,"Â":133,"Ã":134,"Ä":135,"Å":136,"Æ":137,"Ç":138,"È":139,"É":140,"Ê":141,"Ë":142,"Ì":143,"Í":144,"Î":145,"Ï":146,"Ð":147,"Ñ":148,"Ò":149,"Ó":150,"Ô":151,"Õ":152,"Ö":153,"×":154,"Ø":155,"Ù":156,"Ú":157,"Û":158,"Ü":159,"Ý":160,"Þ":161,"ß":162,"à":163,"á":164,"â":165,"ã":166,"ä":167,"å":168,"æ":169,"ç":170,"è":171,"é":172,"ê":173,"ë":174,"ì":175,"í":176,"î":177,"ï":178,"ð":179,"ñ":180,"ò":181,"ó":182,"ô":183,"õ":184,"ö":185,"÷":186,"ø":187,"ù":188,"ú":189,"û":190,"ü":191,"ý":192,"þ":193,"ÿ":194,"Ā":195,"ā":196,"Ă":197,"ă":198,"Ą":199,"ą":200,"Ć":201,"ć":202,"Ĉ":203,"ĉ":204,"Ċ":205,"ċ":206,"Č":207,"č":208,"Ď":209,"ď":210,"Đ":211,"đ":212,"Ē":213,"ē":214,"Ĕ":215,"ĕ":216,"Ė":217,"ė":218,"Ę":219,"ę":220,"Ě":221,"ě":222,"Ĝ":223,"ĝ":224,"Ğ":225,"ğ":226,"Ġ":227,"ġ":228,"Ģ":229,"ģ":230,"Ĥ":231,"ĥ":232,"Ħ":233,"ħ":234,"Ĩ":235,"ĩ":236,"Ī":237,"ī":238,"Ĭ":239,"ĭ":240,"Į":241,"į":242,"İ":243,"ı":244,"Ĳ":245,"ĳ":246,"Ĵ":247,"ĵ":248,"Ķ":249,"ķ":250,"ĸ":251,"Ĺ":252,"ĺ":253,"Ļ":254,"ļ":255,"Ľ":256,"ľ":257,"Ŀ":258,"ŀ":259,"Ł":260,"ł":261,"Ń":262,"__":263,"ĠĠ":264,"in":265,"on":266,"he":267,"re":268,"al":269,"Ġc":270,"at":271,"Ġp":272,"Ġt":273,"or":274,"ar":275,"ĠĠĠĠ":276,"st":277,"Ġa":278,"ion":279,"____":280,"is":281,"le":282,"er":283,"Ġe":284,"it":285,"Ġo":286,"di":287,"Ġw":288,"Ġthe":289,"Ġin":290,"Ġs":291,"___":292,"Ġ___":293,"en":294,"Ġl":295,"ation":296,"Ġf":297,"om":298,"ed":299,"ĠĠĠĠĠĠĠĠ":300,"ra":301,"Ġis":302,"ith":303,"Ġwith":304,"Ġre":305,"an":306,"Ġof":307,"hest":308,"ĠĊ":309,"________":310,"Ġn":311,"as":312,"Ġm":313,"Ġchest":314,"ing":315,"ou":316,"ort":317,"es":318,"ri":319,"il":320,"Ġb":321,"ac":322,"ent":323,"inal":324,"un":325,"gh":326,"sion":327,"um":328,"The":329,"ul":330,"ic":331,"IN":332,"Ġv":333,"id":334,"Ġare":335,"ght":336,"Ġh":337,"Ġrep":338,"ot":339,"Ġex":340,"omp":341,"ne":342,"Ġd":343,"ct":344,"ph":345,"ch":346,"ĠĠĠĠĠĠĠĠĠĠĠĠĠĠĠĠ":347,"mal":348,"Ġreport":349,"neum":350,"Ġcon":351,"ur":352,"ear":353,"ON":354,"ff":355,"ate":356,"res":357,"Final":358,"nd":359,"Ġpneum":360,"ol":361,"right":362,"am":363,"dio":364,"em":365,"dic":366,"ly":367,"ro":368,"dication":369,"ffu":370,"Ġcomp":371,"ĠC":372,"Ġindication":373,"ft":374,"________________":375,"Ġexam":376,"Ġle":377,"val":378,"ung":379,"Ġto":380,"Ġst":381,"Ġple":382,"ffusion":383,"Ġeffusion":384,"Ġright":385,"ab":386,"eral":387,"ination":388,"gra":389,"Ġra":390,"Ġexamination":391,"Ġno":392,"ural":393,"Ġand":394,"ison":395,"arison":396,"graph":397,"diograph":398,"Ġ/":399,"Ġfor":400,"Ġlung":401,"Ġradiograph":402,"ang":403,"ateral":404,"able":405,"Ġpleural":406,"hor":407,"ew":408,"Ġ//":409,"te":410,"ION":411,"ld":412,"ter":413,"ary":414,"RE":415,"ulm":416,"ding":417,"Ġleft":418,"Ġap":419,"year":420,"ĠF":421,"Ġlo":422,"Ġcar":423,"No":424,"ub":425,"onary":426,"ulmonary":427,"im":428,"There":429,"ast":430,"ormal":431,"ue":432,"inding":433,"ax":434,"indings":435,"othor":436,"othorax":437,"ĠFIN":438,"Ġcomparison":439,"ist":440,"OR":441,"Ġ___.":442,"ni":443,"ve":444,"et":445,"Ġpa":446,"MP":447,"ce":448,"Ġyear":449,"Ġold":450,"Ġpneumothorax":451,"ess":452,"Ġch":453,"iew":454,"ia":455,"edi":456,"Ġun":457,"Ġlateral":458,"ression":459,"que":460,"pac":461,"Ġview":462,"AT":463,"ss":464,"pression":465,"Ġpro":466,"Ġse":467,"Ġeval":468,"ech":469,"ediast":470,"Ġpulmonary":471,"Ġon":472,"nique":473,"echnique":474,"ema":475,"Ġopac":476,"Ġfr":477,"Ġat":478,"cu":479,"ORT":480,"PORT":481,"Ġcardi":482,"Ġnormal":483,"Ġpo":484,"ory":485,"lect":486,"Ġhe":487,"up":488,"Ġbe":489,"Ġcons":490,"Ġtub":491,"ĠA":492,"ous":493,"onia":494,"ATION":495,"ge":496,"ĠI":497,"ĠRE":498,"hou":499,"AL":500,"ity":501,"Ġpneumonia":502,"ediastinal":503,"Ġed":504,"Ġchang":505,"ilar":506,"Ġtube":507,"Ġinter":508,"istory":509,"Ġedema":510,"ver":511,"Ġsi":512,"Ġim":513,"ase":514,"ĠP":515,"Ġlow":516,"ĠNo":517,"cute":518,"Ġacute":519,"ated":520,"ĠĠĠĠĠĠĠĠĠĠĠĠĠĠĠĠĠĠĠĠĠĠĠĠĠĠĠĠĠĠĠĠ":521,"chang":522,"changed":523,"ĠFINAL":524,"ĠREPORT":525,"iti":526,"ĠThe":527,"asis":528,"Ġtechnique":529,"oc":530,"atelect":531,"Ġhistory":532,"Ġatelect":533,"IS":534,"Ġde":535,"________________________________":536,"Ġseen":537,"ad":538,"our":539,"olid":540,"red":541,"Ġviews":542,"olidation":543,"Ġatelectasis":544,"Ġfindings":545,"Ġcont":546,"ain":547,"ortable":548,"Ġconsolidation":549,"Ġman":550,"Ġunchanged":551,"ud":552,"Ġapp":553,"ir":554,"ild":555,"IC":556,"rior":557,"SION":558,"ati":559,"Ġsil":560,"houet":561,"Ġsilhouet":562,"ip":563,"ze":564,"ect":565,"if":566,"Ġab":567,"Ġth":568,"ours":569,"ement":570,"vid":571,"Ġsize":572,"RES":573,"ĠIMP":574,"RESSION":575,"ĠIMPRESSION":576,"ular":577,"Im":578,"Findings":579,"Ġprior":580,"per":581,"Ġor":582,"cre":583,"ow":584,"ĠE":585,"der":586,"lear":587,"Ġfrom":588,"Impression":589,"Ġmo":590,"Ġup":591,"oman":592,"Ġwoman":593,"Ġchange":594,"Ġclear":595,"ence":596,"ĠThere":597,"Ġradiographs":598,"Ġpl":599,"sp":600,"ĠCO":601,"Ġnot":602,"Ġlungs":603,"Ġthere":604,"Ġinterval":605,"AR":606,"ocal":607,"art":608,"Ġdi":609,"Ġcontours":610,"ĠCOMP":611,"ISON":612,"ARISON":613,"ĠCOMPARISON":614,"Ġportable":615,"Ġcardiom":616,"Ġcou":617,"ĠIN":618,"ICATION":619,"ities":620,"Ġsilhouette":621,"Ġhas":622,"cess":623,"ared":624,"Ġinf":625,"Ġlower":626,"ING":627,"ĠIND":628,"ĠINDICATION":629,"ib":630,"ont":631,"ight":632,"Ġwe":633,"ition":634,"udy":635,"DING":636,"ĠFINDING":637,"ĠFINDINGS":638,"us":639,"Ġr":640,"Ġprocess":641,"Ġevid":642,"ine":643,"Ġstudy":644,"Ġfocal":645,"Ġplac":646,"HE":647,"ut":648,"olum":649,"Ġlob":650,"ay":651,"mall":652,"resent":653,"Ġevidence":654,"one":655,"ST":656,"asc":657,"ĠL":658,"Ġvolum":659,"Ġmild":660,"ure":661,"Ġcompared":662,"ical":663,"gest":664,"sition":665,"ardi":666,"creas":667,"ontal":668,"HEST":669,"Ġ___,":670,"ĠS":671,"Ġevalu":672,"ilateral":673,"ĠCHEST":674,"ĠH":675,"ious":676,"Ġ1":677,"Ġopacity":678,"omparison":679,"Ġen":680,"derate":681,"ĠT":682,"Ġeffusions":683,"Ġpre":684,"ant":685,"Ġimpression":686,"Ġper":687,"Ġlobe":688,"Ġposition":689,"Ġappear":690,"Ġcardiac":691,"Ġheart":692,"Ġvasc":693,"Ġas":694,"Ġal":695,"atient":696,"op":697,"Ġstable":698,"ke":699,"ren":700,"Ġan":701,"Ġupper":702,"Ġint":703,"creased":704,"Ġopacities":705,"Ġpain":706,"Comparison":707,"Ġbilateral":708,"ark":709,"AM":710,"ĠEX":711,"ĠEXAM":712,"Ġnew":713,"Ġover":714,"Ġrec":715,"Ġrem":716,"Ġpatient":717,"Ġtip":718,"Ġplacement":719,"Ġfe":720,"vious":721,"Ġmediastinal":722,"Ġli":723,"Ġcardio":724,"Ġvolumes":725,"Ġfrontal":726,"Ġ(":727,"Ġsmall":728,"arg":729,"eg":730,"ĠAP":731,"ĠM":732,"Ġass":733,"Ġg":734,"normal":735,"Ġpost":736,"Ġdis":737,"her":738,"INATION":739,"ĠEXAMINATION":740,"os":741,"old":742,"pulmonary":743,"rem":744,"aly":745,"Ġcough":746,"Ġcardiopulmonary":747,"ial":748,"Ġprevious":749,"ath":750,"Ġsub":751,"Ġ___-":752,"asilar":753,"ĠChest":754,"Ġhem":755,"kely":756,"out":757,"ĠR":758,"ron":759,"Ġabnormal":760,"Ġevaluate":761,"ult":762,"ved":763,"sid":764,"se":765,"Ġvascular":766,"Ġpresent":767,"Ġlikely":768,"ll":769,"egaly":770,"ication":771,"rac":772,"Ġwithin":773,"larg":774,"Ġhy":775,"Ġmid":776,"ures":777,"Ġassess":778,"ug":779,"na":780,"ric":781,"ern":782,"Ġenlarg":783,"Ġwh":784,"horac":785,"Ġbase":786,"istent":787,"ther":788,"CH":789,"Ġob":790,"ail":791,"Ġnow":792,"pro":793,"cl":794,"Ġsh":795,"Ġwithout":796,"UE":797,"Ġhilar":798,"ĠTE":799,"NI":800,"QUE":801,"CHNI":802,"CHNIQUE":803,"ĠTECHNIQUE":804,"str":805,"Ġcardiomegaly":806,"Ġsin":807,"omy":808,"Ġlat":809,"Ġmoderate":810,"spir":811,"ification":812,"arkable":813,"ive":814,"Ġbeen":815,"imit":816,"ĠN":817,"Ġcongest":818,"Ġnoted":819,"remarkable":820,"gm":821,"Ġunremarkable":822,"Technique":823,"Ġlimit":824,"Ġpna":825,"so":826,"Ġcardiomediastinal":827,"ening":828,"Ġrecent":829,"gain":830,"uct":831,"rib":832,"Ġsince":833,"Ġcl":834,"Ġct":835,"aph":836,"Ġimpro":837,"onstr":838,"rache":839,"Ġincreased":840,"ragm":841,"Ġline":842,"atus":843,"athe":844,"emonstr":845,"eous":846,"atheter":847,"low":848,"ied":849,"aphragm":850,"Ġcongestion":851,"Ġend":852,"Ġcatheter":853,"________________________________________________________________":854,"______":855,"______________":856,"______________________________________________________________________________":857,"Ġby":858,"ness":859,"Ġ:":860,"Ġwor":861,"Ġmay":862,"ection":863,"ĠPA":864,"ates":865,"Ġj":866,"Ġ.":867,"Ġdemonstr":868,"ich":869,"horacic":870,"ach":871,"Ġwere":872,"imal":873,"AB":874,"LE":875,"Ġwhich":876,"og":877,"min":878,"Ġair":879,"light":880,"Ġaort":881,"Ġstatus":882,"ardiac":883,"ag":884,"ified":885,"ob":886,"sided":887,"Ġlimits":888,"Ġagain":889,"ract":890,"Ġfever":891,"Ġad":892,"?.":893,"chy":894,"Ġsup":895,"Ġplease":896,"Ġchanges":897,"tr":898,"Ġ2":899,"Ġha":900,"iltr":901,"Ġter":902,"ABLE":903,"Ġnone":904,"PORTABLE":905,"eart":906,"Ġtermin":907,"Ġmost":908,"arge":909,"inical":910,"av":911,"Ġcm":912,"Ġslight":913,"age":914,"ral":915,"Ġthis":916,"Ġext":917,"ibasilar":918,"Ġenlarged":919,"Ġinfiltr":920,"Ġfract":921,"Ġrib":922,"Ġremain":923,"Ġcould":924,"ative":925,"tain":926,"itial":927,"uggest":928,"Ġref":929,"ingle":930,"Ġbas":931,"Ġbre":932,"ance":933,"ual":934,"Ġsuggest":935,"eft":936,"vel":937,"Ġcan":938,"and":939,"Ġsig":940,"IST":941,"ost":942,"Ġfinal":943,"Ġupright":944,"Ġmin":945,"ORY":946,"ISTORY":947,"ĠHISTORY":948,"spiration":949,"ior":950,"Ġdue":951,"sseous":952,"iz":953,"Ġstr":954,"Ġhave":955,"Ġabnormality":956,"stitial":957,"li":958,"Ġobtain":959,"Ġtra":960,"Ġwors":961,"Ġstruct":962,"all":963,"Ġhemi":964,"lu":965,"Ġconc":966,"end":967,"ident":968,"lev":969,"qu":970,"clud":971,"Ġpers":972,"Ġobtained":973,"ting":974,"Ġsp":975,"ig":976,"AD":977,"Ġrepresent":978,"Ġinterstitial":979,"Ġappro":980,"diaphragm":981,"Ġstructures":982,"Ġlarge":983,"Ġres":984,"ssib":985,"ardiom":986,"Ġhyp":987,"ard":988,"Ġreflect":989,"Ġremo":990,"Ġwell":991,"racheal":992,"Ġconcern":993,"oderate":994,"Ġinfection":995,"ĠIn":996,"Ġbreath":997,"Ġappearance":998,"Ġosseous":999,"osis":1000,"omach":1001,"ediastin":1002,"Ġopacification":1003,"ronch":1004,"Ġimproved":1005,"Ġstomach":1006,"Ġident":1007,"astric":1008,"ially":1009,"Ġhemidiaphragm":1010,"ĠD":1011,"Ġlead":1012,"ediastinum":1013,"Ġproj":1014,"Ġidentified":1015,"Ġx":1016,"rou":1017,"ND":1018,"Ġalso":1019,"Ġslightly":1020,"Ġother":1021,"ĠO":1022,"Ġconsistent":1023,"ass":1024,"ise":1025,"fter":1026,"Ġbut":1027,"orm":1028,"Ġret":1029,"Ġaspiration":1030,"Ġthoracic":1031,"ens":1032,"Ġafter":1033,"Ġexclud":1034,"Ġwas":1035,"Ġmult":1036,"stant":1037,"ungs":1038,"iple":1039,"rom":1040,"ove":1041,"Ġclinical":1042,"Ġear":1043,"Ġinfiltrate":1044,"rent":1045,"ortness":1046,"ĠĠĊ":1047,"Ġdev":1048,"nea":1049,"otracheal":1050,"itt":1051,"Ġsc":1052,"Ġabove":1053,"Ġet":1054,"ap":1055,"Ġsingle":1056,"Ġdef":1057,"Ġne":1058,"ĠAND":1059,"roc":1060,"ule":1061,"Ġaorta":1062,"Ġpossib":1063,"vere":1064,"In":1065,"ree":1066,"Ġproject":1067,"Ġdise":1068,"Chest":1069,"alc":1070,"Ġdisease":1071,"rocardiac":1072,"entral":1073,"ĠLAT":1074,"Ġbibasilar":1075,"valu":1076,"hough":1077,"ment":1078,"Ġpac":1079,"Ġk":1080,"ardiomediastinal":1081,"ys":1082,"ĠCT":1083,"ronic":1084,"Ġam":1085,"Ġdevic":1086,"Ġdist":1087,"erior":1088,"wise":1089,"Ġabnormalities":1090,"atic":1091,"Ġworsening":1092,"Ġexp":1093,"fic":1094,"act":1095,"ym":1096,"Ġshortness":1097,"od":1098,"Ġ?.":1099,"Ġnod":1100,"rough":1101,"Ġabd":1102,"Ġver":1103,"lated":1104,"luid":1105,"nific":1106,"crease":1107,"ĠB":1108,"Ġar":1109,"Ġprovid":1110,"ress":1111,"Ġterminates":1112,"Ġthrough":1113,"Ġcentral":1114,"ction":1115,"Ġmal":1116,"Ġout":1117,"ak":1118,"ating":1119,"vc":1120,"Ġread":1121,"Ġbronch":1122,"tes":1123,"Ġday":1124,"nificant":1125,"Ġmore":1126,"owe":1127,"ite":1128,"Ġi":1129,"Ġthan":1130,"renchy":1131,"Ġprovided":1132,"Ġbasilar":1133,"ĠW":1134,"Ġfail":1135,"Ġintub":1136,"Ġfailure":1137,"ina":1138,"Ġsignificant":1139,"Ġsilhouettes":1140,"nal":1141,"ill":1142,"Ġminimal":1143,"imilar":1144,"ysp":1145,"Ġbases":1146,"Ġappears":1147,"Ġcarina":1148,"ox":1149,"Ġmediastinum":1150,"Ġparenchy":1151,"unction":1152,"Ġcalc":1153,"ature":1154,"Ġpic":1155,"Ġport":1156,"lier":1157,"ogastric":1158,"Ġabdom":1159,"yspnea":1160,"romin":1161,"urg":1162,"lying":1163,"Ġearlier":1164,"omm":1165,"Ġfluid":1166,"Ġevaluation":1167,"Ġac":1168,"ade":1169,"Ġ3":1170,"Ġchronic":1171,"Ġsimilar":1172,"ome":1173,"Ġmildly":1174,"Ġreg":1175,"ĠRight":1176,"Ġatri":1177,"Pneum":1178,"Ġretrocardiac":1179,"otomy":1180,"Ġvolume":1181,"Ġsid":1182,"Ġmade":1183,"Ġhyper":1184,"Ġav":1185,"ex":1186,"Ġendotracheal":1187,"Right":1188,"ized":1189,"enous":1190,"ĠHeart":1191,"ns":1192,"Ġpt":1193,"Ġstern":1194,"Ġdyspnea":1195,"ĠMild":1196,"own":1197,"Ġremains":1198,"Ġconcerning":1199,"Ġdiff":1200,"lo":1201,"Ġvascul":1202,"oph":1203,"atory":1204,"Ġpicc":1205,"Ġ,":1206,"Ġresol":1207,"Ġapical":1208,"Ġvasculature":1209,"valuate":1210,"ably":1211,"Ġexcluded":1212,"veral":1213,"Ġfracture":1214,"Ġdated":1215,"Wet":1216,"Ġsevere":1217,"Ġsvc":1218,"Ġregion":1219,"Ġvent":1220,"Ġperf":1221,"Mild":1222,"asogastric":1223,"Ġjunction":1224,"Ġhypox":1225,"Ġcol":1226,"owever":1227,"Ġdefin":1228,"Ġvis":1229,"ced":1230,"Ġchf":1231,"PA":1232,"ollow":1233,"Ġpromin":1234,"Ġpersistent":1235,"Ġpm":1236,"Ġfree":1237,"Ġparenchymal":1238,"Ġptx":1239,"Ġ______________________________________________________________________________":1240,"Ġpart":1241,"Ġmark":1242,"ray":1243,"Ġthat":1244,"Ġvenous":1245,"Ġbelow":1246,"etting":1247,"el":1248,"rontal":1249,"itis":1250,"nt":1251,"male":1252,"Ġsob":1253,"ution":1254,"oma":1255,"Ġsetting":1256,"Ġfemale":1257,"Ġem":1258,"Ġintact":1259,"Ġconf":1260,"pri":1261,"iv":1262,"priate":1263,"Ġbet":1264,"Ġdecreased":1265,"ĠLeft":1266,"Ġ4":1267,"Ġkn":1268,"Ġelev":1269,"Ġplace":1270,"ailable":1271,"Pneumothorax":1272,"Ġimprov":1273,"Heart":1274,"Ġavailable":1275,"Ġsubstant":1276,"Ġit":1277,"Ġcor":1278,"Ġmultiple":1279,"Ġloc":1280,"ong":1281,"spiratory":1282,"Ġends":1283,"Ġdevices":1284,"ker":1285,"Ġspine":1286,"urrent":1287,"Ġenlargement":1288,"ĠNone":1289,"pt":1290,"inf":1291,"ommend":1292,"atchy":1293,"Ġappropriate":1294,"AP":1295,"ugular":1296,"anded":1297,"Ġperform":1298,"Ġ5":1299,"Left":1300,"Ġdemonstrate":1301,"Ġlevel":1302,"rain":1303,"Ġmass":1304,"ĠFrontal":1305,"ĠV":1306,"Un":1307,"Ġjugular":1308,"Ġprob":1309,"ortu":1310,"ffuse":1311,"ring":1312,"Ġbac":1313,"lac":1314,"ET":1315,"ound":1316,"line":1317,"cer":1318,"Ġmale":1319,"hould":1320,"Ġunder":1321,"VC":1322,"Ġfractures":1323,"Ġshould":1324,"Ġdr":1325,"ross":1326,"Ġatrium":1327,"Ġdemonstrated":1328,"Ġsternotomy":1329,"Ġleads":1330,"Unchanged":1331,"iated":1332,"Ġacc":1333,"hilar":1334,"emaker":1335,"Ġremoval":1336,"Ġfollow":1337,"oth":1338,"Ġdefinite":1339,"Ġrecently":1340,"Ġng":1341,"Ġany":1342,"Ġtortu":1343,"Ġincrease":1344,"Ġtop":1345,"ĠREAD":1346,"IO":1347,"not":1348,"Ġremoved":1349,"ĠWET":1350,"velop":1351,"load":1352,"sis":1353,"reat":1354,"//":1355,"GR":1356,"ĠSVC":1357,"APH":1358,"Ġoverload":1359,"renic":1360,"ĠRAD":1361,"ĠRADIO":1362,"GRAPH":1363,"ĠRADIOGRAPH":1364,"Ġdiaphragm":1365,"Ġaortic":1366,"though":1367,"port":1368,"Ġdevelop":1369,"ER":1370,"Ġcannot":1371,"Ġpossible":1372,"Ġmedi":1373,"verall":1374,"ho":1375,"Ġimag":1376,"Ġperformed":1377,"Portable":1378,"co":1379,"ĠHistory":1380,"entially":1381,"pace":1382,"rh":1383,"stion":1384,"Ġventric":1385,"inu":1386,"Ġwi":1387,"inear":1388,"ualized":1389,"Ġte":1390,"order":1391,"Lungs":1392,"Ġwall":1393,"ec":1394,"Ġang":1395,"ately":1396,"ian":1397,"iss":1398,"Ġfil":1399,"Ġpacemaker":1400,"ension":1401,"Ġcost":1402,"Mediastinal":1403,"Ġdrain":1404,"Ġbetter":1405,"Ġimprovement":1406,"Ġnasogastric":1407,"ĠPIC":1408,"Ple":1409,"Ġrespiratory":1410,"Ġgross":1411,"Ġdes":1412,"soph":1413,"lap":1414,"ened":1415,"Ġinternal":1416,"athoracic":1417,"Ġnodule":1418,"Ġintubated":1419,"Ġintr":1420,"Ġabdomen":1421,"andard":1422,"gen":1423,"Ġwhe":1424,"Ġintrathoracic":1425,"yp":1426,"Ġprojecting":1427,"Ġsome":1428,"Ġback":1429,"ittle":1430,"Ġotherwise":1431,"ophrenic":1432,"ck":1433,"Ġstandard":1434,"Ġhypoxia":1435,"hoff":1436,"Ġvisualized":1437,"ame":1438,"ĠSt":1439,"Ġfilm":1440,"Ġcostophrenic":1441,"Ġknown":1442,"ond":1443,"Ġcav":1444,"gor":1445,"Ġpersist":1446,"ĠAs":1447,"ell":1448,"arring":1449,"ĠLungs":1450,"Ġinfect":1451,"Ġrev":1452,"xim":1453,"mitt":1454,"ĠModerate":1455,"Ġboth":1456,"rect":1457,"Ġfall":1458,"Ġcancer":1459,"Ġwid":1460,"Ġtrache":1461,"Ġareas":1462,"Ġrelev":1463,"Ġrelevant":1464,"gorg":1465,"terval":1466,"leph":1467,"Ġ8":1468,"olog":1469,"Ġangle":1470,"cuss":1471,"Ġloss":1472,"Ġapproxim":1473,"ĠCardiomediastinal":1474,"Ġmet":1475,"Cardiomediastinal":1476,"Ġdiffuse":1477,"Ġgrossly":1478,"creasing":1479,"Ġalthough":1480,"Ġengorg":1481,"Ġpulm":1482,"Ġ10":1483,"Ġapproximately":1484,"Ġteleph":1485,"ĠPICC":1486,"'s":1487,"Ġhx":1488,"cussed":1489,"Ġesoph":1490,"usion":1491,"Ġ?":1492,"Ġwires":1493,"aces":1494,"Ġexpanded":1495,"Ġinfectious":1496,"rec":1497,"Moderate":1498,"Ġhowever":1499,"onit":1500,"day":1501,"abg":1502,"**":1503,"Ġlittle":1504,"Ġprobably":1505,"Ġreview":1506,"ĠET":1507,"ĠPortable":1508,"cy":1509,"ek":1510,"space":1511,"onitor":1512,"oper":1513,"ips":1514,"Ġrecommend":1515,"Ġsurg":1516,"Ġterminating":1517,"phys":1518,"Ġdiscussed":1519,"Ġtelephone":1520,"led":1521,"ore":1522,"ony":1523,"Ġrel":1524,"icular":1525,"Ġapprec":1526,"ĠDr":1527,"emi":1528,"ostomy":1529,"Ġbasal":1530,"Ġcours":1531,"athy":1532,"his":1533,"Ġprog":1534,"ick":1535,"Ġhyperinf":1536,"Ġweek":1537,"Ġcalcification":1538,"ble":1539,"Ġcabg":1540,"osed":1541,"Small":1542,"Ġpatchy":1543,"onitoring":1544,"opd":1545,"ĠĠĠĠĠ":1546,"Ġobs":1547,"Ġairspace":1548,"clav":1549,"Ġsubstantial":1550,"therwise":1551,"Ġscarring":1552,"icult":1553,"Ġsupport":1554,"Ġside":1555,"xr":1556,"iven":1557,"Lateral":1558,"opathy":1559,"Ġ6":1560,"Ġposterior":1561,"ĠSmall":1562,"clavian":1563,"ĠPM":1564,"ending":1565,"Ġtubes":1566,"ymph":1567,"Ġdistal":1568,"St":1569,"Ġcom":1570,"ectomy":1571,"ihilar":1572,"Ġsubclavian":1573,"Ġadv":1574,"reater":1575,"Ġcollap":1576,"Ġemphys":1577,"Ġlymph":1578,"Ġif":1579,"Ġdete":1580,"Ġca":1581,"ĠComparison":1582,"ings":1583,"Ġunderlying":1584,"Ġcopd":1585,"Ġdifficult":1586,"erative":1587,"Ġcxr":1588,"Ġdens":1589,"Ġhil":1590,"tail":1591,"acent":1592,"Ġmarkings":1593,"igtail":1594,"Ġbilaterally":1595,"Ġ0":1596,"Ġcontour":1597,"ma":1598,"Ġsuper":1599,"imp":1600,"Ġthough":1601,"Ġ#":1602,"Ġtortuous":1603,"inimal":1604,"mitted":1605,"urther":1606,"Ġovert":1607,"ould":1608,"ology":1609,"ensive":1610,"wo":1611,"question":1612,"Ġgreater":1613,"Ġquestion":1614,"dle":1615,"Ġdetect":1616,"ociated":1617,"jacent":1618,"Ġpigtail":1619,"Ġperihilar":1620,"Ġhi":1621,"Cl":1622,"Ġcomb":1623,"rial":1624,"Ġwould":1625,"ime":1626,"Ġemphysema":1627,"Ġmonitoring":1628,"ultiple":1629,"Ġfi":1630,"Ġrequ":1631,"Ġclips":1632,"Ġthick":1633,"Ġthorac":1634,"cop":1635,"Ġsu":1636,"ascular":1637,"Ġmiddle":1638,"Hilar":1639,"Ġve":1640,"Ġarea":1641,"ĠEvaluate":1642,"imposed":1643,"teric":1644,"xt":1645,"Ġincreasing":1646,"Ġconsid":1647,"Ġche":1648,"Ġpreviously":1649,"Ġcontinu":1650,"de":1651,"Ġelevation":1652,"ason":1653,"Ġarter":1654,"ected":1655,"lete":1656,"Ġbl":1657,"tered":1658,"Ġpositioning":1659,"use":1660,"to":1661,"Ġreviewed":1662,"Ġcalcified":1663,"Ġpls":1664,"Ġtach":1665,"Ġsw":1666,"Pleural":1667,"Ġprominent":1668,"otic":1669,"Ġpres":1670,"Ġstill":1671,"Ġassociated":1672,"Ġ7":1673,"row":1674,"Ġinj":1675,"Ġsame":1676,"ĠNG":1677,"Ġreason":1678,"atible":1679,"Ġinto":1680,"Ġcompatible":1681,"lation":1682,"Ġresolution":1683,"Ġlinear":1684,"Ġsided":1685,"Ġfurther":1686,"Ġcollapse":1687,"Ġ9":1688,"Ġalong":1689,"Ġsigns":1690,"ign":1691,"Ġdob":1692,"ĠPle":1693,"Evaluate":1694,"unting":1695,"Ġrecommended":1696,"Ġthickening":1697,"Ġshow":1698,"Ġresid":1699,"Ġadjacent":1700,"Ġhyperinflated":1701,"atrial":1702,"ifocal":1703,"Ġventricle":1704,"very":1705,"laced":1706,"ody":1707,"Ġoverlying":1708,"Ġmetast":1709,"oatrial":1710,"Ġprojects":1711,"Ġoverall":1712,"Ġdetected":1713,"Ġcombination":1714,"Ġdisco":1715,"Ġmedian":1716,"Ġher":1717,"Clinical":1718,"Ġrule":1719,"ers":1720,"lant":1721,"Ġy":1722,"Ġdiscovery":1723,"Ġconsolidations":1724,"eding":1725,"Ġsuperimposed":1726,"Ġz":1727,"Pulmonary":1728,"Ġdiffe":1729,"Ġcir":1730,"atively":1731,"Ġvein":1732,"esis":1733,"Ġprominence":1734,"Ġtime":1735,"Ġcavoatrial":1736,"Ġsemi":1737,"dies":1738,"ageal":1739,"Ġqu":1740,"Ġadvan":1741,"Ġtiss":1742,"ĠCL":1743,"Ġdemonstrates":1744,"Ġett":1745,"terior":1746,"Ġbroncho":1747,"dist":1748,"Ġborder":1749,"duct":1750,"Ġextent":1751,"Ġintubation":1752,"nia":1753,"Ġneed":1754,"Ġpresenting":1755,"ICAL":1756,"Ġsuperior":1757,"Ġco":1758,"ĠCLIN":1759,"ĠCLINICAL":1760,"Ġstent":1761,"Ġcurrent":1762,"met":1763,"tle":1764,"rhosis":1765,"Ġdensity":1766,"eration":1767,"Ġchanged":1768,"akness":1769,"ressive":1770,"Ġpersists":1771,"Ġresolved":1772,"Ġimage":1773,"Ġdays":1774,"Ġpacer":1775,"tion":1776,"Ġtoday":1777,"Ġbody":1778,"Ġsur":1779,"Ġgra":1780,"ymmet":1781,"operative":1782,"Ġgiven":1783,"ĠAM":1784,"Ġso":1785,"ving":1786,"ler":1787,"Ġsy":1788,"Ġess":1789,"ental":1790,"ention":1791,"Ġhead":1792,"rant":1793,"Ġtrans":1794,"Ġ11":1795,"Ġessentially":1796,"Ġhemith":1797,"nsp":1798,"dition":1799,"Ġhemithor":1800,"uration":1801,"Ġcirrhosis":1802,"Ġanterior":1803,"Ġabdominal":1804,"Ġdegen":1805,"aneous":1806,"les":1807,"Ġresidual":1808,"Ġworsened":1809,"Ġhernia":1810,"Ġrequi":1811,"Ġdegenerative":1812,"Ġnon":1813,"Ġinfiltrates":1814,"Ġhemithorax":1815,"Ġweakness":1816,"Ġtransp":1817,"NA":1818,"AS":1819,"Ġdevice":1820,"Ġapex":1821,"Ġexclude":1822,"Ġfevers":1823,"Ġval":1824,"ility":1825,"Ġconstant":1826,"Ġless":1827,"Ġmental":1828,"Ap":1829,"vascular":1830,"ĠCardiac":1831,"eld":1832,"Ġdisp":1833,"yt":1834,"Ġ___:":1835,"Ġep":1836,"sc":1837,"are":1838,"ĠSingle":1839,"Ġsuggesting":1840,"ompared":1841,"ulated":1842,"Ġdrainage":1843,"ĠCH":1844,"IE":1845,"Cardiac":1846,"Ġsuggestive":1847,"Ġmultifocal":1848,"ĠLung":1849,"reak":1850,"Ġtwo":1851,"Ġweeks":1852,"Ġcomplete":1853,"Ġlesion":1854,"isting":1855,"ered":1856,"Ġmoderately":1857,"Ġfield":1858,"uc":1859,"ery":1860,"ĠMediastinal":1861,"An":1862,"Ġsec":1863,"Ġdecrease":1864,"rack":1865,"Ġengorgement":1866,"Ġpul":1867,"icardi":1868,"Ġstu":1869,"Ġsecond":1870,"yc":1871,"Ġelevated":1872,"Ġnodular":1873,"ĠCHF":1874,"Ġdo":1875,"Ġsurf":1876,"Ġtransplant":1877,"Ġstudies":1878,"ximal":1879,"ĠUnchanged":1880,"Ġfx":1881,"Ġappreci":1882,"Ġdate":1883,"ymmetric":1884,"Ġph":1885,"Ġpresents":1886,"Ġpot":1887,"Ġdesc":1888,"arger":1889,"Ġquad":1890,"ĠPNA":1891,"Ġlarger":1892,"Ġfib":1893,"ĠNormal":1894,"IEW":1895,"cut":1896,"ering":1897,"Ġminimally":1898,"ĠVIEW":1899,"Ġproximal":1900,"Pa":1901,"Ġits":1902,"Ġartery":1903,"ssess":1904,"Ġassessment":1905,"rowding":1906,"Ġcalcifications":1907,"ount":1908,"Ġquadrant":1909,".,":1910,"zy":1911,"Ġadvanced":1912,"pa":1913,"Ġvalve":1914,"Ġev":1915,"enopathy":1916,"Ġble":1917,"Ġij":1918,"Ġsupine":1919,"Ġlocation":1920,"cutaneous":1921,"existing":1922,"Ġsurfaces":1923,"Ġenteric":1924,"irm":1925,"osition":1926,"ĠInterval":1927,"side":1928,"Ġblunting":1929,"Ġpleur":1930,"ward":1931,"Ġmetastatic":1932,"ĠFOR":1933,"Ġextensive":1934,"Bilateral":1935,"icardial":1936,"spect":1937,"Ġnodules":1938,"ersistent":1939,"This":1940,"ĠOF":1941,"ats":1942,"Ġrelatively":1943,"ines":1944,"utes":1945,"Ġngt":1946,"ĠREAS":1947,"rement":1948,"ĠREASON":1949,"ĠPulmonary":1950,"Ġcrowding":1951,"Ġbronchovascular":1952,"Ġrequirement":1953,"hat":1954,"Ġversion":1955,"lacement":1956,"Ġesophag":1957,"Comparisons":1958,"ductive":1959,"Normal":1960,"Ġcompl":1961,"rop":1962,"Ġrot":1963,"ERAL":1964,"reaky":1965,"rackles":1966,"Ġpress":1967,"Ġminutes":1968,"teb":1969,"Ġextend":1970,"Ġzone":1971,"Ġsom":1972,"Ġcp":1973,"Ġdisplaced":1974,"Ġaf":1975,"bhoff":1976,"Ġdifferen":1977,"comp":1978,"Ġtissue":1979,"Ġconfirm":1980,"Ġ12":1981,"Up":1982,"ĠLATERAL":1983,"Ġwho":1984,"quent":1985,"ĠStable":1986,"py":1987,"Ġconsidered":1988,"Ġneeds":1989,"entu":1990,"uri":1991,"Ġaltered":1992,"Otherwise":1993,"Ġcrackles":1994,"Ġportion":1995,"Ġintra":1996,"hma":1997,"Ġ-":1998,"Ġaccentu":1999,"Ġpotentially":2000,"ayering":2001,"Ġdual":2002,"Not":2003,"ces":2004,"Ġfl":2005,"ple":2006,"ĠNew":2007,"Ġsurgery":2008,"Ġexpected":2009,"Indication":2010,"Low":2011,"ĠCompared":2012,"ardia":2013,"ribution":2014,"ĠTHE":2015,"ewhat":2016,"Ġprogression":2017,"Ġpossibly":2018,"sthma":2019,"ies":2020,"Ġpartially":2021,"urgical":2022,"Ġobscu":2023,"Ġrelated":2024,"Ġone":2025,"ycardia":2026,"Ġlayering":2027,"ĠMultiple":2028,"Stable":2029,"Ġverteb":2030,"Ġaeration":2031,"Ġleast":2032,"Ġtracheostomy":2033,"mo":2034,"ĠPlease":2035,"Ġplaced":2036,"Ġcheck":2037,"Ġvs":2038,"Ġhila":2039,"Ġsomewhat":2040,"Bibasilar":2041,"cath":2042,"ĠLow":2043,"ndotracheal":2044,"int":2045,"air":2046,"emia":2047,"Ġsubmitted":2048,"ĠAn":2049,"Ġcourse":2050,"Ġmarked":2051,"Ġextub":2052,"entesis":2053,"uk":2054,"Ġful":2055,"Ġcorre":2056,"Ġpressure":2057,"erv":2058,"Ġdeform":2059,"Ġasthma":2060,"Ġloculated":2061,"Ġsoft":2062,"Ġappreciable":2063,"ĠBilateral":2064,"ally":2065,"Ġpass":2066,"orrh":2067,"Ġpred":2068,"Ġneck":2069,"fore":2070,"Ġpar":2071,"Ġsubstantially":2072,"ardiomegaly":2073,"alysis":2074,"Ġpan":2075,"Lung":2076,"Ġsusp":2077,"set":2078,"ogen":2079,"valuation":2080,"Ġhypot":2081,"Ġarch":2082,"Ġproductive":2083,"Ġamount":2084,"Ġwidening":2085,"Ġpericardial":2086,"ocyt":2087,"Ġme":2088,"ertion":2089,"ĠCOMPARISONS":2090,"elling":2091,"Ġdobhoff":2092,"atal":2093,"ORM":2094,"Ġresection":2095,"Ġhemorrh":2096,"sequent":2097,"Ġleuk":2098,"ile":2099,"revious":2100,"Ġrepresents":2101,"Ġextends":2102,"Ġsubtle":2103,"Con":2104,"ĠPORTABLE":2105,"essel":2106,"Ġdifferences":2107,"Ġsuggests":2108,"phal":2109,"Ġhypert":2110,"ift":2111,"Ġworse":2112,"***":2113,"Minimal":2114,"Ġcell":2115,"rosc":2116,"osity":2117,"Ġwhee":2118,"Ġdeveloping":2119,"ors":2120,"Ġrecurrent":2121,"othoraces":2122,"Ġimaged":2123,"go":2124,"Ġradiographic":2125,"Ġshift":2126,"moderate":2127,"ible":2128,"oli":2129,"Ġonset":2130,"ep":2131,"est":2132,"Ġinv":2133,"Ġtrace":2134,"Ġdevelopment":2135,"Ġsecondary":2136,"Ġpossibility":2137,"ncop":2138,"roke":2139,"onent":2140,"Ġlobes":2141,"Ġlimited":2142,"Ġparticular":2143,"FORM":2144,"New":2145,"Ġradi":2146,"Ġasymmetric":2147,"Ġaccomp":2148,"Ġatt":2149,"Ġvertebral":2150,"Ġvessel":2151,"ocytosis":2152,"Ġhiatal":2153,"Ġesophagus":2154,"Ġaccompan":2155,"evere":2156,"ital":2157,"ust":2158,"Ġwhen":2159,"Ġfeeding":2160,"Interval":2161,"Ġvascularity":2162,"Ġengorged":2163,"Ġvery":2164,"Ġimages":2165,"Ġincl":2166,"Ġcomponent":2167,"Ġscan":2168,"Ġcontinued":2169,"Ġcompressive":2170,"uries":2171,"elv":2172,"Ġinjuries":2173,"Ġatrial":2174,"Ġhere":2175,"sus":2176,"ically":2177,"nul":2178,"ops":2179,"ĠMinimal":2180,"Ġseiz":2181,"Ġliver":2182,"ĠBibasilar":2183,"Ġtraum":2184,"read":2185,"Ġreplacement":2186,"Ġho":2187,"ization":2188,"Ġrenal":2189,"uding":2190,"Ġsignificantly":2191,"Ġsubcutaneous":2192,"Ġversus":2193,"Ġafib":2194,"ĠOtherwise":2195,"Ġaddition":2196,"ecommend":2197,"acer":2198,"iny":2199,"ock":2200,"Ġearly":2201,"Ġtrachea":2202,"oral":2203,"PD":2204,"cus":2205,"Ġreflecting":2206,"ĠG":2207,"exp":2208,"arent":2209,"itive":2210,"rest":2211,"Ġstroke":2212,"Ġatelectatic":2213,"th":2214,"esp":2215,"Ġventricular":2216,"Ġconflu":2217,"Ġpasses":2218,"Ġhypotension":2219,"aged":2220,"ising":2221,"Ġclav":2222,"struct":2223,"erated":2224,"omin":2225,"Ġapparent":2226,"icated":2227,"ense":2228,"Ġincluding":2229,"Ġinvol":2230,"Ġpresence":2231,"ations":2232,"Ġtrach":2233,"Ġhours":2234,"Ġtachycardia":2235,"Ġrepair":2236,"ogeneous":2237,"Ġbefore":2238,"Ġleukocytosis":2239,"tn":2240,"Ġfollowup":2241,"Ġpulled":2242,"anz":2243,"ĠIJ":2244,"ency":2245,"dicated":2246,"Ġlle":2247,"Ġnear":2248,"Ġfound":2249,"ossib":2250,"Ġhemorrhage":2251,"Ġpelv":2252,"Ġtortuosity":2253,"Ġshoulder":2254,"Ġlines":2255,"eat":2256,"ither":2257,"upright":2258,"Ġsubsequent":2259,"Ġconv":2260,"Ġassessed":2261,"agn":2262,"ĠON":2263,"ĠThis":2264,"Ġhypertension":2265,"Ġeti":2266,"Ġpath":2267,"ĠPatient":2268,"Ġthor":2269,"Ġpancre":2270,"Ġinspiration":2271,"Ġaccompanied":2272,"Ġcad":2273,"Ġvessels":2274,"itone":2275,"Ġoutside":2276,"ncope":2277,"Ġpneumothoraces":2278,"Notification":2279,"chi":2280,"terogeneous":2281,"Ġshows":2282,"etrocardiac":2283,"Ġcomm":2284,"Ġthorax":2285,"oscop":2286,"ere":2287,"Ġdiagn":2288,"Ġcta":2289,"Ġmidline":2290,"Ġlong":2291,"ontinu":2292,"ĠNO":2293,"Ġhigh":2294,"Ġmm":2295,"Ġappreciated":2296,"Ġall":2297,"Ġfollowing":2298,"Ġwed":2299,"Et":2300,"ecif":2301,"Ġpect":2302,"ĠCOPD":2303,"Ġhtn":2304,"Ġfiss":2305,"Ġmain":2306,"the":2307,"cc":2308,"Ġpredomin":2309,"cin":2310,"Ġabs":2311,"Ġarrest":2312,"adenopathy":2313,"Ġwheez":2314,"uring":2315,"xp":2316,"ossible":2317,"ator":2318,"oh":2319,"ĠIm":2320,"Ġsever":2321,"owel":2322,"Ġresp":2323,"Ġtb":2324,"Ġpostoperative":2325,"ful":2326,"cept":2327,"Ġlymphadenopathy":2328,"Ġexacer":2329,"Ġthoracentesis":2330,"Ġseverity":2331,"Ġexacerb":2332,"Ġdeg":2333,"Ġpelvis":2334,"Ġmy":2335,"ipher":2336,"ĠPrior":2337,"Ġcorrect":2338,"Ġbreast":2339,"ined":2340,"icu":2341,"Ġhep":2342,"TI":2343,"Ġinclud":2344,"Ġsep":2345,"ury":2346,"Ġround":2347,"tern":2348,"Ġeither":2349,"Ġlobectomy":2350,"Ġexertion":2351,"Ġresult":2352,"lowing":2353,"Ġetiology":2354,"rosis":2355,"Ġadmitted":2356,"ympt":2357,"ansion":2358,"let":2359,"round":2360,"Ġmight":2361,"Ġswelling":2362,"lerotic":2363,"Ġdegree":2364,"Ġmalign":2365,"ymptom":2366,"Ġgen":2367,"Ġreflects":2368,"Que":2369,"Question":2370,"Ġobscured":2371,"Ġimaging":2372,"Ġsternal":2373,"ough":2374,"Ġdistress":2375,"onth":2376,"Please":2377,"oliosis":2378,"Ġpmh":2379,"Ġinjury":2380,"Ġevaluated":2381,"itic":2382,"oun":2383,"Ġbowel":2384,"Ġknob":2385,"History":2386,"orso":2387,"omediastinum":2388,"Ġpneumon":2389,"nown":2390,"Ġsinus":2391,"Ġseveral":2392,"Ġdeveloped":2393,"cephal":2394,"Again":2395,"Ġesophageal":2396,"ontinued":2397,"Ġvats":2398,"Ġconfluent":2399,"Ġbleed":2400,"orderline":2401,"Ġmonth":2402,"Ġshock":2403,"Multiple":2404,"Ġexacerbation":2405,"Ġdescending":2406,"Ġtachyp":2407,"ware":2408,"resp":2409,"we":2410,"ABG":2411,"Ġgastric":2412,"ris":2413,"Ġtorso":2414,"ronchial":2415,"Ġpe":2416,"Ġfully":2417,"Ġcourses":2418,"ĠEvaluation":2419,"ĠVER":2420,"ĠVIEWS":2421,"ED":2422,"esoph":2423,"ĠVERSION":2424,"ĠAssess":2425,"Ġmedial":2426,"ause":2427,"Ġbony":2428,"Ġperipher":2429,"iting":2430,"icd":2431,"Ġpectoral":2432,"However":2433,"opt":2434,"Ġparticularly":2435,"ĠUp":2436,"Ġcompression":2437,"Ġonly":2438,"Ġwheezing":2439,"distribution":2440,"Ġcompletely":2441,"Ġgranul":2442,"ning":2443,"ose":2444,"atitis":2445,"Ġclinically":2446,"Bony":2447,"Ġwedge":2448,"Ġvia":2449,"rahilar":2450,"Sub":2451,"Ġextending":2452,"Ġpresum":2453,"Ġexcept":2454,"Ġhard":2455,"Ġane":2456,"Ġhel":2457,"ula":2458,"Ġrepeat":2459,"ĠCABG":2460,"Ġsymptom":2461,"espread":2462,"30":2463,"Ġvisible":2464,"ones":2465,"Ġling":2466,"ĠBony":2467,"Ġcontinues":2468,"Ġtrauma":2469,"iffuse":2470,"Ġbra":2471,"ormation":2472,"Increased":2473,"Ġthese":2474,"Ġdecomp":2475,"Ġcommun":2476,"Ġhelp":2477,"Ġobstruct":2478,"Ġop":2479,"Ġhosp":2480,"ĠLateral":2481,"Ġtiny":2482,"Ġdep":2483,"00":2484,"FICATION":2485,"Ġevident":2486,"cinoma":2487,"Ġprobable":2488,"ĠDob":2489,"Ġhyd":2490,"Ġlast":2491,"Ġallowing":2492,"Ġgast":2493,"ressed":2494,"Ġpathology":2495,"rill":2496,"ended":2497,"Ġsurgical":2498,"ĠNOTI":2499,"ĠNOTIFICATION":2500,"Ġinformation":2501,"Ġhospital":2502,"iled":2503,"Ġpneumomediastinum":2504,"inct":2505,"Ġcongestive":2506,"Ġbi":2507,"omiting":2508,"Ġaspect":2509,"Ġinferior":2510,"ulation":2511,"Ġtyp":2512,"Ġrepresenting":2513,"rapy":2514,"Ġtachypnea":2515,"Ġswan":2516,"olar":2517,"Ġams":2518,"Ġparenchyma":2519,"ervical":2520,"bar":2521,"erexp":2522,"oscopy":2523,"Ġpast":2524,"Ġog":2525,"ĠFindings":2526,"cing":2527,"Ġinvolving":2528,"Ġextrem":2529,"Ġasc":2530,"rd":2531,"Ġnote":2532,"acter":2533,"Ġcarinal":2534,"ĠStatus":2535,"sh":2536,"ater":2537,"Ġcurrently":2538,"Ġsepsis":2539,"Ġsymptoms":2540,"iness":2541,"alp":2542,"Ġventil":2543,"ĠSub":2544,"reatment":2545,"ĠPort":2546,"vr":2547,"Ġhardware":2548,"like":2549,"Ġtransf":2550,"Ġnewly":2551,"Ġworris":2552,"Ġworrisome":2553,"ĠAgain":2554,"mental":2555,"Ġlymphoma":2556,"ĠEndotracheal":2557,"Ġdeformity":2558,"itral":2559,"Pna":2560,"Ġax":2561,"Ġindic":2562,"Ġjust":2563,"ween":2564,"Ġphone":2565,"Ġredistribution":2566,"Ġcomplication":2567,"orsening":2568,"Ġsyncope":2569,"pm":2570,"ills":2571,"olic":2572,"Ġhum":2573,"ĠIncreased":2574,"Ġbetween":2575,"Ġpleuritic":2576,"Opac":2577,"def":2578,"ĠFR":2579,"Ġvomiting":2580,"ĠRADIOGRAPHS":2581,"Ġobsc":2582,"maller":2583,"Ġfissure":2584,"adiograph":2585,"ptic":2586,"Cath":2587,"Ġaxill":2588,"last":2589,"ole":2590,"Ġtak":2591,"Ġdobbhoff":2592,"ĠPersistent":2593,"Ġstreaky":2594,"Ġtreatment":2595,"Ġribs":2596,"esophageal":2597,"ti":2598,"Ġcaus":2599,"Ġthroughout":2600,"Ġes":2601,"Ġcorrelation":2602,"Recommend":2603,"raw":2604,"distinct":2605,"Ġhemat":2606,"asal":2607,"seg":2608,"Ġborderline":2609,"ribed":2610,"Ġhazy":2611,"Ġminor":2612,"Ġmu":2613,"Ġradio":2614,"Persistent":2615,"Ġpoor":2616,"ste":2617,"Ġbronchi":2618,"rely":2619,"segmental":2620,"rosclerotic":2621,"defined":2622,"rob":2623,"Ġmvc":2624,"Ġhad":2625,"Ġhelpful":2626,"ortic":2627,"ancy":2628,"Ġfinding":2629,"Ġfo":2630,"Ġago":2631,"Ġreposition":2632,"Ġseizure":2633,"Ġdating":2634,"hronic":2635,"Ġpron":2636,"aracter":2637,"ternal":2638,"xy":2639,"ounced":2640,"ounds":2641,"Ġemb":2642,"Ġclavic":2643,"Ġdict":2644,"Ġpronounced":2645,"ONT":2646,"nee":2647,"ince":2648,"roid":2649,"draw":2650,"Ġwidened":2651,"agg":2652,"ĠETT":2653,"Ġprojection":2654,"Ġesrd":2655,"Ġ***":2656,"Ġluc":2657,"Ġsmaller":2658,"ysis":2659,"Ġhyperexp":2660,"king":2661,"ber":2662,"Ġred":2663,"Ġcharacter":2664,"way":2665,"utum":2666,"Ġcorresp":2667,"Ġextubated":2668,"Pneumonia":2669,"Ġpositioned":2670,"Ġrotation":2671,"Ġangles":2672,"Ġdesat":2673,"xygen":2674,"Ġinflated":2675,"Ġexpl":2676,"racheostomy":2677,"Ġ___%":2678,"Ġdense":2679,"Ġmitral":2680,"Ġknee":2681,"ĠFRONT":2682,"ĠFRONTAL":2683,"ons":2684,"Ġsputum":2685,"Ġoxygen":2686,"oid":2687,"Ġwithdraw":2688,"Ġheterogeneous":2689,"Ġbiops":2690,"If":2691,"TX":2692,"Ġpositions":2693,"ziness":2694,"Ġsounds":2695,"Ġconfusion":2696,"tic":2697,"veolar":2698,"Ġcollect":2699,"Ġexagg":2700,"Ġser":2701,"yroid":2702,"Ġgastro":2703,"ĠCardiomegaly":2704,"pulm":2705,"Ġimproving":2706,"ectasis":2707,"telect":2708,"Ġdiagnosis":2709,"Ġdisc":2710,"reviously":2711,"Ġdecompens":2712,"ĠEval":2713,"Ġplacements":2714,"Assess":2715,"cedure":2716,"Ġpredominant":2717,"atig":2718,"nteric":2719,"Ġblo":2720,"remia":2721,"ms":2722,"ester":2723,"Ġdedicated":2724,"Patchy":2725,"erect":2726,"rani":2727,"ausea":2728,"esterday":2729,"Ġtype":2730,"Ġfields":2731,"Ġsmo":2732,"ices":2733,"Ġpreced":2734,"Ġenti":2735,"Ġsat":2736,"Ġopacifications":2737,"atigue":2738,"It":2739,"neumonia":2740,"Ġmalignancy":2741,"incing":2742,"Ġinspiratory":2743,"Ġchills":2744,"iguration":2745,"Overall":2746,"Ġconvincing":2747,"OB":2748,"Ġyesterday":2749,"Ġairway":2750,"att":2751,"Ġdictation":2752,"Ġpreceding":2753,"Ġpalp":2754,"Ġrounded":2755,"Ġalveolar":2756,"Ġins":2757,"Ġrefer":2758,"Ġrotated":2759,"hed":2760,"Ġcervical":2761,"Ġsit":2762,"ged":2763,"Ġgo":2764,"ever":2765,"Ġill":2766,"Ġfusion":2767,"Ġconfiguration":2768,"Ġinfrahilar":2769,"ĠPTX":2770,"On":2771,"Ġhilum":2772,"Ġunf":2773,"Ġetoh":2774,"Ġnausea":2775,"Ġadditional":2776,"Ġsubsegmental":2777,"Ġsuspic":2778,"Ġlap":2779,"Ġdialysis":2780,"Ġhematoma":2781,"Ġdescribed":2782,"Ġdilated":2783,"Ġcause":2784,"Ġbiopsy":2785,"ĠAl":2786,"xtensive":2787,"Ġart":2788,"optysis":2789,"Ġseptic":2790,"Ġimm":2791,"Ġfibrosis":2792,"portable":2793,"Al":2794,"Ġcoronary":2795,"late":2796,"Ġfatigue":2797,"Ġcollection":2798,"ran":2799,"Ng":2800,"Ġcv":2801,"Ġ15":2802,"Ġdm":2803,"oint":2804,"ĠPER":2805,"Patient":2806,"ĠHowever":2807,"Ġprogressed":2808,"Ġepis":2809,"Ġsuspected":2810,"Nasogastric":2811,"Ġbronchiectasis":2812,"INGLE":2813,"Ġprost":2814,"Ġblood":2815,"Ġmr":2816,"ibasal":2817,"ĠSINGLE":2818,"ĠPleural":2819,"Ġgeneral":2820,"edian":2821,"Ġclearly":2822,"Ġyo":2823,"Ġdiss":2824,"ganz":2825,"Ġtransfer":2826,"Ġindistinct":2827,"Ġwidespread":2828,"urys":2829,"ration":2830,"ĠCough":2831,"Ġsuggested":2832,"Ġnext":2833,"Ġjoint":2834,"Ġreported":2835,"expanded":2836,"Ġoste":2837,"mia":2838,"egen":2839,"Ġrece":2840,"Ġact":2841,"Inf":2842,"Ġlum":2843,"Ġunc":2844,"Ġcr":2845,"Ġheal":2846,"yper":2847,"ues":2848,"ĠSevere":2849,"Retrocardiac":2850,"stem":2851,"Ġflatt":2852,"ĠRadiograph":2853,"ctomy":2854,"ĠSh":2855,"ĠDobbhoff":2856,"Ġscoliosis":2857,"Ġeff":2858,"Ġhemoptysis":2859,"Ġsar":2860,"egenerative":2861,"Ġavr":2862,"Ġsuch":2863,"ĠPERFORM":2864,"Ġdiures":2865,"pical":2866,"amber":2867,"Ġtaken":2868,"Ġcolon":2869,"ipple":2870,"Ġphys":2871,"ĠSOB":2872,"neumothorax":2873,"coid":2874,"Ġdifferent":2875,"cephalic":2876,"Ġepisod":2877,"Ġbronchial":2878,"Ġprocedure":2879,"Ġbr":2880,"ĠST":2881,"Ġhemothorax":2882,"Ġpancreatitis":2883,"ĠINFORM":2884,"ĠINFORMATION":2885,"Ġlonger":2886,"Ġcle":2887,"ĠPERFORMED":2888,"rast":2889,"Ġmarkedly":2890,"wan":2891,"Ġperipheral":2892,"igastric":2893,"tub":2894,"ission":2895,"lunting":2896,"ĠOverall":2897,"ĠCon":2898,"Ġcomplications":2899,"Ġlesions":2900,"Known":2901,"ameter":2902,"Severe":2903,"robable":2904,"telectasis":2905,"Ġunclear":2906,"llow":2907,"operitone":2908,"Ġmarg":2909,"Ġspace":2910,"ĠIf":2911,"bri":2912,"chio":2913,"Cardiomegaly":2914,"Ġinc":2915,"Ġel":2916,"Ġdiameter":2917,"Ġgas":2918,"ote":2919,"Ġlucency":2920,"Ġadenopathy":2921,"chiocephalic":2922,"10":2923,"Ġthyroid":2924,"Ġextubation":2925,"Ġtem":2926,"ases":2927,"ĠPatchy":2928,"Ġcleared":2929,"termin":2930,"ĠSlight":2931,"Ġben":2932,"llowing":2933,"ibronchial":2934,"Linear":2935,"Ġwork":2936,"Ġpartial":2937,"Sup":2938,"lasty":2939,"Ġapices":2940,"Ġbrachiocephalic":2941,"iapical":2942,"cyst":2943,"Ġaneurys":2944,"Ġdiaphragms":2945,"Ġbronchus":2946,"entional":2947,"paque":2948,"Ġdirect":2949,"Ġpaged":2950,"urgent":2951,"Ġchole":2952,"Ġradiation":2953,"ted":2954,"Ġbru":2955,"len":2956,"Ġalign":2957,"Ġwater":2958,"Ġcommunicated":2959,"At":2960,"rillation":2961,"Ġpneumo":2962,"ĠU":2963,"adow":2964,"Lower":2965,"Ġfibrillation":2966,"Ġpat":2967,"Ġbruising":2968,"ypical":2969,"ddition":2970,"Ġdec":2971,"ead":2972,"Slight":2973,"mittent":2974,"Ġsarcoid":2975,"Ġaccentuated":2976,"lav":2977,"Ġshadow":2978,"Ġfore":2979,"oon":2980,"spine":2981,"arditis":2982,"Ġhypoxemia":2983,"Ġmyel":2984,"Ġicd":2985,"rence":2986,"Ġmuch":2987,"Ġneut":2988,"Ġentirely":2989,"Ġdoes":2990,"ived":2991,"venous":2992,"Imaged":2993,"Ġwar":2994,"ide":2995,"Ġfat":2996,"Ġtissues":2997,"Ġregions":2998,"Ġattention":2999,"Endotracheal":3000,"Ġdistended":3001,"Ġepigastric":3002,"Ġsegm":3003,"45":3004,"ropen":3005,"ĠOn":3006,"12":3007,"ĠImaged":3008,"ĠNasogastric":3009,"erc":3010,"ised":3011,"Ġadm":3012,"ecific":3013,"Large":3014,"As":3015,"idne":3016,"Ġreceived":3017,"Ġprogressive":3018,"Ġsite":3019,"Ġrll":3020,"Ġextremity":3021,"Ġplate":3022,"operitoneum":3023,"Ġbeing":3024,"15":3025,"EN":3026,"ĠUpright":3027,"teremia":3028,"Ġpresumed":3029,"Ġobstruction":3030,"Ġmargin":3031,"che":3032,"ards":3033,"Ġdissection":3034,"Ġoverli":3035,"Ġhyperinflation":3036,"Ġclavicle":3037,"Ġdiuresis":3038,"Ġcontrast":3039,"Ġpos":3040,"ocar":3041,"Ġlll":3042,"Ġspinal":3043,"lavicular":3044,"Ġpresented":3045,"idney":3046,"Surgical":3047,"Ġpr":3048,"itations":3049,"Ġlingula":3050,"Ġatypical":3051,"Ġrelate":3052,"XR":3053,"Ġforeign":3054,"ague":3055,"itation":3056,"Ġlaterally":3057,"Ġwithdrawn":3058,"20":3059,"uff":3060,"ĠLarge":3061,"yopathy":3062,"Ġintermittent":3063,"Ġcoiled":3064,"Ġcardiomyopathy":3065,"Ġiv":3066,"Ġdeformities":3067,"chf":3068,"adin":3069,"ĠNGT":3070,"Ġobli":3071,"Ġgastroesophageal":3072,"cum":3073,"madin":3074,"Ġdistention":3075,"xam":3076,"emonstrated":3077,"50":3078,"Ġbacteremia":3079,"Ġmor":3080,"Ġterminate":3081,"Ġreferring":3082,"Ġevent":3083,"END":3084,"Ġpredominantly":3085,"Ġhumeral":3086,"ecifically":3087,"Ġards":3088,"ef":3089,"Ġpod":3090,"ute":3091,"Ġexplain":3092,"rank":3093,"Ġimp":3094,"ument":3095,"Ġmyeloma":3096,"Ġdown":3097,"Continued":3098,"ĠAT":3099,"Ġperibronchial":3100,"aint":3101,"ull":3102,"Ġabscess":3103,"ilevel":3104,"ord":3105,"Ġrh":3106,"determin":3107,"Ġhemidiaphragms":3108,"Ġabsence":3109,"Ġtension":3110,"Ġneutropen":3111,"Diffuse":3112,"alloon":3113,"ĠSince":3114,"Ġfrank":3115,"Ġremaining":3116,"Ġbo":3117,"zyg":3118,"olded":3119,"Ġconsider":3120,"Ġballoon":3121,"vent":3122,"Ġhiv":3123,"40":3124,"Ġstri":3125,"Ġbene":3126,"ĠOpac":3127,"Ġchem":3128,"ena":3129,"These":3130,"Ġcorrespond":3131,"bo":3132,"ĠQuestion":3133,"Prior":3134,"Ġkidney":3135,"Ġtracheal":3136,"Borderline":3137,"Ct":3138,"Ġadmission":3139,"Ġfocus":3140,"atous":3141,"rays":3142,"iring":3143,"Ġactive":3144,"und":3145,"Ġcount":3146,"bc":3147,"Upper":3148,"Ġventilation":3149,"Ġoff":3150,"Lead":3151,"Ġorig":3152,"ĠTW":3153,"duction":3154,"ĠTWO":3155,"Ġmech":3156,"ĠShortness":3157,"Ġpull":3158,"ground":3159,"determinate":3160,"Ġcomplicated":3161,"term":3162,"cm":3163,"itoneal":3164,"ĠCXR":3165,"Ġathe":3166,"ocument":3167,"complete":3168,"Ġpalpitations":3169,"ĠCTA":3170,"Ġsegment":3171,"anding":3172,"ician":3173,"Ġhealed":3174,"ump":3175,"UD":3176,"Ġcava":3177,"Ġvena":3178,"Ġdocument":3179,"kin":3180,"ging":3181,"Ġposteriorly":3182,"Ġgranuloma":3183,"Ġbeneath":3184,"vidence":3185,"-___":3186,"proved":3187,"Ġlies":3188,"Ġtransferred":3189,"Ġdiffusely":3190,"ision":3191,"most":3192,"ollowup":3193,"lectomy":3194,"Ġopt":3195,"genic":3196,"ribut":3197,"ĠSwan":3198,"Ġwire":3199,"),":3200,"zziness":3201,"Ġpneumonitis":3202,"Ġinitial":3203,"ĠPossible":3204,"surgical":3205,"Ġflattening":3206,"ĠBorderline":3207,"Ġrespect":3208,"Ġhd":3209,"Ġexams":3210,"Ġhypoxic":3211,"Ġocc":3212,"yond":3213,"Ġir":3214,"Ġnotably":3215,"Ġbleeding":3216,"Ġbeyond":3217,"Ġcholecyst":3218,"Ġdesaturation":3219,"onic":3220,"Ġpositive":3221,"ĠSTUD":3222,"Ġdoe":3223,"iltrate":3224,"Ġmedic":3225,"Ġpneumoperitoneum":3226,"Ġpreop":3227,"Ġwet":3228,"Ġshe":3229,"Ġfac":3230,"Ġarm":3231,"Ġsynd":3232,"Ġ14":3233,"rome":3234,"ĠSTUDY":3235,"Ġdizziness":3236,"Ġ16":3237,"Ġ13":3238,"Ġmechan":3239,"iod":3240,"Ġindeterminate":3241,"Ġdemonstrating":3242,"Ġbronchoscopy":3243,"Ġwhite":3244,"Ġhilus":3245,"othe":3246,"ash":3247,"coh":3248,"Ġdistribution":3249,"Ġadd":3250,"Ġdrains":3251,"Ġck":3252,"going":3253,"11":3254,"sed":3255,"Ġaneurysm":3256,"stern":3257,"Ġcarcinoma":3258,"Ġgranulom":3259,"brile":3260,"Ġcoumadin":3261,"Ġphysician":3262,"Ġradiopaque":3263,"Ġlocal":3264,"Ġrequiring":3265,"Ġcur":3266,"Ġembol":3267,"Ġazyg":3268,"Ġdecompensation":3269,"Ġsee":3270,"Ġmonths":3271,"ĠCl":3272,"Ġpancreatic":3273,"Ġcompare":3274,"Ġdensities":3275,"Ġsyndrome":3276,"pite":3277,"Ġdespite":3278,"ĠPost":3279,"Ġogt":3280,"Ġshort":3281,"Ġunfolded":3282,"Ġaerated":3283,"ĠFever":3284,"Ġsten":3285,"Ġfilms":3286,"Ġbronchogra":3287,"Ġcoursing":3288,"Ġmeas":3289,"aise":3290,"Ġabout":3291,"itus":3292,"ĠRetrocardiac":3293,"ah":3294,"Ġtemp":3295,"Ġsuspicious":3296,"Ġma":3297,"Ġwbc":3298,"Ġthree":3299,"Ġant":3300,"iation":3301,"Tra":3302,"Ġappropriately":3303,"Ġresolving":3304,"Ġgrade":3305,"vement":3306,"ource":3307,"Ġobscuration":3308,"ises":3309,"ender":3310,"Ġmechanical":3311,"Ġaxillary":3312,"Ġaden":3313,"Ġhr":3314,"position":3315,"Ġdepend":3316,"Possible":3317,"Ġopen":3318,"ocarcinoma":3319,"Leads":3320,"onchi":3321,"clusion":3322,"Ġincluded":3323,"Ġloops":3324,"RD":3325,"Ġcrani":3326,"Ġreticular":3327,"Ġadvised":3328,"lung":3329,"Ġesp":3330,"inflated":3331,"Ġorogastric":3332,"Ġretract":3333,"otherapy":3334,"equ":3335,"Ġraises":3336,"Ġurgent":3337,"ĠSurgical":3338,"Ġbyp":3339,"05":3340,"Ġoptimal":3341,"abet":3342,"Ġascending":3343,"yst":3344,"pyema":3345,"rominence":3346,"ecially":3347,"ĠLinear":3348,"Ġseizures":3349,"Ġnipple":3350,"Ġdys":3351,"Ġge":3352,"Ġbypass":3353,"Ganz":3354,"Ġfund":3355,"diaphragmatic":3356,"ĠThese":3357,"Ġweight":3358,"rectomy":3359,"Ġtherapy":3360,"Ġckd":3361,"Ġstenosis":3362,"Ġpattern":3363,"Ġperfor":3364,"Ġsource":3365,"pneumonia":3366,"ache":3367,"ĠTra":3368,"Osseous":3369,"Ġmalaise":3370,"Ġespecially":3371,"Ġile":3372,"Post":3373,"Ġstage":3374,"aps":3375,"arp":3376,"emin":3377,"quest":3378,"Ġatherosclerotic":3379,"endum":3380,"Ġconsp":3381,"ocarditis":3382,"Ġalcoh":3383,"cretion":3384,"25":3385,"Ġgraft":3386,"Ġfour":3387,"ism":3388,"Ġrelative":3389,"reg":3390,"cement":3391,"Ġlumbar":3392,"Ġtri":3393,"Ġtender":3394,"Ġrightward":3395,"Ġpump":3396,"specific":3397,"Ġzones":3398,"Ġsens":3399,"Ġproper":3400,"ĠTracheostomy":3401,"55":3402,"Ġimmun":3403,"Ġthoracotomy":3404,"OM":3405,"Ġconspicu":3406,"Ġpla":3407,"Ġexaggerated":3408,"dom":3409,"Ġconventional":3410,"Ġrespective":3411,"Ġbronchograms":3412,"nlarg":3413,"Ġbone":3414,"Focal":3415,"Ġchemo":3416,"Ġhc":3417,"Ġgood":3418,"lead":3419,"Ġosh":3420,"Ġcontusion":3421,"Ġrequest":3422,"Ġrepositioned":3423,"Ġinlet":3424,"amm":3425,"Ġhepatic":3426,"Ġfull":3427,"Calc":3428,"Ġhip":3429,"ĠDiffuse":3430,"ultifocal":3431,"Ġaddendum":3432,"Ġsecretion":3433,"inflation":3434,"osure":3435,"Ġempyema":3436,"Ġbackground":3437,"VR":3438,"Ġdou":3439,"Ġclearing":3440,"UM":3441,"Ġtre":3442,"Atelectasis":3443,"regular":3444,"Ġepisode":3445,"Ġcuff":3446,"here":3447,"ĠOsseous":3448,"35":3449,"pd":3450,"Ġending":3451,"olumbar":3452,"RA":3453,"Ġtips":3454,"Ġsitu":3455,"sew":3456,"ĠRecommend":3457,"sternal":3458,"ca":3459,"yl":3460,"Ġaccentuate":3461,"amp":3462,"Ġconcurrent":3463,"Wid":3464,"Ġarteries":3465,"Ġsul":3466,"atracheal":3467,"Ġ05":3468,"Ġorigin":3469,"Ġef":3470,"Ġchemotherapy":3471,"Acute":3472,"Ġveins":3473,"Chronic":3474,"Ġmvr":3475,"Ġmedical":3476,"Ġdiabet":3477,"Ġmetastases":3478,"Ġhemo":3479,"Ġdefinitive":3480,"ales":3481,"Ġrecur":3482,"fact":3483,"Ġindistinctness":3484,"agectomy":3485,"Ġpacing":3486,"Ġsharp":3487,"Ġclavicular":3488,"Ġsecretions":3489,"Ġ___/":3490,"Ġvar":3491,"Ġendocarditis":3492,"ĠSup":3493,"du":3494,"mic":3495,"ĠContinued":3496,"Ġseries":3497,"fluid":3498,"Ġparatracheal":3499,"ĠĠĠĊ":3500,"isfact":3501,"Ġ17":3502,"peritoneal":3503,"Ġcal":3504,"iodar":3505,"Ġmi":3506,"Ġleftward":3507,"Ġreplaced":3508,"Ġdet":3509,"Ġcardiogenic":3510,"IL":3511,"attered":3512,"08":3513,"Ġtenderness":3514,"irst":3515,"iodarone":3516,"Two":3517,"Streaky":3518,"Worsening":3519,"Ġhome":3520,"dialysis":3521,"Ġlocated":3522,"Ġfebrile":3523,"Ġalmost":3524,"Ġoblique":3525,"Ġquestionable":3526,"Ġische":3527,"Ġhyperexpansion":3528,"Ġpol":3529,"ĠChronic":3530,"ENT":3531,"Ġpriors":3532,"Ġesophagectomy":3533,"ient":3534,"verse":3535,"Ġleg":3536,"17":3537,"Ġdiaphragmatic":3538,"Ġoverlies":3539,"isfactory":3540,"18":3541,"ired":3542,"ry":3543,"dominal":3544,"Ġbaseline":3545,"Ġsubdiaphragmatic":3546,"Enteric":3547,"oplasty":3548,"Ġhyperexpanded":3549,"haps":3550,"ĠHilar":3551,"Ġcorrelate":3552,"den":3553,"Ġrul":3554,"allow":3555,"ercul":3556,"Ġcardiopulm":3557,"USION":3558,"Ġbodies":3559,"eeding":3560,"Ġconspicuous":3561,"54":3562,"Ġmasses":3563,"ervation":3564,"Ġconve":3565,"terstitial":3566,"dh":3567,"LL":3568,"Extensive":3569,"Ġbrain":3570,"37":3571,"no":3572,"sewhere":3573,"Ġaccess":3574,"CL":3575,"Ġobscuring":3576,"Ġfirst":3577,"Ġaml":3578,"unt":3579,"ack":3580,"Ġantib":3581,"ĠX":3582,"Ġwhere":3583,"Ġnotification":3584,"expansion":3585,"Ġexaminations":3586,"Ġamiodarone":3587,"lamm":3588,"known":3589,"ites":3590,"eared":3591,"Ġincomplete":3592,"Ġnur":3593,"Ġleak":3594,"Ġazygos":3595,"26":3596,"Ġconsolid":3597,"io":3598,"Ġmassive":3599,"therosclerotic":3600,"Ġwhether":3601,"46":3602,"ĠCON":3603,"Ġthoracolumbar":3604,"47":3605,"ifact":3606,"ĠUpper":3607,"Ġelong":3608,"Ġdependent":3609,"Ġhydrop":3610,"rim":3611,"Ġobservation":3612,"Ġpresumably":3613,"Ġcoil":3614,"Ġaxilla":3615,"Ġexternal":3616,"emic":3617,"14":3618,"Ġrhonchi":3619,"Ġfundus":3620,"Ġlingular":3621,"38":3622,"Ġtight":3623,"Ġtoward":3624,"57":3625,"Ġ20":3626,"ability":3627,"Compared":3628,"Previously":3629,"Res":3630,"Ġtubercul":3631,"imited":3632,"Ġneur":3633,"bt":3634,"nel":3635,"Ġapproach":3636,"56":3637,"Ġinfar":3638,"Ġcharacterized":3639,"Ġtreated":3640,"pecifically":3641,"Ġmot":3642,"Ġprosthe":3643,"lower":3644,"Ġvague":3645,"Ġppm":3646,"Ġsinuses":3647,"Given":3648,"Subtle":3649,"23":3650,"ind":3651,"06":3652,"29":3653,"53":3654,"ĠHyper":3655,"severe":3656,"lyc":3657,"ques":3658,"car":3659,"iotic":3660,"07":3661,"ĠIt":3662,"Ġbibasal":3663,"Ġperhaps":3664,"02":3665,"ĠStreaky":3666,"22":3667,"Ġsah":3668,"Ġtightness":3669,"Ġfem":3670,"Ġmorning":3671,"04":3672,"umor":3673,"Ġantibiotic":3674,"Ġintraperitoneal":3675,"Ġsign":3676,"Ġbest":3677,"19":3678,"59":3679,"Evaluation":3680,"Ġbreathing":3681,"Ġmidlung":3682,"28":3683,"yph":3684,"Ġ08":3685,"ĠPreviously":3686,"Ġhemodialysis":3687,"Ġuse":3688,"ird":3689,"levation":3690,"Degenerative":3691,"Ġresults":3692,"Ġbones":3693,"Ġartifact":3694,"ĠĠĠ":3695,"Ġunknown":3696,"Ġhydropneumothorax":3697,"16":3698,"lat":3699,"ĠAt":3700,"Mediastinum":3701,"Ġsut":3702,"Cons":3703,"48":3704,"accum":3705,"Ġappreciably":3706,"eterogeneous":3707,"Ġtransverse":3708,"24":3709,"44":3710,"olution":3711,"pleural":3712,"Ġplug":3713,"romb":3714,"odesis":3715,"CT":3716,"Ġbiapical":3717,"iff":3718,"49":3719,"UL":3720,"ĠEnteric":3721,"ternotomy":3722,"Ġheadache":3723,"orre":3724,"09":3725,"Ġdifferential":3726,"Ġnum":3727,"27":3728,"ili":3729,"Ġlul":3730,"Ġsmoking":3731,"39":3732,"Ġparts":3733,"Ġpn":3734,"Ġneph":3735,"GH":3736,"sider":3737,"Ġcent":3738,"annel":3739,"42":3740,"ementia":3741,"Ġsuggestion":3742,"ĠWorsening":3743,"Ġappeared":3744,"Ġnode":3745,"Tip":3746,"Ġincompletely":3747,"Ġtumor":3748,"Ġabuse":3749,"Ġseverely":3750,"ĠRes":3751,"sophageal":3752,"itary":3753,"Ġcatheters":3754,"Ġobvious":3755,"Ġadvancement":3756,"Ġgi":3757,"ĠOG":3758,"ricular":3759,"ĠĠĠĠĠĊ":3760,"Ġcrit":3761,"ĠSubtle":3762,"13":3763,"Opacity":3764,"Ġsulcus":3765,"Ġdiabetes":3766,"ithin":3767,"rotic":3768,"lass":3769,"lycemia":3770,"41":3771,"ize":3772,"Recommendation":3773,"Ġobscures":3774,"Ġ18":3775,"Ġsdh":3776,"Ġongoing":3777,"Tracheostomy":3778,"Ġmedially":3779,"Opacification":3780,"Ġyears":3781,"Blunting":3782,"ailed":3783,"Ġgeneralized":3784,"31":3785,"Ġchin":3786,"36":3787,"lex":3788,"Ġsarcoidosis":3789,"21":3790,"32":3791,"phrenic":3792,"Ġlobar":3793,"Ġaside":3794,"Ġ09":3795,"Support":3796,"Ġpleurodesis":3797,"03":3798,"Ġdisorder":3799,"Median":3800,"Ġground":3801,"ily":3802,"ĠHyp":3803,"Ġdeviation":3804,"52":3805,"Ġul":3806,"Ġbiv":3807,"Ġincludes":3808,"Ġro":3809,"roph":3810,"Ġeven":3811,"Allowing":3812,"Ġthromb":3813,"Ġlargely":3814,"rominent":3815,"Ġsystem":3816,"Lat":3817,"iratory":3818,"Ġreflective":3819,"ecent":3820,"Ġascites":3821,"xation":3822,"Ġcollapsed":3823,"Ġinflamm":3824,"pid":3825,"Ġce":3826,"vt":3827,"azy":3828,"Ġbronchitis":3829,"chamber":3830,"Ġfew":3831,"Ġcspine":3832,"Addition":3833,"udden":3834,"ĠGE":3835,"Ġthird":3836,"43":3837,"Ġpmhx":3838,"Ġcvl":3839,"Ġconj":3840,"Ġhf":3841,"oden":3842,"Ġsatisfactory":3843,"34":3844,"Conclusion":3845,"Exam":3846,"Ch":3847,"Although":3848,"Ġredemonstrated":3849,"tx":3850,"welling":3851,"Ġresulting":3852,"01":3853,"Ġprim":3854,"ĠPrevious":3855,"Consolidation":3856,"Ġulcer":3857,"jor":3858,"Ġanemia":3859,"kelet":3860,"Ġnodes":3861,"EM":3862,"sure":3863,"Ġglen":3864,"Ġimplant":3865,"Ġdementia":3866,"ibrill":3867,"ibrillator":3868,"arked":3869,"Ġcritical":3870,"avr":3871,"Ġshunt":3872,"idental":3873,"Ġconjunction":3874,"Ġcoar":3875,"Ġnearly":3876,"Ġensure":3877,"ĠREC":3878,"fort":3879,"keletal":3880,"emineral":3881,"Ġsheath":3882,"RAY":3883,"Ġmajor":3884,"PE":3885,"Per":3886,"ished":3887,"ĠRadiographs":3888,"Ġrespectively":3889,"ank":3890,"Ġnight":3891,"Ġdemineral":3892,"Ġnoting":3893,"Ġaccount":3894,"Ġcolectomy":3895,"Ġirregular":3896,"Ġpet":3897,"ĠCalc":3898,"raum":3899,"Ġpostop":3900,"Ġcommunication":3901,"Ġsmoker":3902,"Ġcorresponds":3903,"Probable":3904,"Ġcardiophrenic":3905,"Ġfxs":3906,"olang":3907,"lt":3908,"osup":3909,"effusion":3910,"otal":3911,"Ġperforation":3912,"allic":3913,"Ġcurv":3914,"Ġremainder":3915,"Ġhypoxemic":3916,"Ġsbo":3917,"De":3918,"Ġpoorly":3919,"ributed":3920,"Ġtheir":3921,"Ġ04":3922,"Ġplaques":3923,"Ġchamber":3924,"sy":3925,"Ġdifficulty":3926,"Ġgener":3927,"Ġadenocarcinoma":3928,"iber":3929,"Some":3930,"Ġobstructive":3931,"Ġdetail":3932,"Ġdu":3933,"Ġduring":3934,"Ġeffort":3935,".:":3936,"Ġrest":3937,"Ġage":3938,"ĠVAT":3939,"Evidence":3940,"lob":3941,"51":3942,"Frontal":3943,"Ġcholecystectomy":3944,"Ġseal":3945,"Ġheight":3946,"Ġkyph":3947,"Ġpleurx":3948,"ĠExtensive":3949,"nsvenous":3950,"33":3951,"intub":3952,"Ġmeasuring":3953,"Ġclose":3954,"Ġppd":3955,"ĠDe":3956,"Ġhld":3957,"Ġsudden":3958,"ping":3959,"Status":3960,"Ġgenerator":3961,"CHEST":3962,"Ġrapid":3963,"Ġstructure":3964,"Ġrequested":3965,"idline":3966,"ĠProbable":3967,"ĠVATS":3968,"58":3969,"Ġarth":3970,"ying":3971,"ĠIC":3972,"ĠAp":3973,"hen":3974,"urred":3975,"hea":3976,"ĠMediastinum":3977,"Ġrepositioning":3978,"Ġdilat":3979,"arr":3980,"ĠPE":3981,"):":3982,"aryn":3983,"Ġneutropenia":3984,"umeral":3985,"ĠMedian":3986,"Ġthen":3987,"echn":3988,"Ġimmunosup":3989,"positioned":3990,"Ġencephal":3991,"Ġmainstem":3992,"Ġextreme":3993,"Ġdilatation":3994,"Ġnotable":3995,"Ġnonspecific":3996,"Ġtraumatic":3997,"Ġcephal":3998,"arrow":3999,"Ġheav":4000,"ĠKnown":4001,"aped":4002,"Ġtowards":4003,").":4004,"aortic":4005,"Ġloop":4006,"Ġstents":4007,"Ġdefibrillator":4008,"ohumeral":4009,"izing":4010,"Ġraising":4011,"onding":4012,",.":4013,"uction":4014,"Ġaligned":4015,"Ġ+":4016,"Ġcaliber":4017,"RI":4018,"Ġlike":4019,"elan":4020,"Ġcholang":4021,"Ġdecort":4022,"Ġsilhouetting":4023,"Ġadequ":4024,"Ġrales":4025,"rog":4026,"Ġprostate":4027,"ject":4028,"ential":4029,"emain":4030,"Ġcausing":4031,"Ġsuprac":4032,"OMM":4033,"ĠDegenerative":4034,"Ġpad":4035,"elanoma":4036,"Ġmultilevel":4037,"Ġband":4038,"parent":4039,"Ġtracheob":4040,"Ġtuberculosis":4041,"ĠRECOMM":4042,"Ġ;":4043,"Ġswe":4044,"ĠRECOMMEND":4045,"artially":4046,"xth":4047,"Vascular":4048,"Effusion":4049,"dular":4050,"Ġhumer":4051,"abp":4052,"accumulation":4053,"ok":4054,"Ġinsertion":4055,"omfort":4056,"Ġcaused":4057,"glass":4058,"Ġlight":4059,"Ġalignment":4060,"Ġform":4061,"ĠWid":4062,"ulitis":4063,"ensity":4064,"Ġur":4065,"Ġcva":4066,"nder":4067,"fth":4068,"Ġcath":4069,"ura":4070,"Ġwind":4071,"Ġdiscomfort":4072,"CLUSION":4073,"ritis":4074,"Ġwarrant":4075,"Ġduoden":4076,"ĠCONCLUSION":4077,"ĠBlunting":4078,"ĠRECOMMENDATION":4079,"sa":4080,"Ġfixation":4081,"uation":4082,"Ġinfusion":4083,"Ġrecurrence":4084,"isp":4085,"Ġsixth":4086,"Ġri":4087,"Ġdimin":4088,"open":4089,"fib":4090,"Ġtechn":4091,"pe":4092,"Ġmalignant":4093,"Ġwindow":4094,"ordotic":4095,"head":4096,"stantial":4097,"Ġwhile":4098,"oft":4099,"Note":4100,"stemi":4101,"Ġmelanoma":4102,"Ġhumerus":4103,"Ġfullness":4104,"Ġdecompensated":4105,"aerated":4106,"Ġag":4107,"Ġcongested":4108,"Ġshowed":4109,"Ġworkup":4110,"Ġsupraclavicular":4111,"empt":4112,"thor":4113,"Ġintrac":4114,"Ġacrom":4115,"ĠCP":4116,"Ġaicd":4117,"Ġexagger":4118,"Ġfifth":4119,"Ġradiology":4120,"arrhea":4121,"Ġapparently":4122,"olateral":4123,"Ġappearing":4124,"Ġnec":4125,"Ġcross":4126,"Ġglenohumeral":4127,"Ġradiographically":4128,"loc":4129,"olving":4130,"Ġconsideration":4131,"sized":4132,"ila":4133,"olume":4134,"Ġdoubt":4135,"ka":4136,"ĠFollowup":4137,"Ġhepatitis":4138,"Ġscar":4139,"Ġindicated":4140,"Ġrising":4141,"seal":4142,"Ġscattered":4143,"Ġsweats":4144,"ses":4145,"ĠARD":4146,"uq":4147,"usc":4148,"rothorax":4149,"grade":4150,"Ġfrx":4151,"More":4152,"Ġmater":4153,"ĠARDS":4154,"Ġtract":4155,"Ġiabp":4156,"Ġnstemi":4157,"asp":4158,"Ġiph":4159,"GHT":4160,"Ptx":4161,"Ġarterial":4162,"Ġencephalopathy":4163,"ĠAllowing":4164,"Ġmaterial":4165,"zed":4166,"astolic":4167,"ĠImproved":4168,"acemaker":4169,"Ġcorresponding":4170,"ĠTwo":4171,"onsolidation":4172,"enet":4173,"Ġspont":4174,"Ġscap":4175,"Ġosteoph":4176,"Hyper":4177,"Ġsymmetric":4178,"Ġsubsequently":4179,"Previous":4180,"Ġdiminished":4181,"Ġind":4182,"Now":4183,"ĠRule":4184,"Ġelongation":4185,"IT":4186,"Ġdx":4187,"Ġattempt":4188,"Ġsutures":4189,"YPE":4190,"chest":4191,"Ġplethor":4192,"Old":4193,"ĠGiven":4194,"less":4195,"isualized":4196,"Ġns":4197,"ĠTYPE":4198,"ymmetry":4199,"Ġdext":4200,"idual":4201,"Ġdvt":4202,"eal":4203,"abdominal":4204,"ocentesis":4205,"Ġfaint":4206,"Ġplethora":4207,"Re":4208,"Ġcyst":4209,"Other":4210,"ĠDobhoff":4211,"Ġmuc":4212,"olding":4213,"Ġinterim":4214,"Ġdiagnosed":4215,"DD":4216,"Ġperiphery":4217,"Ġclamp":4218,"Ġischemic":4219,"Aortic":4220,"Since":4221,"Ġdecortication":4222,"entricular":4223,"Ġ___'":4224,"Ġtox":4225,"Ġplatelike":4226,"Ġindicative":4227,"Soft":4228,"Ġoc":4229,"Ġdiarrhea":4230,"Ġrvr":4231,"ml":4232,"standing":4233,"oclavicular":4234,"Ġremote":4235,"ds":4236,"Ġacqu":4237,"Ġskin":4238,"Ġvisual":4239,"Aspiration":4240,"___.":4241,"Ġwaterseal":4242,"ematous":4243,"orth":4244,"Ġdchf":4245,"vening":4246,"Ġlimitations":4247,"ake":4248,"Ġradiod":4249,"venth":4250,"Ġdiastolic":4251,"Ġaround":4252,"Sc":4253,"nderlying":4254,"Ġdistension":4255,"Ġfibrotic":4256,"Ġlv":4257,"Ġhydro":4258,"ranial":4259,"dm":4260,"tube":4261,"Ġadequate":4262,"Ġindicate":4263,"Ġflu":4264,"Ġ#___":4265,"Tub":4266,"Ġthoracocentesis":4267,"roscoliosis":4268,"distended":4269,"ĠTB":4270,"ĠAddition":4271,"Ġconvex":4272,"scarring":4273,"Prominence":4274,"ather":4275,"Ġinclude":4276,"erent":4277,"Ġseventh":4278,"Also":4279,"Ġxray":4280,"Ġpc":4281,"Ġpoint":4282,"Ġimmedi":4283,"ĠClinical":4284,"erence":4285,"channel":4286,"Ġtoxic":4287,"Ġlordotic":4288,"Ġevac":4289,"Ġscanning":4290,"certain":4291,"headed":4292,"Ġacromi":4293,"Ġhole":4294,"pear":4295,"Ġms":4296,"Ġhydrothorax":4297,"Ġosteophy":4298,"Ġtavr":4299,"rol":4300,"Ġscre":4301,"ured":4302,"argy":4303,"Study":4304,"Ġretro":4305,"Ġ07":4306,"Ġclavicles":4307,"Ġicu":4308,"ify":4309,"iduc":4310,"Ġremarkable":4311,"erg":4312,"Ġplan":4313,"Ġdeep":4314,"acute":4315,"Ġenter":4316,"iducial":4317,"lsewhere":4318,"ĠCAD":4319,"Ġasymmetrical":4320,"Infection":4321,"Ġpneumonectomy":4322,"isplaced":4323,"pna":4324,"ĠAortic":4325,"Ġplain":4326,"urn":4327,"ĠADD":4328,"Ġcauses":4329,"Infiltrate":4330,"Enlarg":4331,"Ġ19":4332,"Ġsuspicion":4333,"Ġemboli":4334,"Ġlapar":4335,"assess":4336,"Ġcavitary":4337,"optimal":4338,"Ġoverlap":4339,"za":4340,"Ġprot":4341,"Ġcuffing":4342,"vd":4343,"ĠDyspnea":4344,"Hila":4345,"Ġcraniotomy":4346,"ĠPneumonia":4347,"lerosis":4348,"Ġov":4349,"Ġexposure":4350,"ENDUM":4351,"ĠADDENDUM":4352,"Ġcage":4353,"Ġlad":4354,"Ġpredominance":4355,"shaped":4356,"carb":4357,"Ġdry":4358,"Ġmetallic":4359,"Ġdisplacement":4360,"Ġpotential":4361,"luen":4362,"Ġwheeze":4363,"headedness":4364,"Ġich":4365,"ultilevel":4366,"Ġneo":4367,"ĠIS":4368,"Ġhcv":4369,"Ġhand":4370,"Ġflank":4371,"Ġrather":4372,"Ġwarranted":4373,"Ġstemi":4374,"Ġpreoperative":4375,"Ġleth":4376,"Ġintrapulmonary":4377,"rauma":4378,"luenza":4379,"Ġalcoholic":4380,"Ġairways":4381,"Rule":4382,"Ġdone":4383,"Ġsensitive":4384,"aining":4385,"Ġwhose":4386,"Ġembolism":4387,"man":4388,"Ġdiver":4389,"Ġintracranial":4390,"orta":4391,"etter":4392,"mm":4393,"Ġrequired":4394,"ix":4395,"resis":4396,"Ġeight":4397,"Ġmak":4398,"Interstitial":4399,"Ġdefined":4400,"emainder":4401,"Ġasymmetry":4402,"Ġfacial":4403,"Ġorth":4404,"reas":4405,"Ġeg":4406,"Ġwound":4407,"Ġcontin":4408,"ergent":4409,"ĠED":4410,"elatively":4411,"Ġsupervening":4412,"ĠIncreasing":4413,"Ġstably":4414,"ĠAlthough":4415,"Ġnurse":4416,"Ġspontaneous":4417,"ĠFIL":4418,"Ġlimiting":4419,"Ġvir":4420,"Ġbec":4421,"ĠPer":4422,"Ġcharacterization":4423,"ĠFILM":4424,"rium":4425,"Ġtracheobronch":4426,"Ġacromioclavicular":4427,"IV":4428,"erous":4429,"Ġunfolding":4430,"Ġgenerally":4431,"agia":4432,"Both":4433,"Ġhaziness":4434,"Ġquite":4435,"stage":4436,"iration":4437,"oxia":4438,"Ġuncertain":4439,"Ġepisodes":4440,"Thoracic":4441,"Ġut":4442,"Ġfist":4443,"Ġupon":4444,"Ġskeletal":4445,"Ġintro":4446,"Ġjoints":4447,"Ġacquired":4448,"ĠLimited":4449,"large":4450,"Ġdeterm":4451,"Ġdifference":4452,"Ġtbi":4453,"yncope":4454,"Ġpleura":4455,"adi":4456,"Ġsick":4457,"Ġcontinue":4458,"Dr":4459,"ologic":4460,"Ġmerely":4461,"Ġshallow":4462,"Ġspe":4463,"ĠAMS":4464,"Ġmets":4465,"Ġhypo":4466,"Ġinfarct":4467,"Ġcoarse":4468,"location":4469,"Ġtechnical":4470,"enter":4471,"Ġsuprahilar":4472,"Ġgranulomas":4473,"Ġneutropenic":4474,"Ġprimary":4475,"Ġtotal":4476,"Diff":4477,"Ġmca":4478,"Ġshadows":4479,"Ġgranulomatous":4480,"Ġlac":4481,"oned":4482,"charge":4483,"erimposed":4484,"Ġmv":4485,"Ġlethargy":4486,"hole":4487,"Ġabx":4488,"ĠTip":4489,"Ġtoxicity":4490,"ĠCV":4491,"Multifocal":4492,"Ġneg":4493,"Ġdeline":4494,"ks":4495,"artment":4496,"Clips":4497,"Ġfistula":4498,"ikely":4499,"Ġfunction":4500,"lf":4501,"Ġreact":4502,"Ġfollowed":4503,"Ġaccentuates":4504,"Ġdiscre":4505,"Ġantibiotics":4506,"Ġcolitis":4507,"Ġlightheadedness":4508,"Ġconfluence":4509,"Ġnarrow":4510,"renchymal":4511,"Ġmalpositioned":4512,"Ġconsolidative":4513,"Ġsuction":4514,"upt":4515,"icle":4516,"Ġlook":4517,"Ġfourth":4518,"oscopic":4519,"ĠOpacification":4520,"Comp":4521,"bital":4522,"Improved":4523,"Followup":4524,"uced":4525,"Ġfalls":4526,"iter":4527,"Ġretracted":4528,"phagia":4529,"ific":4530,"Ġmucous":4531,"mphys":4532,"Ġileostomy":4533,"Ġdextroscoliosis":4534,"put":4535,"Ġstart":4536,"Ġsuboptimal":4537,"roplasty":4538,"Ġmotor":4539,"orrelation":4540,"TN":4541,"hout":4542,"Ġdefinition":4543,"Ġdemineralized":4544,"EF":4545,"Ġbased":4546,"Ġpneumonic":4547,"rophic":4548,"cent":4549,"arin":4550,"ace":4551,"Ġsyst":4552,"Ġparam":4553,"Ġruq":4554,"Little":4555,"erted":4556,"Increasing":4557,"enteric":4558,"Specifically":4559,"other":4560,"Ġaccentuating":4561,"Central":4562,"Ġsystolic":4563,"inary":4564,"ignificant":4565,"ICD":4566,"epeat":4567,"Ġrespons":4568,"Ġperic":4569,"please":4570,"Ġretraction":4571,"Ġmarkers":4572,"ivocal":4573,"la":4574,"glycemia":4575,"Ġreduced":4576,"iliary":4577,"Ġblock":4578,"ĠExam":4579,"utter":4580,"Ġ21":4581,"Se":4582,"ias":4583,"rated":4584,"usual":4585,"Within":4586,"Ġbrad":4587,"ĠICD":4588,"Ġvalv":4589,"Ġmucus":4590,"Ġtransvenous":4591,"Ġbiventricular":4592,"Ġdiscrete":4593,"ĠAtelectasis":4594,"Better":4595,"Ġhab":4596,"ĠPO":4597,"erential":4598,"Ġextremely":4599,"clc":4600,"Ġcurvature":4601,"Ad":4602,"Ġhypercarb":4603,"Ġnecess":4604,"infiltrate":4605,"Ġhabitus":4606,"Feeding":4607,"Ġsplen":4608,"Ġpeg":4609,"Calcified":4610,"Ġinst":4611,"Ġwide":4612,"Ġinfluenza":4613,"Ġinferiorly":4614,"ium":4615,"ĠStudy":4616,"ytrauma":4617,"ĠOpacity":4618,"gone":4619,"Ġundergone":4620,"kg":4621,"Ġmcc":4622,"Ġplugging":4623,"Ġstem":4624,"Ġindicating":4625,"Ġvert":4626,"Ġeventration":4627,"Esophageal":4628,"heck":4629,"Ġwashout":4630,"Ġ--":4631,"Ġalcohol":4632,"Ġesophagogastric":4633,"ĠAltered":4634,"Ġmarker":4635,"Heterogeneous":4636,"Ġinserted":4637,"Ġdetermine":4638,"Ġveh":4639,"Ġdecreasing":4640,"Ġemphysematous":4641,"Ġoccult":4642,"ounded":4643,"Ġname":4644,"Ġfiducial":4645,"Ġdysphagia":4646,"Ġvehicle":4647,"Ġflex":4648,"Ġ___;":4649,"Ġprocesses":4650,"Ġfelt":4651,"ĠRe":4652,"Ġconte":4653,"rot":4654,"Ġreaccumulation":4655,"Ġbul":4656,"Ġstreak":4657,"ults":4658,"Ġec":4659,"Ġ(___":4660,"Atherosclerotic":4661,"Ġcontext":4662,"ĠHTN":4663,"ĠProminence":4664,"Ġevolving":4665,"Ġthou":4666,"Ġbasis":4667,"IA":4668,"best":4669,"Ġwill":4670,"aseous":4671,"Ġabn":4672,"Ġorbital":4673,"Hazy":4674,"Ġrosc":4675,"pre":4676,"Ġportions":4677,"Ġexception":4678,"ĠCentral":4679,"Ġinfiltrative":4680,"penet":4681,"pulmonic":4682,"Ġindwelling":4683,"Ġsl":4684,"ĠSc":4685,"seud":4686,"Ġsx":4687,"fil":4688,"Ġstab":4689,"ylor":4690,"urring":4691,"Ġcap":4692,"atosis":4693,"ĠSe":4694,"Ġthro":4695,"ĠMultifocal":4696,"Sternal":4697,"Ġfav":4698,"ĠFollow":4699,"igh":4700,"ĠES":4701,"Ġerect":4702,"Ġproduction":4703,"Consider":4704,"NG":4705,"Ġpylor":4706,"Ġoverinflation":4707,"ĠSome":4708,"Ġentered":4709,"openia":4710,"rong":4711,"Ġserial":4712,"Ġthought":4713,"rost":4714,"isted":4715,"Ġaccum":4716,"rt":4717,"Ġlvad":4718,"Ġuri":4719,"Prominent":4720,"Ġ03":4721,"function":4722,"Ġsharply":4723,"Subcutaneous":4724,"Ġconfirmed":4725,"ready":4726,"Ġradiography":4727,"Ġdivertic":4728,"Ġmostly":4729,"Ġprol":4730,"Calcification":4731,"Sh":4732,"lum":4733,"Ġelect":4734,"Ġhyperglycemia":4735,"Ġ06":4736,"Ġprosthetic":4737,"Ġradiodensity":4738,"just":4739,"Of":4740,"Nodular":4741,"Ġnormally":4742,"Its":4743,"Ġanast":4744,"jective":4745,"Ġosteophytes":4746,"Ġpolytrauma":4747,"Ġsubpulmonic":4748,"Ġinvolvement":4749,"ĠEnlarg":4750,"ĠHIV":4751,"Ġmes":4752,"EMI":4753,"Ġtraver":4754,"Ġpositional":4755,"Ġalready":4756,"Ġepicardial":4757,"intubation":4758,"Ġmetastasis":4759,"ner":4760,"odg":4761,"onged":4762,"Ġborders":4763,"imeter":4764,"Ġthey":4765,"Ġrect":4766,"ounting":4767,"ternatively":4768,"Ġsickle":4769,"Elevation":4770,"Sternotomy":4771,"Ġlumen":4772,"ĠPre":4773,"Ġbradycardia":4774,"filled":4775,"Ġduodenum":4776,"Ġstrong":4777,"ĠClips":4778,"Ġthroat":4779,"ven":4780,"Ġsb":4781,"Ġbull":4782,"ĠNote":4783,"Ġpostsurgical":4784,"ereb":4785,"Ġuti":4786,"ĠIntub":4787,"espiratory":4788,"Ġorthop":4789,"Ġcord":4790,"Ġhcap":4791,"Dual":4792,"och":4793,"ĠRI":4794,"Ġfailed":4795,"Ġasbest":4796,"Ġwithdrawal":4797,"Ġreduction":4798,"ĠIV":4799,"Ġevacuation":4800,"its":4801,"proving":4802,"Ġdrop":4803,"imul":4804,"Bibasal":4805,"Ġpatients":4806,"'d":4807,"ĠComp":4808,"structive":4809,"Ġcombined":4810,"Ġstrike":4811,"Ġcric":4812,"Ġangio":4813,"Ġpseud":4814,"Ġsubjective":4815,"ĠFeeding":4816,"ĠAtherosclerotic":4817,"ĠVascular":4818,"Ġcentered":4819,"Ġrecommendation":4820,"Ġparamediastinal":4821,"Radiograph":4822,"roh":4823,"Ġatelectases":4824,"acic":4825,"Ġaccident":4826,"Ġseque":4827,"Ġrt":4828,"lumen":4829,"urex":4830,"Ġclosure":4831,"Ġtx":4832,"Monitoring":4833,"Ġtake":4834,"Ġfar":4835,"ĠTrace":4836,"Ġrupt":4837,"ĠOld":4838,"Ġradiating":4839,"Trace":4840,"aspiration":4841,"cough":4842,"Ġsubsternal":4843,"Ġhemorrhag":4844,"Ġdelineated":4845,"erved":4846,"arding":4847,"Ġekg":4848,"Ġmig":4849,"ish":4850,"Ġasses":4851,"Ġnephrectomy":4852,"ĠRecent":4853,"Ġdeli":4854,"Ġannul":4855,"Ġcoughing":4856,"Ġdistributed":4857,"Ġsaturation":4858,"Ġsle":4859,"Ġhour":4860,"Ġlevels":4861,"Ġcomponents":4862,"Ġkyphosis":4863,"Ġrevision":4864,"Ġcereb":4865,"Air":4866,"Ġcondition":4867,"ĠAcute":4868,"Ġunderpenet":4869,"ĠLower":4870,"epsis":4871,"Ġgain":4872,"uxt":4873,"Ġcall":4874,"Ġfeel":4875,"Ġbleb":4876,"iency":4877,"Ġepile":4878,"rotizing":4879,"itu":4880,"Ġhemidiaphragmatic":4881,"Ġchronicity":4882,"Ġcommon":4883,"ĠAlso":4884,"Th":4885,"Dense":4886,"Ġ22":4887,"ĠDual":4888,"ĠESRD":4889,"dose":4890,"Ġdefinitely":4891,"Ġshowing":4892,"Ġprovider":4893,"tra":4894,"Ġanother":4895,"Ġflattened":4896,"Ġrml":4897,"Ġnsclc":4898,"Ġeighth":4899,"ĠGI":4900,"sing":4901,"Ġflash":4902,"Ġ102":4903,"Ġsplenic":4904,"arily":4905,"Ġjuxt":4906,"Ġanteriorly":4907,"ĠEvidence":4908,"ĠSternal":4909,"Ġdislocation":4910,"ĠPET":4911,"interval":4912,"Ġschf":4913,"respons":4914,"Eval":4915,"Ġinflammation":4916,"CE":4917,"ĠElevation":4918,"Additional":4919,"Ġclamped":4920,"Ġspi":4921,"Any":4922,"cav":4923,"Ġwhat":4924,"Ġsuperiorly":4925,"ncopal":4926,"Ġthoracostomy":4927,"Ġprolonged":4928,"Ġsclerotic":4929,"Ġventilator":4930,"Tortu":4931,"ĠSternotomy":4932,"Ġster":4933,"ĠAVR":4934,"Ġbil":4935,"Ġexpansion":4936,"Ġnumb":4937,"ĠHC":4938,"Ġextra":4939,"mphysema":4940,"farin":4941,"Ġaccounting":4942,"Ġbed":4943,"ĠMarked":4944,"Ġviral":4945,"Ġenlarging":4946,"Ġcephalization":4947,"UR":4948,"Ġcoll":4949,"Ġnegative":4950,"ading":4951,"Ġild":4952,"Ġtr":4953,"Ġclip":4954,"Ġmri":4955,"Ġpleurex":4956,"Ġshoulders":4957,"esity":4958,"Ġegd":4959,"small":4960,"Ġfissural":4961,"Ġexplained":4962,"Further":4963,"Ġsequela":4964,"propriate":4965,"Ġpea":4966,"dema":4967,"atremia":4968,"ĠSlightly":4969,"Examination":4970,"ĠFocal":4971,"ĠMonitoring":4972,"Ġfoot":4973,"Ġcoiling":4974,"ĠĠĠĠĊ":4975,"provement":4976,"atelectasis":4977,"Apparent":4978,"PNA":4979,"Ġspecifically":4980,"Ġwarfarin":4981,"Ġinflammatory":4982,"Chf":4983,"ronically":4984,"Ġhcc":4985,"Ġablation":4986,"tained":4987,"ĠCalcified":4988,"Ġhemorrhagic":4989,"Ġsteroid":4990,"cidental":4991,"odgkin":4992,"Slightly":4993,"Ġdocumented":4994,"Residual":4995,"..":4996,"Ġvt":4997,"ĠMore":4998,"spid":4999,"Transvenous":5000,"Ġretrosternal":5001,"Ab":5002,"Ġtrack":5003,"night":5004,"Ġentire":5005,"ardio":5006,"iciency":5007,"ained":5008,"eds":5009,"Ġmanag":5010,"iet":5011,"omal":5012,"Ġcoils":5013,"Additionally":5014,"Ġedge":5015,"Ġhighly":5016,"Ġoverlie":5017,"lement":5018,"Ġimmediately":5019,"Ġreturn":5020,"asia":5021,"Ġlimitation":5022,"gan":5023,"asm":5024,"Recent":5025,"itution":5026,"ĠSpecifically":5027,"Ġresusc":5028,"Ġke":5029,"Ġcontinuous":5030,"Ġhospitalization":5031,"Ġnumbness":5032,"Ġaut":5033,"Ġsternum":5034,"agus":5035,"Ġ101":5036,"Ġbecause":5037,"Ġris":5038,"Ġtransfusion":5039,"Ġpvd":5040,"Ġmicu":5041,"adder":5042,"view":5043,"Ġmast":5044,"ĠAICD":5045,"Ġinterst":5046,"Ġteam":5047,"Ġgoiter":5048,"Ġjuxta":5049,"Ġbur":5050,"Ġorient":5051,"opl":5052,"Ġinfiltration":5053,"Ġmust":5054,"Ġgrow":5055,"Widespread":5056,"Ġlact":5057,"Ġconver":5058,"Ġmanagement":5059,"cern":5060,"Ġfilter":5061,"Ġresponsible":5062,"ĠThoracic":5063,"Ġmds":5064,"isone":5065,"ĠConsider":5066,"Ġhypog":5067,"ilinear":5068,"Ġult":5069,"Ġfact":5070,"Ġnecrotizing":5071,"ĠPleur":5072,"Ġasbestos":5073,"Single":5074,"Ġfre":5075,"verlying":5076,"Ġdistort":5077,"nificance":5078,"eval":5079,"Ġ\"":5080,"Ġhemothoraces":5081,"Ġunable":5082,"Ġii":5083,"Ġlongstanding":5084,"Ġrisk":5085,"ĠHeterogeneous":5086,"levated":5087,"ped":5088,"ĠPLE":5089,"Midline":5090,"identally":5091,"Ġkin":5092,"Opacities":5093,"Ġelement":5094,"ĠAb":5095,"Ġnondistended":5096,"arynx":5097,"back":5098,"onatremia":5099,"Underlying":5100,"Ġstability":5101,"Ġglob":5102,"aa":5103,"arian":5104,"othoracic":5105,"Ġsignificance":5106,"lim":5107,"productive":5108,"Ġech":5109,"gestion":5110,"Ġ23":5111,"mid":5112,"ectious":5113,"Ġdesats":5114,"Ġscapula":5115,"consolidation":5116,"Ġnond":5117,"Ġpalpation":5118,"Ġinitially":5119,"Ġrounds":5120,"Lines":5121,"Marked":5122,"obstructive":5123,"Ġstenting":5124,"Substantial":5125,"Ġunrespons":5126,"ĠInf":5127,"iving":5128,"imulator":5129,"Ġimmunosuppression":5130,"inting":5131,"Ġrelates":5132,"ĠUn":5133,"Ġsepar":5134,"Ġsurround":5135,"sob":5136,"operatively":5137,"Ġdelirium":5138,"Ġresuscitation":5139,"atem":5140,"Ġheads":5141,"Ġchain":5142,"ĠRLL":5143,"Ġprosthesis":5144,"Ġslurred":5145,"Ġinterpre":5146,"Ġcholangitis":5147,"ushed":5148,"ĠTiny":5149,"quivocal":5150,"eping":5151,"Ġ00":5152,"dural":5153,"urrently":5154,"Ġhypercarbic":5155,"ĠMildly":5156,"Ġrectal":5157,"Partially":5158,"Ġcer":5159,"hile":5160,"Ġflo":5161,"ĠTransvenous":5162,"uck":5163,"ej":5164,"hes":5165,"Ġmulti":5166,"INE":5167,"Tubes":5168,"Pacemaker":5169,"Ġbiliary":5170,"Ġchronically":5171,"brid":5172,"Ġcommunications":5173,"cuspid":5174,"Ġsats":5175,"ucency":5176,"ID":5177,"Ġaccumulation":5178,"Ġhyponatremia":5179,"Ġincidental":5180,"Ġhaving":5181,"Ġinfarction":5182,"Tiny":5183,"ault":5184,"quam":5185,"Ġoutput":5186,"Ġreassess":5187,"ĠEsophageal":5188,"Ġmrsa":5189,"Ġpartly":5190,"board":5191,"ĠNow":5192,"ĠMidline":5193,".___":5194,"Ġobesity":5195,"Ġfemur":5196,"Ġoverdose":5197,"ractory":5198,"Ġtelephoned":5199,"Ġovarian":5200,"Ġinstitution":5201,"quamous":5202,"Ġnarrowing":5203,"Limited":5204,"Ġmanif":5205,"Ġnecessary":5206,"atemesis":5207,"emergent":5208,"ĠProminent":5209,"Ġports":5210,"Ġindicates":5211,"Ġtemper":5212,"Port":5213,"coma":5214,"flow":5215,"ĠOS":5216,"esophagus":5217,"pearance":5218,"nisone":5219,"Mildly":5220,"Ġelsewhere":5221,"Ġmanifest":5222,"Ġexertional":5223,"stance":5224,"emonstration":5225,"Ġtypical":5226,"ĠPostoperative":5227,"Ġspeech":5228,"Dob":5229,"ĠAML":5230,"yg":5231,"acia":5232,"Ġtun":5233,"edema":5234,"Ġcontact":5235,"Ġfloor":5236,"ejun":5237,"gia":5238,"Ġstanding":5239,"neled":5240,"Ġsized":5241,"Ġhis":5242,"gram":5243,"ĠLLL":5244,"ĠSubcutaneous":5245,"Ġped":5246,"ischarge":5247,"lay":5248,"otid":5249,"Ġsecu":5250,"Ġdepression":5251,"Ġ24":5252,"luc":5253,"itiv":5254,"ĠLittle":5255,"Ġassault":5256,"bridement":5257,"fa":5258,"Ġraise":5259,"obronchial":5260,"Ġemesis":5261,"Ġlocalized":5262,"ĠOR":5263,"Ġantic":5264,"Ġparap":5265,"LY":5266,"ĠOf":5267,"PM":5268,"NE":5269,"Ġstimulator":5270,"Ġshifted":5271,"ashboard":5272,"nam":5273,"ĠLines":5274,"Ġanastom":5275,"ĠPartially":5276,"Ġoutflow":5277,"Ġoccurred":5278,"Ġkeeping":5279,"erolateral":5280,"Ġsclerosis":5281,"Ġtricuspid":5282,"Ġdiverticulitis":5283,"RO":5284,"Ġconfirmation":5285,"land":5286,"Ġlab":5287,"Ġtob":5288,"Ġcholangi":5289,"Ġpersistently":5290,"ĠOGT":5291,"Ġtraverses":5292,"Ġflare":5293,"!.":5294,"ĠEF":5295,"odular":5296,"Sp":5297,"Ġregurg":5298,"Biapical":5299,"Ġeffect":5300,"Is":5301,"ventional":5302,"ĠTO":5303,"Ġsubdural":5304,"ĠIs":5305,"ĠHazy":5306,"Ġdrug":5307,"Ġepid":5308,"ĠHypoxia":5309,"Ġmastectomy":5310,"CHF":5311,"Ġdetection":5312,"ĠCalcification":5313,"yed":5314,"ĠPMH":5315,"Ġ02":5316,"rohn":5317,"itivity":5318,"iscussed":5319,"Ġfold":5320,"aso":5321,"Ġmakes":5322,"omatosis":5323,"there":5324,"Ġventilated":5325,"Ġpnx":5326,"Ġevolution":5327,"Ġdysfunction":5328,"Ġnature":5329,"upus":5330,"Ġdebridement":5331,"ĠWithin":5332,"Volume":5333,"ytic":5334,"Ġmie":5335,"rs":5336,"ĠRespiratory":5337,"Ġrefractory":5338,"ercp":5339,"outine":5340,"Areas":5341,"kle":5342,"idosis":5343,"Ġovernight":5344,"orrelate":5345,"Adjacent":5346,"til":5347,"Ġformation":5348,"Ġcollision":5349,"___,":5350,"Ġlip":5351,"Ġzyg":5352,"Ġileus":5353,"Ġcavity":5354,"BC":5355,"Ġprednisone":5356,"Ġlatent":5357,"Ġpredischarge":5358,"aring":5359,"Ġbm":5360,"ĠHD":5361,"ogenic":5362,"Ġintrodu":5363,"Ġsquamous":5364,"Ġstripe":5365,"ored":5366,"Ġepidural":5367,"hx":5368,"Ġmonitor":5369,"ype":5370,"Ġdecub":5371,"hab":5372,"Ġfung":5373,"ĠAS":5374,"Ġwean":5375,"elative":5376,"ptal":5377,"Ġconveyed":5378,"Ġtunneled":5379,"Ġslow":5380,"ĠRIGHT":5381,"Ġdashboard":5382,"Ġunw":5383,"Ġdecompression":5384,"Ġischemia":5385,"Ġtracheobronchoplasty":5386,"oci":5387,"Ġcharacterize":5388,"Swan":5389,"ĠClear":5390,"Ġhematemesis":5391,"Ġhypoinflated":5392,"Aorta":5393,"demonstrated":5394,"lor":5395,"Ġdouble":5396,"Constant":5397,"nant":5398,"Ġaaa":5399,"Ġblurring":5400,"acco":5401,"Ġconsolidated":5402,"Ġpersisting":5403,"Ġsyncopal":5404,"Edema":5405,"Visualized":5406,"omatic":5407,"ĠSubstantial":5408,"Ġdiaph":5409,"utside":5410,"Ġarthritis":5411,"Ġblebectomy":5412,"Ġdilation":5413,"Hyp":5414,"Ġercp":5415,"Ġgu":5416,"Ġaccompanying":5417,"Widening":5418,"omalacia":5419,"Ġhemop":5420,"Ġpresyncope":5421,"UB":5422,"Ġallo":5423,"Ġretic":5424,"eriorly":5425,"cedural":5426,"Differential":5427,"Ġsteroids":5428,"Likely":5429,"trophic":5430,"Ġip":5431,"Ġrecord":5432,"Ġspecific":5433,"Ġneeded":5434,"Ġpointing":5435,"Ġembolization":5436,"Ġmotion":5437,"ling":5438,"Ġlupus":5439,"Ġsix":5440,"cabg":5441,"ĠAF":5442,"Ġterm":5443,"Ġsurrounding":5444,"Ġrehab":5445,"Ġvap":5446,"Ġabut":5447,"Ġregarding":5448,"Ġcare":5449,"Ġzygomatic":5450,"bs":5451,"oor":5452,"ffect":5453,"lastic":5454,"ĠCh":5455,"ĠAC":5456,"hedule":5457,"Ġorthopnea":5458,"Ġoper":5459,"icardium":5460,"inth":5461,"Ġcll":5462,"Ġincidentally":5463,"Ġfoci":5464,"Ġcarotid":5465,"Ġrecog":5466,"Ġwhipple":5467,"ĠDense":5468,"Ġpylorus":5469,"Ġpelvic":5470,"ĠEK":5471,"ĠMVC":5472,"Ġ>":5473,"ĠDO":5474,"ĠBibasal":5475,"Ett":5476,"Ġga":5477,"ullness":5478,"Ġexaggerating":5479,"ragment":5480,"Ġheavy":5481,"Ġable":5482,"Ġtherefore":5483,"Superimposed":5484,"Ġtobacco":5485,"icc":5486,"Ġcomparisons":5487,"Ġgaseous":5488,"ella":5489,"Ġcircum":5490,"Ġmening":5491,"Ġexplor":5492,"ice":5493,"iculated":5494,"Ġtest":5495,"rogastric":5496,"ĠEKG":5497,"ĠConf":5498,"ger":5499,"Ġmove":5500,"Ġfemoral":5501,"Ġdka":5502,"osepsis":5503,"Ġdemonstration":5504,"Ġneuro":5505,"ĠDecreased":5506,"When":5507,"evaluate":5508,"sound":5509,"Ġq":5510,"ĠDM":5511,"Ġgib":5512,"ĠWhen":5513,"ĠAny":5514,"ĠAdditional":5515,"Ġfavor":5516,"Ġregurgitation":5517,"Ġlev":5518,"oculated":5519,"Ġscout":5520,"Ġninth":5521,"Ġrequirements":5522,"ĠApparent":5523,"rok":5524,"Ġroutine":5525,"Ġportal":5526,"Ġfacility":5527,"Pulm":5528,"Ġbx":5529,"Ġmanner":5530,"Multilevel":5531,"Ġtent":5532,"oronary":5533,"Ġfive":5534,"veal":5535,"ĠVisualized":5536,"Elsewhere":5537,"Ġgang":5538,"ĠOther":5539,"Ġleukemia":5540,"ased":5541,"ĠInterstitial":5542,"Ġpage":5543,"Ġportably":5544,"Ġoccu":5545,"Ġlater":5546,"Ġcholecystitis":5547,"Ġlactate":5548,"Ġlying":5549,"Ġconfigurational":5550,"ĠAd":5551,"Ġreference":5552,"Ġ___:___":5553,"Ġpericarditis":5554,"Ġcertain":5555,"Ġfragment":5556,"ĠIP":5557,"Ġcellulitis":5558,"rosthe":5559,"Ġfeeling":5560,"Ġtracking":5561,"AH":5562,"Remainder":5563,"Ġus":5564,"Ġann":5565,"Ġimmunosupp":5566,"Ġtoo":5567,"ĠTh":5568,"Ġfeas":5569,"uem":5570,"ĠSB":5571,"Ġsubacute":5572,"Ġtemperature":5573,"orary":5574,"Ġsubpleural":5575,"Ġhypoglycemia":5576,"Ġfeasible":5577,"cell":5578,"Ġasymmetrically":5579,"ĠPacemaker":5580,"ĠSemi":5581,"Ġwedging":5582,"Ġultra":5583,"NEUM":5584,"cies":5585,"angular":5586,"igns":5587,"Widened":5588,"fe":5589,"geal":5590,"Ġshown":5591,"Ġbladder":5592,"telectatic":5593,"ĠAdditionally":5594,"Ġeach":5595,"ances":5596,"intubated":5597,"stinal":5598,"Ġunusual":5599,"Ġorgan":5600,"Ġschedule":5601,"Enlarged":5602,"ually":5603,"Relatively":5604,"Ġtree":5605,"Ġlate":5606,"Ġsple":5607,"Ġurosepsis":5608,"LD":5609,"ndwelling":5610,"Ġcentimeter":5611,"rive":5612,"ĠPNEUM":5613,"lb":5614,"Ġpushed":5615,"ĠWidespread":5616,"Aside":5617,"lutter":5618,"Ġretained":5619,"Ġpara":5620,"ĠSupport":5621,"Ġhepat":5622,"Ġdecubitus":5623,"Ġlaparoscopic":5624,"rosthetic":5625,"ologies":5626,"Ġperforated":5627,"Ġ01":5628,"Ġcrosses":5629,"ovascular":5630,"Ġ30":5631,"ITH":5632,"Ġoverlapping":5633,"of":5634,"radi":5635,"Ġadjust":5636,"ĠUP":5637,"ssa":5638,"ssociated":5639,"Ġhemopneumothorax":5640,"Ġprec":5641,"rained":5642,"Ġbmt":5643,"Follow":5644,"Ġacutely":5645,"Rounded":5646,"Ġu":5647,"overed":5648,"Ġsitting":5649,"Ġposterolateral":5650,"ĠWBC":5651,"Ġtachy":5652,"Several":5653,"Ġinterpret":5654,"ĠTortu":5655,"Ġvarices":5656,"Ġfrequent":5657,"Ġcts":5658,"Ġextension":5659,"Ġmeasures":5660,"Postoperative":5661,"ĠConsolidation":5662,"self":5663,"Ġcomplex":5664,"ĠCVL":5665,"Ġadvancing":5666,"Asymmetric":5667,"Ġstabil":5668,"Ġultrasound":5669,"Ġmediastin":5670,"Ġprojected":5671,"amin":5672,"Picc":5673,"Ġunexp":5674,"ĠIntubated":5675,"Ġnondisplaced":5676,"ĠWITH":5677,"encies":5678,"Ġdesired":5679,"ologist":5680,"Ġpedic":5681,"Ġexist":5682,"Ġlesser":5683,"Ġvisualization":5684,"likely":5685,"ĠPOD":5686,"liminary":5687,"ĠDiff":5688,"Ġphysical":5689,"ĠOSH":5690,"olectomy":5691,"With":5692,"asix":5693,"Ġtelephoneon":5694,"Ill":5695,"Ġorder":5696,"Ġobscure":5697,"Ġscapular":5698,"Ġbip":5699,"Ġcoexisting":5700,"pef":5701,"psy":5702,"Ġreveal":5703,"umerous":5704,"Ġvq":5705,"Ġreaction":5706,"Ġpur":5707,"Ġcardiothoracic":5708,"ĠElsewhere":5709,"itness":5710,"renal":5711,"Ġcontusions":5712,"Ġcomple":5713,"astatic":5714,"ĠTub":5715,"Ġsuff":5716,"ĠHyperinflation":5717,"hyp":5718,"Ġimpac":5719,"Ġthrive":5720,"Ġupward":5721,"Ġclin":5722,"Ġagg":5723,"ES":5724,"ocol":5725,"ush":5726,"Ġmyal":5727,"ĠAssessment":5728,"Ġannulus":5729,"Ġunresponsive":5730,"lucency":5731,"oca":5732,"Ġankle":5733,"Ġpedicle":5734,"Basilar":5735,"Ġpectus":5736,"vh":5737,"Ġitself":5738,"Ġtemporary":5739,"ĠWe":5740,"Ġundergoing":5741,"Ġinsuff":5742,"Fluid":5743,"Ġ**":5744,"Ġendobronchial":5745,"Ġexplan":5746,"Ġcholangiocarcinoma":5747,"Ġsuspect":5748,"section":5749,"Ġtib":5750,"eference":5751,"Ġlaceration":5752,"Ġreexpansion":5753,"Ġhiatus":5754,"Ġquant":5755,"Ġrcc":5756,"gmoid":5757,"odynam":5758,"theless":5759,"yroidism":5760,"Perihilar":5761,"Correlation":5762,"ĠAside":5763,"Ġsurface":5764,"RIGHT":5765,"Ġclearance":5766,"Ġamb":5767,"Ġsore":5768,"asoenteric":5769,"Ġnash":5770,"Ġcontrib":5771,"Non":5772,"ram":5773,"quity":5774,"rolled":5775,"fever":5776,"arth":5777,"Ġannular":5778,"left":5779,"Ġmake":5780,"Ġaccentuation":5781,"Ġdepartment":5782,"Ġhealing":5783,"Ġimpossible":5784,"tp":5785,"Ġforward":5786,"oar":5787,"ĠSupine":5788,"ked":5789,"Ġstate":5790,"Ġgall":5791,"Ġdetails":5792,"Ġexplanation":5793,"arach":5794,"Ġgre":5795,"Ġcorrelated":5796,"Ġrupture":5797,"con":5798,"Ġosa":5799,"ĠSp":5800,"ressing":5801,"Ġconsiderable":5802,"Ġinterpretation":5803,"ii":5804,"ĠPL":5805,"Ġstreaks":5806,"uspect":5807,"Scarring":5808,"off":5809,"omon":5810,"icient":5811,"Ġdirected":5812,"Ġneuropathy":5813,"Ġnumerous":5814,"Ġcvid":5815,"Ġcentimeters":5816,"van":5817,"ĠBiapical":5818,"Ġpcp":5819,"erve":5820,"Ġtubing":5821,"ĠĠĠĠĠĠĠĠĠĠĠĠĠĠĠĠĠĠĠĠĠĠĠĠĠĠĠĠĠĠĠĠĠĠĠĠĠĠĠĠĠĠĠĠĠĠĠĠĠĠĠĠĠĠĠĠĠĠĠĠĠĠĠĠ":5822,"Ġresultant":5823,"Ġhfpef":5824,"CP":5825,"lip":5826,"ĠĠĠĠĠĠĠĊ":5827,"ĠMultilevel":5828,"Ġexpiratory":5829,"Ġelongated":5830,"ĠĠĠĠĠĠĠĠĠĠĠĠĠĠĠĠĠĠĠĠĠĠĠĠĠĠĠĠĠĠĠĠĠĠĠĠĠĠĠĠĠĠĠĠĠĠĠĠĠĠĠĠĠĠĠĠĠĠĠĠĠĠĠĠĠĠĠĠĠĠĠĊ":5831,"Pro":5832,"hem":5833,"ondral":5834,"Ġdesaturations":5835,"ealed":5836,"Ġsty":5837,"ĠRelatively":5838,"Ġecmo":5839,"Ġ(___)":5840,"gias":5841,"noid":5842,"Ġbs":5843,"rency":5844,"Ġcalcific":5845,"Infectious":5846,"Ġexaggerate":5847,"Ġintroducer":5848,"itnessed":5849,"Ġreq":5850,"Ġhist":5851,"Ġdemineralization":5852,"URAL":5853,"Ġcompletion":5854,"sw":5855,"worsening":5856,"Ġobl":5857,"Ġtransesophageal":5858,"oag":5859,"Mass":5860,"ins":5861,"Ġresident":5862,"Ġstylet":5863,"ERE":5864,"Ġdri":5865,"testinal":5866,"itium":5867,"ĠSAH":5868,"Ġstructural":5869,"Ġspiculated":5870,"Ġaggressive":5871,"Ġremission":5872,"Ġlooped":5873,"Ġthrombosis":5874,"Ġvalvular":5875,"Ġattribut":5876,"Ġsensitivity":5877,"ĠHyperinflated":5878,"arachnoid":5879,"Ġthigh":5880,"Ġbore":5881,"ĠRemainder":5882,"Ġloculation":5883,"Ġattempted":5884,"post":5885,"Ġpal":5886,"Ġgastrectomy":5887,"radiation":5888,"ĠLEF":5889,"aryngeal":5890,"Enlargement":5891,"Ġinterstitium":5892,"ĠLEFT":5893,"Ġsch":5894,"Ġlocations":5895,"Ġsegmentectomy":5896,"ĠPLEURAL":5897,"Ġattributable":5898,"Repeat":5899,"Similar":5900,"omb":5901,"upper":5902,"Ġbronchop":5903,"Ġprimarily":5904,"Ġconsiderations":5905,"Ġanticoag":5906,"ĠWith":5907,"Ġbacter":5908,"eform":5909,"Ġoffic":5910,"cessful":5911,"Ġintox":5912,"ĠNon":5913,"Ġstruck":5914,"Ġextended":5915,"Ġneoesophagus":5916,"ĠCheck":5917,"opharynx":5918,"gors":5919,"Compression":5920,"Pre":5921,"Ġthin":5922,"Ġivc":5923,"Ġtrac":5924,"Ġalone":5925,"procedure":5926,"iddm":5927,"ĠSurg":5928,"ĠRUL":5929,"ronchi":5930,"Ġunderpenetration":5931,"Ġbri":5932,"ĠMet":5933,"Ġcavitation":5934,"parenchymal":5935,"CA":5936,"Subsequent":5937,"ls":5938,"Ġccu":5939,"Ġscreening":5940,"Calcifications":5941,"stomy":5942,"Ġexlap":5943,"Ġreflected":5944,"Ġili":5945,"Ġrepe":5946,"Ġwheezes":5947,"Ġer":5948,"Ġdistortion":5949,"Ġinsufficiency":5950,"neumonic":5951,"ĠLU":5952,"Ġirregularity":5953,"arency":5954,"Ġtia":5955,"Ġseptal":5956,"Ġetiologies":5957,"Ġprod":5958,"ci":5959,"Ġhemodynam":5960,"ĠRepeat":5961,"Ġfractured":5962,"Ġstabilization":5963,"Ġdrained":5964,"ĠConstant":5965,"Ġrecogni":5966,"ĠNodular":5967,"ĠBoth":5968,"Ġprojections":5969,"eminated":5970,"Radiographs":5971,"Ġauto":5972,"Ġprotection":5973,"Ġprotocol":5974,"Ġmva":5975,"Ġconst":5976,"road":5977,"irrhosis":5978,"ĠTA":5979,"Ġsufficient":5980,"fer":5981,"rict":5982,"Ġpack":5983,"ext":5984,"Ġcomplaining":5985,"Ġsed":5986,"stead":5987,"oking":5988,"Ġsigmoid":5989,"Ġhypoth":5990,"US":5991,"nge":5992,"omyel":5993,"Ġpathologic":5994,"tention":5995,"ves":5996,"Ġect":5997,"ocr":5998,"Ġetc":5999,"Ġtransparency":6000,"emote":6001,"Ġlymphang":6002,"Ġscrew":6003,"Ġtrue":6004,"Ġvp":6005,"Ġcolonic":6006,"ĠUnderlying":6007,"ĠDOE":6008,"ycle":6009,"Ġdefinitively":6010,":___":6011,"FUSION":6012,"rep":6013,"ĠResults":6014,"All":6015,"Ġvol":6016,"Ġunlikely":6017,"Ġorif":6018,"Ġring":6019,"opericardium":6020,"inc":6021,"Ġpostoperatively":6022,"Ġclot":6023,"Ġembolus":6024,"Copd":6025,"Ġlack":6026,"Ġuntil":6027,"Ġ___%,":6028,"lbcl":6029,"ĠMR":6030,"Ġcomplaint":6031,"Ġagitation":6032,"Ġepilepsy":6033,"ulin":6034,"ĠSimilar":6035,"Analysis":6036,"IP":6037,"yd":6038,"Ġden":6039,"ĠCorrelation":6040,"Ġmovement":6041,"ĠResidual":6042,"omyelitis":6043,"lines":6044,"alf":6045,"Ġchannel":6046,"Ġsubt":6047,"Ġpnuem":6048,"Ġiss":6049,"Ġalternatively":6050,"Ġkyphotic":6051,"Ġtraced":6052,"dal":6053,"ĠAir":6054,"paces":6055,"Ġpresentation":6056,"Ġwarning":6057,"Ġabnl":6058,"One":6059,"Ġlasix":6060,"cystectomy":6061,"Ġplaque":6062,"Ġenters":6063,"Ġrx":6064,"Ġobserved":6065,"Ġaspir":6066,"Ġscans":6067,"Ġdisseminated":6068,"Ġ@":6069,"Ġttp":6070,"Ġmorph":6071,"ĠEFFUSION":6072,"omet":6073,"ange":6074,"tebral":6075,"Ġobliquity":6076,"Results":6077,"Ġbulla":6078,"Ġregard":6079,"ropathy":6080,"airs":6081,"Ġvaric":6082,"rregular":6083,"Ġsecure":6084,"Ġcrohn":6085,"Ġvertebra":6086,"ĠOpacities":6087,"NT":6088,"neic":6089,"Ġ/.":6090,"Ġantr":6091,"Ġnonurgent":6092,"des":6093,"usp":6094,"nectomy":6095,"related":6096,"Ġsa":6097,"ĠAorta":6098,"ĠLINE":6099,"ivity":6100,"Ġcystic":6101,"Ġdlbcl":6102,"Ġcarcin":6103,"oplasm":6104,"--___":6105,"Ob":6106,"idemia":6107,"Ġopacified":6108,"ĠPro":6109,"Ġcurvilinear":6110,"Ġbedside":6111,"roin":6112,"Ġattributed":6113,"OH":6114,"'t":6115,"han":6116,"Ġhodgkin":6117,"Ġhalf":6118,"bronchial":6119,"ABP":6120,"Ġmeth":6121,"Ġsuc":6122,"Ġrigors":6123,"oresis":6124,"Ġmanifestation":6125,"lained":6126,"ĠEmphysema":6127,"ARD":6128,"ĠTop":6129,"Ġperitoneal":6130,"normality":6131,"acentesis":6132,"Ġserious":6133,"manent":6134,"Ġinh":6135,"Ġbub":6136,"Ġillness":6137,"Ġaneurysmal":6138,"Ġger":6139,"Ġcoars":6140,"holecystectomy":6141,"ochondral":6142,"Ġcontaining":6143,"Ġrate":6144,"KD":6145,"Met":6146,"Ġequivocal":6147,"Ġunilateral":6148,"Ġdid":6149,"raction":6150,"Ġpci":6151,"ĠSignificant":6152,"Ġhypothyroidism":6153,"Ġrob":6154,"Ġeating":6155,"osin":6156,"Pacer":6157,"Rib":6158,"ĠVery":6159,"Ġconsidering":6160,"ĠWidening":6161,"Ġreintubation":6162,"Ġbar":6163,"ĠIABP":6164,"Ġspread":6165,"Increase":6166,"Ġoriginal":6167,"Ġparapneumonic":6168,"Ġonce":6169,"Ġwant":6170,"Ġnor":6171,"Ġnerve":6172,"Clear":6173,"patient":6174,"thoracic":6175,"Ġtoe":6176,"Ġja":6177,"ASE":6178,"Ġinability":6179,"ĠWeakness":6180,"ref":6181,"ĠLO":6182,"oxic":6183,"Ġlucencies":6184,"Tortuous":6185,"ostic":6186,"Ġsparing":6187,"ĠOutside":6188,"Ġ100":6189,"Ġactivity":6190,"Decreased":6191,"Ġlatest":6192,"atum":6193,"Ġtp":6194,"Ġseating":6195,"ĠNS":6196,"Ġspiking":6197,"Vague":6198,"Ġinfx":6199,"Ġminute":6200,"ophil":6201,"Ġcontribute":6202,"bid":6203,"change":6204,"Ġcolostomy":6205,"Ġcry":6206,"Ġmac":6207,"etric":6208,"Ġhemic":6209,"Cervical":6210,"infection":6211,"Ġvisualize":6212,"TENT":6213,"Ġstep":6214,"Ġtransient":6215,"Ġmargins":6216,"Ġmigration":6217,"Ġlymphangitic":6218,"Ġbubble":6219,"Ġcop":6220,"pylor":6221,"Ġsited":6222,"Ġstarted":6223,"Ġabutting":6224,"Ġprecise":6225,"ĠMD":6226,"Ġiddm":6227,"iton":6228,"Ġverify":6229,"Ġarthroplasty":6230,"heum":6231,"Ġps":6232,"Ġpoly":6233,"iety":6234,"Ġmyalgias":6235,"Ġtriangular":6236,"AC":6237,"Ġpne":6238,"Ġmd":6239,"ĠCKD":6240,"Ġjuxtahilar":6241,"None":6242,"Very":6243,"Ġeosin":6244,"Ġrecurred":6245,"Ġgvh":6246,"ĠSuperimposed":6247,"ĠEnlargement":6248,"Ġassesment":6249,"Ġextrapleural":6250,"ĠModerately":6251,"Ġelectro":6252,"Ġwks":6253,"ĠPPD":6254,"procedural":6255,"ĠLUNG":6256,"ĠCA":6257,"Ġlig":6258,"Ġlatter":6259,"Incidental":6260,"Ġpressures":6261,"Ġsplenectomy":6262,"Faint":6263,"Top":6264,"dated":6265,"rad":6266,"ĠIll":6267,"perg":6268,"ape":6269,"ĠImproving":6270,"Ġsuture":6271,"eformity":6272,"Ġdz":6273,"ĠAbdominal":6274,"Ġanastomosis":6275,"Ġstrict":6276,"ptx":6277,"ĠIPH":6278,"peg":6279,"diff":6280,"Indistinct":6281,"ĠEnlarged":6282,"Ġlaparotomy":6283,"Ġoral":6284,"Appearance":6285,"Ġredemonstration":6286,"Ġcollections":6287,"Position":6288,"RG":6289,"ĠTH":6290,"pergill":6291,"Ġartifactual":6292,"Ġdiaphoresis":6293,"ĠAreas":6294,"Ġsubarachnoid":6295,"Ġhaze":6296,"Ġparacentesis":6297,"ĠATTENT":6298,"Ġgreen":6299,"ĠATTENTION":6300,"num":6301,"ĠIncrease":6302,"aking":6303,"Ġacs":6304,"Ġnodularity":6305,"ĠAnalysis":6306,"orsened":6307,"Ġclinic":6308,"enuation":6309,"through":6310,"Ġtaking":6311,"Ġcerebral":6312,"UBE":6313,"Ġself":6314,"ĠURG":6315,"Ġroom":6316,"ĠURGENT":6317,"Ġcostochondral":6318,"onade":6319,"Improving":6320,"Ġproble":6321,"Ġcoales":6322,"pyloric":6323,"OT":6324,"aine":6325,"Ġsurve":6326,"Ġinvas":6327,"evertheless":6328,"ĠUPRIGHT":6329,"mass":6330,"arable":6331,"Ġivdu":6332,"Ġheavily":6333,"lipidemia":6334,"Conf":6335,"rophy":6336,"Ġimmediate":6337,"Ġstrongly":6338,"Ġeosinophil":6339,"Ġaffect":6340,"unct":6341,"Ġstairs":6342,"Ġthickened":6343,"Ġgrad":6344,"equence":6345,"amponade":6346,"Ġrecognized":6347,"UP":6348,"edic":6349,"tt":6350,"Ġcd":6351,"Ġruled":6352,"Ġexists":6353,"SS":6354,"xia":6355,"Ġexcav":6356,"ĠLikely":6357,"Ġclar":6358,"Ġcostal":6359,"Ġsidehole":6360,"ĠLV":6361,"ĠAsymmetric":6362,"ĠTHERE":6363,"Ġbullous":6364,"olved":6365,"ĠARE":6366,"Ġsideport":6367,"Assessment":6368,"raumatic":6369,"iasis":6370,"nole":6371,"Ġoss":6372,"Ġnasoenteric":6373,"Ġmssa":6374,"ĠPacer":6375,"incid":6376,"sectional":6377,"Ġvariceal":6378,"Ġosteomyelitis":6379,"Ġintroduction":6380,"Ġexcavatum":6381,"Ġscen":6382,"Ġaches":6383,"Ġ103":6384,"Ġmesenteric":6385,"jection":6386,"unted":6387,"Ġrheum":6388,"Ġevd":6389,"Ġdmii":6390,"Ġvalves":6391,"Dobbhoff":6392,"Correlate":6393,"Part":6394,"Ġsent":6395,"ided":6396,"Ġconsequence":6397,"Ġosteopenia":6398,"Ġazygous":6399,"Ġmaking":6400,"Ġunexplained":6401,"Ġgvhd":6402,"Associated":6403,"Significant":6404,"Ġremnant":6405,"Ġdiscontinu":6406,"ĠAppropriate":6407,"Ġimprove":6408,"ĠVague":6409,"Ġdiscovered":6410,"Hyperinflation":6411,"Ġimpaction":6412,"situ":6413,"wer":6414,"Ġreach":6415,"Ġduct":6416,"Ġshape":6417,"ventricular":6418,"Ġsac":6419,"Ġdeposition":6420,"oxys":6421,"Mid":6422,"ĠK":6423,"otension":6424,"ellitus":6425,"ĠICU":6426,"Ġmeningitis":6427,"Ġmorphology":6428,"ale":6429,"Ġmic":6430,"Ġmellitus":6431,"Ġrotator":6432,"Ġfissures":6433,"Ġdepending":6434,"Ġocclusion":6435,"Check":6436,"ontrast":6437,"ĠHF":6438,"Ġexploratory":6439,"Ġcertainly":6440,"xiety":6441,"Ġtpa":6442,"Ġpneumopericardium":6443,"Ġcorrel":6444,"Ġovoid":6445,"Ġslowly":6446,"_________________":6447,"_________________________________________________________________________________":6448,"Ġtrig":6449,"Ġsbr":6450,"Ġantrum":6451,"oxysmal":6452,"mvr":6453,"new":6454,"Ġpreliminary":6455,"aken":6456,"Ġtransbronchial":6457,"ĠSubsequent":6458,"Ġreceiving":6459,"Catheter":6460,"Ġtoler":6461,"ĠElevated":6462,"Ġcentrally":6463,"omies":6464,"ecurrent":6465,"Ġflutter":6466,"Ġpersistence":6467,"Ġflexed":6468,"VT":6469,"cp":6470,"Ġanat":6471,"Ġtamponade":6472,"erable":6473,"ICU":6474,"Ġemergent":6475,"Ġmetal":6476,"Ġtbm":6477,"Ġcerebell":6478,"cal":6479,"Ġrecommendations":6480,"Ġsomnole":6481,"tubes":6482,"Ġcrypt":6483,"numerable":6484,"Ġ___)":6485,"scuration":6486,"Ġaspects":6487,"Ġbacterial":6488,"Dist":6489,"hether":6490,"Ġmultil":6491,"Ġpseudomon":6492,"Ġgerd":6493,"ids":6494,"chills":6495,"itect":6496,"Ġcomment":6497,"Ġconsiderably":6498,"ĠResolution":6499,"Ġsymmetrically":6500,"Ġhct":6501,"Ġreplacements":6502,"ĠUnremarkable":6503,"TER":6504,"ische":6505,"oubt":6506,"ĠCervical":6507,"Ġget":6508,"ronchovascular":6509,"Ġoperative":6510,"KA":6511,"Ġcoc":6512,"Ġreports":6513,"vex":6514,"Ġpower":6515,"Ġrle":6516,"Ġaspergill":6517,"Ġacross":6518,"Ġincr":6519,"ĠPneum":6520,"ode":6521,"Difficult":6522,"ht":6523,"eries":6524,"Ġthus":6525,"Ġaflutter":6526,"Ġhypotensive":6527,"Ġreticul":6528,"Di":6529,"While":6530,"ATE":6531,"duced":6532,"Ġpen":6533,"Ġlytic":6534,"Ġrv":6535,"Ġrfa":6536,"Ġnonemergent":6537,"Ġparoxysmal":6538,"Ġattenuation":6539,"nce":6540,"pull":6541,"Ġgn":6542,"Ġfungal":6543,"ylo":6544,"ains":6545,"Ġassist":6546,"Ġinfective":6547,"Ġperipherally":6548,"Ġhistor":6549,"dg":6550,"inor":6551,"Ġcoincid":6552,"Ġduodenal":6553,"DH":6554,"Ġug":6555,"Ġcris":6556,"Ġhor":6557,"ĠRadi":6558,"Short":6559,"Ġglobular":6560,"ĠAFib":6561,"Ġhistorian":6562,"Ġrever":6563,"Ġdro":6564,"Ġrash":6565,"Ġredo":6566,"ischemic":6567,"Overlying":6568,"Ġopaque":6569,"ilated":6570,"racture":6571,"Ġcannul":6572,"Ġschiz":6573,"Ġfluids":6574,"Ġconverted":6575,"Ġrobotic":6576,"ĠFall":6577,"Ġdisl":6578,"Ġradiologist":6579,"Ġoriented":6580,"Ġmed":6581,"ĠImprovement":6582,"Ġtriple":6583,"CC":6584,"Ġwt":6585,"Ġflow":6586,"opulmonary":6587,"ends":6588,"Ġdepic":6589,"Ġmigrated":6590,"Ġinvasive":6591,"Ġcerebellar":6592,"based":6593,"Ġisland":6594,"Ġchild":6595,"Ġprobe":6596,"Ġblunted":6597,"ombination":6598,"Ġcrisis":6599,"Ġic":6600,"onodular":6601,"Ġreactive":6602,"Ġrepeated":6603,"atures":6604,"ional":6605,"Ġfasc":6606,"uture":6607,"Ġdiagnostic":6608,"ĠConcern":6609,"Ġrij":6610,"cage":6611,"ĠOb":6612,"Ġmyast":6613,"ĠSeveral":6614,"Ġechocar":6615,"ned":6616,"henia":6617,"Ġeffu":6618,"Ġsuperimp":6619,"ĠSBO":6620,"Ġpermanent":6621,"Ġperm":6622,"Ġdischarge":6623,"Ġpacs":6624,"Ġsides":6625,"Ġhyperlucency":6626,"Ġvasculitis":6627,"Ġaccur":6628,"Ġresiding":6629,"Ġhfref":6630,"Ġaccounts":6631,"Ġstarting":6632,"ĠCompression":6633,"Ġtakeback":6634,"pneumothorax":6635,"type":6636,"Ġlamin":6637,"ĠPAC":6638,"Ġorientation":6639,"Ne":6640,"hyd":6641,"Ġlucent":6642,"Relative":6643,"legm":6644,"Ġcomparable":6645,"vering":6646,"ĠShort":6647,"Cta":6648,"Ġdetailed":6649,"Ġsedated":6650,"leman":6651,"ĠEV":6652,"Ġribcage":6653,"Ġrapidly":6654,"iatal":6655,"hee":6656,"Ġmist":6657,"osc":6658,"Ġneoplasm":6659,":.":6660,"ĠPPM":6661,"Ġwidth":6662,"Apical":6663,"ouse":6664,"Ġgold":6665,"Ġbilat":6666,"Ġmediastinoscopy":6667,"Reference":6668,"UGH":6669,"Ġfdg":6670,"Ġexisting":6671,"Ġgent":6672,"Ġrestrict":6673,"Ġtracheobronchomalacia":6674,"Tortuosity":6675,"Ġgallst":6676,"ĠTAVR":6677,"Ġdroop":6678,"aft":6679,"bv":6680,"Ġstay":6681,"Ġanter":6682,"Ġfollows":6683,"jejun":6684,"yel":6685,"scribed":6686,"Anterior":6687,"Ġintraparenchymal":6688,"Ġthrombus":6689,"Ġtrial":6690,"Ġtxp":6691,"Ġrange":6692,"illance":6693,"Ġquestioned":6694,"Ġswallow":6695,"Ġarchitect":6696,"adily":6697,"bow":6698,"Ġhyperc":6699,"Ġivh":6700,"ANG":6701,"GE":6702,"copd":6703,"Ġdon":6704,"ĠMI":6705,"Ġprogressing":6706,"Ġthoraco":6707,"Ġnursing":6708,"cence":6709,"Ġcy":6710,"Ġfair":6711,"umm":6712,"ĠFurther":6713,"ĠPneumothorax":6714,"ĠSyncope":6715,"Ġsbp":6716,"iable":6717,"ĠRounded":6718,"Ġ80":6719,"Dedicated":6720,"ML":6721,"ane":6722,"Ġendomet":6723,"Ġmistaken":6724,"Ġlb":6725,"Suggest":6726,"dyspnea":6727,"Ġexc":6728,"Ġgoing":6729,"isional":6730,"Ġnurses":6731,"ĠWidened":6732,"ĠCVA":6733,"ĠCalcifications":6734,"Ġunwitnessed":6735,"ju":6736,"edemonstrated":6737,"Ġreadily":6738,"Ġneither":6739,"ĠVolume":6740,"struction":6741,"Ġoccas":6742,"edial":6743,"ARY":6744,"Ġgetting":6745,"restrained":6746,"Ġuc":6747,"allowing":6748,"STEMI":6749,"Ġissues":6750,"uspected":6751,"Ġbka":6752,"ubstance":6753,"oarse":6754,"Ġpnuemonia":6755,"arcoma":6756,"Ġscc":6757,"uria":6758,"Ġivf":6759,"Ġnumber":6760,"EMENT":6761,"Ġsuperimposition":6762,"Most":6763,"ergen":6764,"Ġest":6765,"eneral":6766,"unctate":6767,"ergency":6768,"Emphysema":6769,"ĠAll":6770,"Ġfilled":6771,"Ġrequire":6772,"fi":6773,"Ġlim":6774,"Ġventral":6775,"Ġelbow":6776,"Ġheaviness":6777,"Ġmusc":6778,"ocyst":6779,"ysubstance":6780,"Ġsensation":6781,"Ġgentleman":6782,"gu":6783,"ĠRA":6784,"pticus":6785,"ps":6786,"Ġsumm":6787,"Ġmarrow":6788,"oses":6789,"Ġsurveillance":6790,"ded":6791,"Ġsure":6792,"ithiasis":6793,"Ġleading":6794,"ĠFaint":6795,"Ġunrestrained":6796,"ĠDep":6797,"appear":6798,"Posterior":6799,"Currently":6800,"pneum":6801,"Ġspaces":6802,"Ġhypertensive":6803,"cavoatrial":6804,"ardware":6805,"Ġhyperlipidemia":6806,"Ġsymmetrical":6807,"Ġhemicolectomy":6808,"OL":6809,"fusion":6810,"Ġbare":6811,"Ġhig":6812,"Ġphlegm":6813,"Ġfood":6814,"Ġadmissions":6815,"Ġlipomatosis":6816,"Ġadjustment":6817,"bronch":6818,"Ġcold":6819,"omogeneous":6820,"Ġdistinct":6821,"ĠBE":6822,"ĠIndwelling":6823,"Ġrn":6824,"Ġgreat":6825,"ĠNSTEMI":6826,"Ġswallowing":6827,"entioned":6828,"erexpansion":6829,"Ġmyasthenia":6830,"Ret":6831,"aute":6832,"stri":6833,"Ġexchange":6834,"Moderately":6835,"espite":6836,"Ġtuberculous":6837,"Ġcephalad":6838,"rogression":6839,"Ġfairly":6840,"CM":6841,"atter":6842,"Ġpsy":6843,"Ġtap":6844,"Ġinfections":6845,"ĠDi":6846,"Ġdeviated":6847,"Ġresides":6848,"Ġsicu":6849,"Ġreintubated":6850,"Ġthanks":6851,"ycar":6852,"cd":6853,"zing":6854,"onse":6855,"Ġmill":6856,"imetric":6857,"ĠSDH":6858,"Ġpassing":6859,"ĠIncidental":6860,"Ġcomplaints":6861,"Ġ)":6862,"Ġosteo":6863,"pelv":6864,"nsesophageal":6865,"orexia":6866,"ominant":6867,"ley":6868,"ĠOverlying":6869,"Hypertrophic":6870,"rist":6871,"Ġsurgeries":6872,"Ġresponse":6873,"Ġsarcoma":6874,"Ġepilepticus":6875,"strike":6876,"ulating":6877,"igo":6878,"Ġpolysubstance":6879,"Ġunderpenetrated":6880,"Ġavid":6881,"ingu":6882,"Improvement":6883,"ĠTo":6884,"Ġlie":6885,"ĠDX":6886,"Ġlaminectomy":6887,"Ġcut":6888,"axis":6889,"ORMAL":6890,"Ġsxs":6891,"Ġreturned":6892,"Ġecho":6893,"Free":6894,"vention":6895,"vef":6896,"Ġchyl":6897,"endent":6898,"romised":6899,"ulent":6900,"NCE":6901,"Poor":6902,"Ġiniti":6903,"Ġbeh":6904,"Ġcontrolled":6905,"Ġplcm":6906,"Ġanxiety":6907,"Ġplcmt":6908,"MON":6909,"vg":6910,"ĠHE":6911,"oumadin":6912,"latelike":6913,"aspinal":6914,"Ġhs":6915,"Ġolder":6916,"ĠHem":6917,"Ġgangl":6918,"Ġsomnolence":6919,"Ġreticulonodular":6920,"ĠRadiology":6921,"appearing":6922,"Ġsk":6923,"Ġbile":6924,"ĠRep":6925,"Ġimmunosuppressed":6926,"Ġbarium":6927,"Discussed":6928,"Ġdetermin":6929,"Ġhypother":6930,"Concern":6931,"cussion":6932,"ycardic":6933,"Orogastric":6934,"Ġface":6935,"Ġbarely":6936,"Ġingestion":6937,"ĠNe":6938,"achycardia":6939,"Ġgnr":6940,"Possib":6941,"TE":6942,"tical":6943,"Ġcrow":6944,"abd":6945,"ULMON":6946,"Ġbrid":6947,"traumatic":6948,"Ġsay":6949,"Ġmas":6950,"Ġurinary":6951,"au":6952,"Ġdem":6953,"athic":6954,"Ġboard":6955,"ventration":6956,"medi":6957,"anc":6958,"Ġthrombectomy":6959,"ardiopulmonary":6960,"rokes":6961,"Ex":6962,"itr":6963,"Ġlt":6964,"Ġmandi":6965,"Ġfeeds":6966,"effusions":6967,"mun":6968,"Ġvag":6969,"aily":6970,"Scattered":6971,"ULMONARY":6972,"Ġwrist":6973,"Ġreconstr":6974,"ĠFollowing":6975,"ĠDiscussed":6976,"Ġamylo":6977,"Ġherni":6978,"Spinal":6979,"Ġstricture":6980,"Atelectatic":6981,"sions":6982,"Ġdors":6983,"izure":6984,"Ġcalled":6985,"Ġtolerate":6986,"xed":6987,"Ġtail":6988,"Ġaph":6989,"Ġmiss":6990,"Ġstat":6991,"Ġstrokes":6992,"Ġthoracoscopy":6993,"ĠProductive":6994,"Ġcult":6995,"Ġseem":6996,"Ġevalaute":6997,"ĠREF":6998,"ĠLUL":6999,"Ġtransplantation":7000,"moker":7001,"ĠScarring":7002,"vancement":7003,"Ġnotified":7004,"ĠMRI":7005,"Ġtravel":7006,"ological":7007,"Ġvertebroplasty":7008,"Ġsegmental":7009,"Ġthoracoabdominal":7010,"Ġhigher":7011,"inguish":7012,"Ġcoinciding":7013,"Has":7014,"Ġhouse":7015,"ĠPRO":7016,"Ġrepresentative":7017,"Ġpersistant":7018,"Ġparaspinal":7019,"rosclerosis":7020,"Ġfluor":7021,"abine":7022,"ĠFor":7023,"ĠMO":7024,"ĠMVR":7025,"umonia":7026,"Ġloa":7027,"ATED":7028,"Appropriate":7029,"Ġpancreas":7030,"ĠMinimally":7031,"ackground":7032,"ĠInfection":7033,"ĠMetastatic":7034,"Ġtrap":7035,"oday":7036,"ĠIntubation":7037,"chor":7038,"Ġjejun":7039,"adio":7040,"ilation":7041,"entation":7042,"Ġapic":7043,"Ġtubular":7044,"Ġemergency":7045,"Resolution":7046,"ĠTIP":7047,"ĠFROM":7048,"Ġdensely":7049,"ĠSTEMI":7050,"Ġruptured":7051,"Ġsequelae":7052,"Ġgrowth":7053,"He":7054,"Ġnasal":7055,"Ġpatch":7056,"Ġsituation":7057,"Ġintoxication":7058,"Ġsummation":7059,"--":7060,"Ġtac":7061,"Ġmyc":7062,"Ġpercutaneous":7063,"Ġ___-___":7064,"Signs":7065,"ans":7066,"izontal":7067,"Ġretur":7068,"Ġmyoc":7069,"oughly":7070,"Ġdorsal":7071,"/___":7072,"Ġcore":7073,"ĠEG":7074,"ĠEar":7075,"ĠSI":7076,"Ġbenign":7077,"cardio":7078,"Ġgait":7079,"hydration":7080,"Ġlisted":7081,"nect":7082,"Ġdram":7083,"Ġthym":7084,"Ġperib":7085,"Ġanorexia":7086,"ively":7087,"ĠWhile":7088,"Ġpulling":7089,"Ġanticoagulation":7090,"Ġaffecting":7091,"Ġacidosis":7092,"Ġheadstrike":7093,"Ġhypertrophic":7094,"Ġcolonoscopy":7095,"Ġsubtotal":7096,"Coronary":7097,"Numerous":7098,"endic":7099,"ymptomatic":7100,"ĠLVAD":7101,"Ġganglia":7102,"Ġpes":7103,"stable":7104,"Minimally":7105,"ipheral":7106,"Ġsulci":7107,"Ġcx":7108,"ancre":7109,"Ġdd":7110,"urv":7111,"Ġatherosclerosis":7112,"Ġtear":7113,"Ġbroad":7114,"Ġinterspace":7115,"ĠSuggest":7116,"Ġattending":7117,"Ġsuccessful":7118,"sup":7119,"Ġaw":7120,"Ġdaily":7121,"Lucency":7122,"Ġusual":7123,"itabine":7124,"ONIA":7125,"ĠIVC":7126,"ĠIndistinct":7127,"Ġidentify":7128,"Ġpeer":7129,"Ġdriver":7130,"EV":7131,"jugular":7132,"Ġreadmitted":7133,"urysm":7134,"Ġtenting":7135,"OTH":7136,"uous":7137,"Ġpenet":7138,"Ġisin":7139,"Ġbms":7140,"ĠPULMONARY":7141,"Ġshaft":7142,"iveness":7143,"operitoneal":7144,"ĠPerihilar":7145,"Ġrecords":7146,"Ġmillimetric":7147,"nch":7148,"amine":7149,"utr":7150,"Ġscale":7151,"Ġmarginal":7152,"Ġdiabetic":7153,"Ġpurulent":7154,"Ġchylothorax":7155,"Rep":7156,"atisfactory":7157,"diop":7158,"Ġdistinguish":7159,"Ġyou":7160,"current":7161,"Ġmentioned":7162,"osarcoma":7163,"sidering":7164,"Ġintravascular":7165,"rogressive":7166,"Ġqual":7167,"Ġoccupy":7168,"Ġhepato":7169,"Ġpermits":7170,"uloperitoneal":7171,"ORA":7172,"Ġunde":7173,"oplastic":7174,"ĠVP":7175,"Ġadenoca":7176,"form":7177,"Ġshaped":7178,"lerg":7179,"Ġvertigo":7180,"To":7181,"Ġflap":7182,"Ġintervention":7183,"Ġperson":7184,"Superiorly":7185,"Ġreconstruction":7186,"ool":7187,"Ġwk":7188,"Ġlar":7189,"ents":7190,"anges":7191,"oneph":7192,"emb":7193,"Ġcocaine":7194,"ĠDepartment":7195,"Elevated":7196,"ĠAspiration":7197,"Ġoverinflated":7198,"Ġoccup":7199,"ĠPNEUMONIA":7200,"Ġpalsy":7201,"Ġectatic":7202,"diopathic":7203,"oce":7204,"hep":7205,"Ġganz":7206,"emonstrates":7207,"obacter":7208,"Ġadmin":7209,"emaining":7210,"ĠPleurx":7211,"ĠTortuosity":7212,"Ġcryptogenic":7213,"For":7214,"cs":7215,"Ġtalc":7216,"ĠOne":7217,"Ġgastrostomy":7218,"Ġtemporal":7219,"congestion":7220,"utrition":7221,"IB":7222,"omit":7223,"Ġrun":7224,"ĠDVT":7225,"Ġtracheoplasty":7226,"ĠPEG":7227,"Ġcarcinomatosis":7228,"Bones":7229,"Ġtrop":7230,"ĠCirrhosis":7231,"ĠPAT":7232,"Ġdropping":7233,"Ġoffice":7234,"licated":7235,"Ġonto":7236,"ipital":7237,"Ġidiopathic":7238,"Ġinfected":7239,"quential":7240,"Ġimplantation":7241,"Hyperinflated":7242,"Ġfavoring":7243,"MAL":7244,"pl":7245,"sal":7246,"Ġroughly":7247,"Ġtransjugular":7248,"Parenchymal":7249,"Ġscrews":7250,"Ġhorizontal":7251,"Ext":7252,"Greater":7253,"ebrile":7254,"onset":7255,"onvex":7256,"Ġtend":7257,"edown":7258,"ocomp":7259,"ĠMCA":7260,"Ġamput":7261,"bleed":7262,"Ġaphasia":7263,"omor":7264,"ĠAfib":7265,"Ġent":7266,"Ġpressors":7267,"ĠSuperiorly":7268,"Ġpseudo":7269,"Ġcallus":7270,"Cough":7271,"Ġfol":7272,"ĠCoronary":7273,"ĠCARD":7274,"llip":7275,"Ġobject":7276,"issural":7277,"Ġsoon":7278,"ĠUTI":7279,"jejunostomy":7280,"ORAX":7281,"Bronchial":7282,"sub":7283,"ĠJ":7284,"ĠQ":7285,"Ġvre":7286,"Ġtakedown":7287,"Ġphysi":7288,"Ġthyroidectomy":7289,"ĠHypertrophic":7290,"ĠHypotension":7291,"Ġformer":7292,"Ġlooking":7293,"ogast":7294,"Ġannuloplasty":7295,"ĠHCV":7296,"urvilinear":7297,"Ġting":7298,"Ġthose":7299,"Ġgland":7300,"Ġdiscontinued":7301,"Ġcurled":7302,"Ġtv":7303,"Ġbipolar":7304,"col":7305,"Ġintermedi":7306,"Upright":7307,"Ġinclusion":7308,"aresis":7309,"Ġsvg":7310,"Ġdelay":7311,"Ġallow":7312,"Tube":7313,"Ġdepicted":7314,"Ġ___),":7315,"Ġmorbid":7316,"Ġbronchopneumonia":7317,"ĠdCHF":7318,"Ġansw":7319,"Ġflush":7320,"Ġinsulin":7321,"Ġstriking":7322,"Ġhrs":7323,"Less":7324,"Ġtim":7325,"rape":7326,"Ġhypopharynx":7327,"than":7328,"ĠHCAP":7329,"bd":7330,"plate":7331,"resum":7332,"ĠEx":7333,"Standard":7334,"Ġcorrectly":7335,"Attention":7336,"Ġimmunocomp":7337,"Ġadminist":7338,"Hem":7339,"Ġdim":7340,"ĠOrogastric":7341,"veloping":7342,"ondyl":7343,"Ġcirc":7344,"Ġabscesses":7345,"ĠDecrease":7346,"Ġtracheobronchial":7347,"Ġlooks":7348,"ĠSpinal":7349,"Ġseriously":7350,"Healed":7351,"oled":7352,"Ġturn":7353,"ĠExt":7354,"Ġxrt":7355,"aches":7356,"ERENCE":7357,"Ġgradual":7358,"Ġapicolateral":7359,"atoid":7360,"ulate":7361,"Ġupgrade":7362,"yth":7363,"Ngt":7364,"Ġdependence":7365,"lliptical":7366,"ĠAB":7367,"utic":7368,"Ġangina":7369,"Ġdiscord":7370,"Ġeffus":7371,"Ġhypothermia":7372,"ardial":7373,"ĠRVR":7374,"Ġparaesophageal":7375,"bore":7376,"Ġbic":7377,"fts":7378,"Ġfocally":7379,"ĠDIS":7380,"ypnea":7381,"ietal":7382,"roken":7383,"Ġquality":7384,"Ġamputation":7385,"rapeutic":7386,"itated":7387,"Ġdht":7388,"ĠAnterior":7389,"centimeter":7390,"oscoliosis":7391,"Ġll":7392,"Ġ-___":7393,"volume":7394,"eth":7395,"Ġunequ":7396,"agni":7397,"ĠBasilar":7398,"IENT":7399,"ĠSubsegmental":7400,"Ġsuctioning":7401,"Ġanatom":7402,"Ġunequivocal":7403,"Ġasp":7404,"umb":7405,"opa":7406,"Ġsupporting":7407,"Ġaspirated":7408,"Ġrejection":7409,"istic":7410,"Dobhoff":7411,"dis":7412,"kal":7413,"ĠEp":7414,"Ġallerg":7415,"openic":7416,"Ġradiodense":7417,"ocrit":7418,"Irregular":7419,"ĠRelative":7420,"luent":7421,"Ġoutlet":7422,"Ġdistally":7423,"Ġfactors":7424,"ĠTortuous":7425,"Ġinhal":7426,"Ġdonor":7427,"ĠREFERENCE":7428,"ĠPATIENT":7429,"rex":7430,"Ġcode":7431,"Ġpole":7432,"Ġrca":7433,"Ġbreak":7434,"ĠConfirm":7435,"Ġpseudomonas":7436,"juv":7437,"over":7438,"Ġsymptomatic":7439,"Ġosteophyte":7440,"ĠScattered":7441,"hypoxia":7442,"Ġaccurately":7443,"greater":7444,"Ġlvef":7445,"otrex":7446,"Ġronchi":7447,"ĠPleurX":7448,"Ġlimb":7449,"Ġmask":7450,"otrexate":7451,"Aeration":7452,"Ġrelap":7453,"uted":7454,"OTHORAX":7455,"Ġram":7456,"Ġdeficiency":7457,"Ġoverloaded":7458,"Ġdictated":7459,"ĠDifferential":7460,"Ġhemodynamically":7461,"Ġproblems":7462,"riple":7463,"Ġvanc":7464,"ĠHLD":7465,"Ġpreg":7466,"ĠNear":7467,"ickening":7468,"Ġtemps":7469,"CLC":7470,"Ġulcers":7471,"uter":7472,"Ġhomogeneous":7473,"ĠMass":7474,"ĠBones":7475,"ITY":7476,"Ġcoalescent":7477,"Ġ'":7478,"resolution":7479,"Ġtooth":7480,"odged":7481,"Ġhyperd":7482,"ellow":7483,"Ġrhon":7484,"Ġiliac":7485,"Ġscene":7486,"Ġgallstone":7487,"Ġoccupying":7488,"pacity":7489,"Ġsiz":7490,"ostophrenic":7491,"ĠQuestionable":7492,"Reason":7493,"aneurysm":7494,"altered":7495,"erley":7496,"Ġbif":7497,"ostal":7498,"Ġemailed":7499,"App":7500,"Ġbiopsies":7501,"Ġulcerative":7502,"Ġlargest":7503,"Ġimmunocompromised":7504,"NING":7505,"Ġhh":7506,"Ġunstable":7507,"Ġmoved":7508,"Ġresected":7509,"Ġpredominating":7510,"Subsegmental":7511,"Change":7512,"ĠPNEUMOTHORAX":7513,"ĠDifficult":7514,"Ġendometrial":7515,"eneralized":7516,"pelvis":7517,"Whether":7518,"ĠAtelectatic":7519,"utamine":7520,"Ġintake":7521,"arget":7522,"omycin":7523,"iguous":7524,"Ġdetecting":7525,"Ġnonproductive":7526,"Ġtachypneic":7527,"Ġpyloric":7528,"Ġkinked":7529,"Ġmethotrexate":7530,"hl":7531,"Ġhbv":7532,"Ġcontribut":7533,"ĠSuspect":7534,"Ġtachycardic":7535,"Ġdobutamine":7536,"Ġobstructing":7537,"Decrease":7538,"ĠLOW":7539,"ogastrectomy":7540,"cending":7541,"eleph":7542,"olus":7543,"immun":7544,"Ġhematocrit":7545,"Ġrheumatoid":7546,"juvant":7547,"aiting":7548,"tubated":7549,"positioning":7550,"Ġcommonly":7551,"Suspect":7552,"now":7553,"ye":7554,"increased":7555,"Ġreading":7556,"Ġglass":7557,"Ġretention":7558,"bx":7559,"centesis":7560,"Ġcns":7561,"Ġoval":7562,"Ġfine":7563,"vest":7564,"ircum":7565,"Ġcardiovascular":7566,"ĠRet":7567,"Ġnecessarily":7568,"Ġtenth":7569,"LI":7570,"ulus":7571,"Ġappend":7572,"Ġrs":7573,"Ġasymptomatic":7574,"Ġendplate":7575,"Ġdesatting":7576,"Ġplanned":7577,"Ġbipap":7578,"Ġsafe":7579,"Ġcannula":7580,"heezing":7581,"elephone":7582,"ĠFluid":7583,"Ġmany":7584,"uretic":7585,"ĠNewly":7586,"Ġradiol":7587,"Only":7588,"Ġoptimally":7589,"demonstrates":7590,"ĠPORT":7591,"Ġbig":7592,"Ġpending":7593,"Ġyet":7594,"ĠPEA":7595,"Crowding":7596,"atectomy":7597,"ĠPT":7598,"ĠPoor":7599,"ĠRib":7600,"ositioning":7601,"Ġlue":7602,"omewhat":7603,"Ġbp":7604,"Ġevents":7605,"Airspace":7606,"ACEMENT":7607,"displaced":7608,"tect":7609,"Ġdestruction":7610,"Ġgtt":7611,"ĠURI":7612,"Ġhypercarbia":7613,"Remote":7614,"arm":7615,"Ġelliptical":7616,"ides":7617,"Ġcardiover":7618,"Ġpostobstructive":7619,"illary":7620,"Ġbloody":7621,"lobular":7622,"ĠAdjacent":7623,"Ġcorrelates":7624,"nic":7625,"Ġast":7626,"Ġsimp":7627,"ĠSUP":7628,"Ġendoscopy":7629,"Ġfavors":7630,"eve":7631,"LECT":7632,"Ġnever":7633,"Ġpacu":7634,"Ġseparation":7635,"Ġdenote":7636,"Ġdislodged":7637,"omorrow":7638,"Hx":7639,"Ġolt":7640,"Ġbroken":7641,"oling":7642,"Ġposted":7643,"Ġvari":7644,"rostomy":7645,"Ġglobal":7646,"dalek":7647,"hanced":7648,"Ġpv":7649,"charg":7650,"ĠCoumadin":7651,"ĠLe":7652,"Ġoutpatient":7653,"Ġexaggeration":7654,"ULAR":7655,"Ġavidity":7656,"Ġbridging":7657,"dule":7658,"ty":7659,"ĠAeration":7660,"Ġsubstantiated":7661,"reciable":7662,"Ġvarious":7663,"ardiocentesis":7664,"Ġdimension":7665,"Ġunequivocally":7666,"Pt":7667,"Ver":7668,"ingular":7669,"ĠER":7670,"Ġtell":7671,"Ġyellow":7672,"nsplant":7673,"Ġdiuresed":7674,"ĠTube":7675,"charged":7676,"That":7677,"cxr":7678,"went":7679,"Ġccy":7680,"rable":7681,"ĠPart":7682,"Ġperiod":7683,"Ġgli":7684,"Ġangulation":7685,"dep":7686,"moderately":7687,"Ġproperly":7688,"Ġeosinophilic":7689,"Ġmycobacter":7690,"bi":7691,"Ġbolus":7692,"Ġappendic":7693,"ipation":7694,"ĠWorsened":7695,"Pneumomediastinum":7696,"Ġcovering":7697,"pair":7698,"Ġdocumentation":7699,"Ġpoints":7700,"tectable":7701,"pop":7702,"Ġcase":7703,"Ġlist":7704,"reme":7705,"Ġarms":7706,"Ġproximally":7707,"Ġflexure":7708,"Ġusing":7709,"ĠPLACEMENT":7710,"dependent":7711,"Ġure":7712,"Ġluq":7713,"Ġdysp":7714,"ĠAV":7715,"Ġdiscuss":7716,"Ġhemip":7717,"ronchiectasis":7718,"Appreciable":7719,"#___":7720,"CI":7721,"Over":7722,"undic":7723,"Ġunaltered":7724,"Ġdiuretic":7725,"iltrates":7726,"Ġesophagogastrectomy":7727,"long":7728,"Ġsm":7729,"They":7730,"clus":7731,"ĠNumerous":7732,"oblast":7733,"Ġventilatory":7734,"Postsurgical":7735,"onephritis":7736,"Ġoccupies":7737,"Lob":7738,"tact":7739,"arca":7740,"diography":7741,"Ġdischarged":7742,"lucent":7743,"Ġpanc":7744,"week":7745,"Ġseems":7746,"Last":7747,"enable":7748,"Ġcontiguous":7749,"ĠMV":7750,"Ġsimilarly":7751,"Unremarkable":7752,"Ġplanning":7753,"Ġreversal":7754,"Ġmuscle":7755,"costal":7756,"mediastinal":7757,"ĠCLL":7758,"Ġpeak":7759,"syncope":7760,"hepatic":7761,"Deformity":7762,"eus":7763,"Ġficu":7764,"ĠTUBE":7765,"tubation":7766,"Ġprogressively":7767,"Ġvirt":7768,"oplication":7769,"Ġfactor":7770,"Ġpsych":7771,"vole":7772,"Ġfeatures":7773,"hc":7774,"Ġamenable":7775,"ivascular":7776,"sternotomy":7777,"Ġlocalizing":7778,"Abnormality":7779,"Ġjaw":7780,"eness":7781,"ĠHealed":7782,"Ġpreexisting":7783,"Ġgiving":7784,"ĠPosterior":7785,"Ġrods":7786,"Ġorganizing":7787,"Ġmultiloculated":7788,"ĠEarlier":7789,"oblastoma":7790,"ĠAA":7791,"ĠMid":7792,"chym":7793,"Ġamio":7794,"ption":7795,"cephalus":7796,"Ġpericardiocentesis":7797,"Ġosseus":7798,"Ġintermedius":7799,"ircumscribed":7800,"CO":7801,"Mitral":7802,"Well":7803,"Ġtomorrow":7804,"Ġreaches":7805,"Ġmax":7806,"ament":7807,"yps":7808,"Ġosteopenic":7809,"ĠUN":7810,"Ġexcision":7811,"Ġdetermined":7812,"Best":7813,"Indwelling":7814,"Prosthetic":7815,"ua":7816,"ilat":7817,"emp":7818,"ĠCrowding":7819,"Ġsequential":7820,"Ġyr":7821,"Ġpneumonias":7822,"venox":7823,"Nevertheless":7824,"Ġconce":7825,"ĠCorrelate":7826,"Ġfell":7827,"Ġbranch":7828,"Ġfundoplication":7829,"Ġorthopedic":7830,"cardiogenic":7831,"Ġpseudoaneurysm":7832,"Fullness":7833,"Ġcort":7834,"Ġradic":7835,"Ġdefect":7836,"Ġcephalic":7837,"Ġtrapped":7838,"HO":7839,"circumscribed":7840,"edge":7841,"robably":7842,"Ġentering":7843,"lto":7844,"tre":7845,"alle":7846,"Ġcrack":7847,"Ġfam":7848,"ulations":7849,"Ġexact":7850,"ĠAsthma":7851,"EMA":7852,"Ġreticulation":7853,"Metallic":7854,"Ġaft":7855,"ĠCurrently":7856,"Ġsta":7857,"ositive":7858,"ongue":7859,"Ġinvolve":7860,"EDIA":7861,"Ġdownward":7862,"iate":7863,"osp":7864,"Ġintestinal":7865,"Ġreal":7866,"ĠWAR":7867,"Ġtbbx":7868,"Ġprojectional":7869,"Ġimplants":7870,"Ġadministration":7871,"Co":7872,"Ġacu":7873,"Ġnc":7874,"ĠApical":7875,"Ġlobulated":7876,"Ġintravenous":7877,"Ġmainly":7878,"Alternatively":7879,"Ġanastomotic":7880,"Ġcrowded":7881,"Skeletal":7882,"posed":7883,"Ġtot":7884,"Ġinte":7885,"omegaly":7886,"Ġreaccum":7887,"ĠICH":7888,"ART":7889,"Intra":7890,"Ġ40":7891,"arelto":7892,"Ġsheet":7893,"Ġseparately":7894,"Ġfungemia":7895,"Ġscheduled":7896,"Ġanterolateral":7897,"Cholecystectomy":7898,"ĠLo":7899,"Ġextraction":7900,"ĠDes":7901,"Ġangi":7902,"Ġresections":7903,"Peribronchial":7904,"Ġrig":7905,"Ġfragments":7906,"Ġsacral":7907,"Respiratory":7908,"rian":7909,"ilities":7910,"olitis":7911,"Ġatx":7912,"iform":7913,"ĠEnd":7914,"ĠSEMI":7915,"Ġperivascular":7916,"Ġanoxic":7917,"ĠRemote":7918,"obectomy":7919,"Ġdetectable":7920,"ukocytosis":7921,"Ġoxygenation":7922,"Ġdiscern":7923,"Report":7924,"adiation":7925,"Ġconversion":7926,"itonitis":7927,"vestig":7928,"rup":7929,"Ġsss":7930,"Ġinters":7931,"ernoon":7932,"Ġcatheterization":7933,"minuted":7934,"Ġmasslike":7935,"Ġafternoon":7936,"ĠCOUGH":7937,"Ġsupra":7938,"ĠCTs":7939,"Ġarri":7940,"complicated":7941,"Ġanastam":7942,"immune":7943,"ĠWARNING":7944,"OP":7945,"Ġtongue":7946,"Ġinstead":7947,"asarca":7948,"ĠIntra":7949,"alcemia":7950,"rossly":7951,"Ġadeno":7952,"Ġglenoid":7953,"Ġmandible":7954,"Ġglioblastoma":7955,"Combination":7956,"SA":7957,"bal":7958,"tension":7959,"enced":7960,"Ġbal":7961,"Ġradiographdemonstrates":7962,"axia":7963,"ĠEt":7964,"ĠRML":7965,"ogenous":7966,"Ġhaart":7967,"ĠDedicated":7968,"Ġunwell":7969,"Ġbehind":7970,"smoker":7971,"zhe":7972,"Ġcc":7973,"Ġconnect":7974,"Ġambulation":7975,"Ġclarify":7976,"Ġhsct":7977,"zheim":7978,"yn":7979,"Ġchna":7980,"ĠDKA":7981,"Ġdraining":7982,"Ġresidua":7983,"Ġparalysis":7984,"Ġmedication":7985,"Ġdepos":7986,"Ġcrossing":7987,"Ġgrowing":7988,"Ġugib":7989,"argeted":7990,"UT":7991,"cx":7992,"Ġspurring":7993,"Ġblast":7994,"Ġparalle":7995,"Ġindentation":7996,"Ġbullae":7997,"Indistinctness":7998,"Ġcardioversion":7999,"Pfi":8000,"do":8001,"visional":8002,"Ġseven":8003,"STIN":8004,"Ġrecall":8005,"Ġcontinuing":8006,"Ġscars":8007,"Ġmesh":8008,"adiopaque":8009,"ĠAAA":8010,"EDIASTIN":8011,"pr":8012,"uge":8013,"ĠCholecystectomy":8014,"ĠMost":8015,"estrian":8016,"ventilation":8017,"ĠHCC":8018,"Ġpedal":8019,"Ġtropon":8020,"renia":8021,"uma":8022,"ĠPCP":8023,"Ġagainst":8024,"Ġconcerned":8025,"Ġdenser":8026,"Ġcombines":8027,"Ġpreserved":8028,"ĠEGD":8029,"Fracture":8030,"Ġinnumerable":8031,"esides":8032,"Ġdyst":8033,"Ġplacem":8034,"Ġvision":8035,"Ġventriculoperitoneal":8036,"ĠConfusion":8037,"Ġligament":8038,"Ġsizable":8039,"And":8040,"Ġcouple":8041,"used":8042,"Ġplacment":8043,"andoned":8044,"ĠOPA":8045,"Rightward":8046,"Provisional":8047,"Ġhemodynamic":8048,"ĠNSCLC":8049,"oval":8050,"Ġperitonitis":8051,"ophrenia":8052,"FI":8053,"cardiac":8054,"ky":8055,"Ġcbleed":8056,"atically":8057,"Ġhow":8058,"Ġbeg":8059,"Ġdehis":8060,"ositioned":8061,"ĠPreoperative":8062,"Ġoblit":8063,"Ġelectrodes":8064,"Ġrestrictive":8065,"Ġcontributing":8066,"Ġtotally":8067,"Ġchnage":8068,"IF":8069,"intestinal":8070,"neath":8071,"chial":8072,"Ġlady":8073,"Ġinfarcts":8074,"Ġvertebrae":8075,"Ġbigger":8076,"face":8077,"Ġnhl":8078,"Ġheter":8079,"Ġdiscussion":8080,"ĠVer":8081,"rance":8082,"Ġchemor":8083,"attery":8084,"Og":8085,"Pigtail":8086,"Ġstra":8087,"Ġcontains":8088,"ĠSigns":8089,"Ġaltern":8090,"Ġreadjust":8091,"Ġunderneath":8092,"portion":8093,"Ġnephropathy":8094,"ĠAppearance":8095,"ĠPLEASE":8096,"Ġacuity":8097,"Side":8098,"oventricular":8099,"Ġnp":8100,"Ġepig":8101,"Ġsites":8102,"ĠConventional":8103,"Ġincar":8104,"ullary":8105,"Ġburning":8106,"Ġcoarsening":8107,"single":8108,"legia":8109,"Ġlay":8110,"gestive":8111,"issen":8112,"Ġquery":8113,"ucity":8114,"Newly":8115,"Ġinstability":8116,"Ġburst":8117,"ĠEtOH":8118,"Ġset":8119,"amic":8120,"imated":8121,"ococ":8122,"Ġmixed":8123,"Ġiii":8124,"ĠPMHx":8125,"hemothorax":8126,"undice":8127,"Basal":8128,"PTX":8129,"Ġinvestig":8130,"entall":8131,"chors":8132,"Ġanasarca":8133,"Transesophageal":8134,"Ġconcurrently":8135,"ĠMRSA":8136,"Ġechocardiography":8137,"Size":8138,"eper":8139,"var":8140,"Ġpunctate":8141,"Ġfill":8142,"Ġreli":8143,"ries":8144,"Ġheroin":8145,"ĠSMAL":8146,"Ġprefer":8147,"rachea":8148,"Leftward":8149,"Ġrod":8150,"Ġthrombocyt":8151,"ng":8152,"Ġfolded":8153,"Therefore":8154,"ĠMS":8155,"Ġairless":8156,"aging":8157,"Intubated":8158,"Ġsust":8159,"alpitations":8160,"Ġhydrocephalus":8161,"Ġips":8162,"Ġour":8163,"ĠsCHF":8164,"aning":8165,"ĠThorac":8166,"avitary":8167,"cluded":8168,"Ġxarelto":8169,"Ġrelay":8170,"Ġdescends":8171,"Ġhealth":8172,"Ġcraniectomy":8173,"resumed":8174,"Ġvariant":8175,"Ġpd":8176,"Ġaids":8177,"Ġway":8178,"Ġhit":8179,"RED":8180,"spasm":8181,"egree":8182,"Ġgsw":8183,"Ġgroin":8184,"lig":8185,"quency":8186,"ĠShallow":8187,"Ġtermination":8188,"Ġmissed":8189,"ĠTIPS":8190,"Ġhemiparesis":8191,"oke":8192,"lena":8193,"Ġupdated":8194,"Ġrepresented":8195,"ĠDoubt":8196,"roconvex":8197,"Ġexpanding":8198,"Ġipsilateral":8199,"rum":8200,"vomiting":8201,"Ġserv":8202,"otomies":8203,"ĠCC":8204,"abl":8205,"Ġsubcentimeter":8206,"Ġadrenal":8207,"assessment":8208,"pectomy":8209,"Ġequ":8210,"Ġinterventional":8211,"ĠHe":8212,"ĠPostsurgical":8213,"Massive":8214,"ocrine":8215,"Obscuration":8216,"Ġarchitecture":8217,"Ġhypercalcemia":8218,"vir":8219,"Ġcarries":8220,"Ġnecrotic":8221,"latt":8222,"Ġcompartment":8223,"Ġrequires":8224,"ILD":8225,"mphysematous":8226,"ĠERCP":8227,"Cardiopulmonary":8228,"Ġwal":8229,"phragm":8230,"Ġuppermost":8231,"ĠDist":8232,"Ġneoplastic":8233,"ĠStroke":8234,"Ġyrs":8235,"Ġevening":8236,"Questionable":8237,"ANGED":8238,"AIN":8239,"Ġtace":8240,"isition":8241,"ĠPigtail":8242,"Ġdefic":8243,"paresis":8244,"Ġgrown":8245,"Ġawaiting":8246,"Coarse":8247,"Ġbesides":8248,"ching":8249,"ĠINTER":8250,"Ġclass":8251,"Ġavoid":8252,"Ġreferrable":8253,"Ġfasci":8254,"Ġundetectable":8255,"Ġwob":8256,"Ġstrep":8257,"Ġstool":8258,"Ġproct":8259,"Ġataxia":8260,"extubation":8261,"Ġexaggerates":8262,"Ġkink":8263,"Ġjaundice":8264,"guided":8265,"Ġmyocardial":8266,"duc":8267,"licular":8268,"Ġhl":8269,"ĠILD":8270,"lapse":8271,"distal":8272,"Ġesophagitis":8273,"Ġneoad":8274,"ĠSeizure":8275,"Ġbicycle":8276,"Ġrelayed":8277,"VE":8278,"fl":8279,"Ġperc":8280,"osures":8281,"ulti":8282,"hood":8283,"ffective":8284,"Ġmicron":8285,"GEST":8286,"ioma":8287,"Ġsct":8288,"asthma":8289,"ĠHx":8290,"ĠRecurrent":8291,"Ġbands":8292,"Ġnecrosis":8293,"Ġfeels":8294,"ĠTubes":8295,"Ġcholed":8296,"cessive":8297,"ĠMitral":8298,"ĠAttention":8299,"zheimer":8300,"Ġincarcer":8301,"Are":8302,"FA":8303,"Fever":8304,"nutrition":8305,"isy":8306,"Ġapart":8307,"ĠPosition":8308,"Ġcontribution":8309,"Ġoropharynx":8310,"Ġtran":8311,"Ġemail":8312,"Ġconspicuity":8313,"Ġvariation":8314,"Ġqa":8315,"Ġdiscontinuity":8316,"svc":8317,"ining":8318,"Ġdominant":8319,"Ġprovide":8320,"Ġcoming":8321,"ĠFevers":8322,"Ġheadaches":8323,"Ġelectrode":8324,"ĠSMALL":8325,"tvr":8326,"with":8327,"inous":8328,"nding":8329,"ourse":8330,"ĠSkeletal":8331,"uccessful":8332,"xpected":8333,"Ġdirectly":8334,"carinal":8335,"ĠPACS":8336,"Ġoccasional":8337,"Today":8338,"oa":8339,"Ġate":8340,"rene":8341,"Ġrepo":8342,"Ġprof":8343,"Ġprocedural":8344,"CHANGED":8345,"Ġclust":8346,"Ġexcludes":8347,"ĠVAP":8348,"Ġmelena":8349,"Ġinvolves":8350,"Ġurine":8351,"ĠEDEMA":8352,"Ġbecome":8353,"Ġbulging":8354,"Ġparaplegia":8355,"Ġreveals":8356,"Ġschizophrenia":8357,"Ġtailored":8358,"Ġdehiscence":8359,"Mu":8360,"ten":8361,"xn":8362,"alasia":8363,"alamic":8364,"eron":8365,"Ġunit":8366,"iferon":8367,"ĠLucency":8368,"obar":8369,"ractures":8370,"Ġremained":8371,"Ġadmit":8372,"ĠCONS":8373,"Ġroot":8374,"Ġarthropathy":8375,"ĠUNCHANGED":8376,"Ġservice":8377,"gl":8378,"Ġostomy":8379,"olysis":8380,"Ġpop":8381,"Ġcalcium":8382,"ĠStandard":8383,"Ġhematuria":8384,"Ġdiuresing":8385,"Ġaccounted":8386,"Ġangiogram":8387,"Ġcircumstance":8388,"kalemia":8389,"ELECT":8390,"Recurrent":8391,"bl":8392,"Ġtur":8393,"egion":8394,"achypnea":8395,"endocrine":8396,"ĠATELECT":8397,"Ġcontacted":8398,"Ġfolds":8399,"Ġconstipation":8400,"Ġappendicitis":8401,"ZE":8402,"arte":8403,"Ġinduced":8404,"Ġcaring":8405,"Ġfront":8406,"Ġimport":8407,"trathoracic":8408,"Ġmalfunction":8409,"Ġwalls":8410,"Ġrigid":8411,"Ear":8412,"Ġlcx":8413,"Ġdullness":8414,"Ġmalnutrition":8415,"recent":8416,"ASIS":8417,"Ġphtn":8418,"Conventional":8419,"leted":8420,"Ġkinking":8421,"Ġpedestrian":8422,"Ġfollicular":8423,"Cpd":8424,"cation":8425,"Ġcycle":8426,"___%":8427,"Ġlovenox":8428,"Ġseed":8429,"ĠIrregular":8430,"opic":8431,"Ġnarrowed":8432,"Ġlabs":8433,"Lo":8434,"heal":8435,"ubic":8436,"ĠHas":8437,"lique":8438,"ficial":8439,"Ġfacet":8440,"rohns":8441,"Ġobliter":8442,"ĠDISH":8443,"clusive":8444,"Ġvirtually":8445,"Ġfilling":8446,"Ġthrombocytopenia":8447,"Ġtvr":8448,"Ġprep":8449,"arkins":8450,"Ġgp":8451,"ĠNE":8452,"ĠBi":8453,"Ġdesatur":8454,"Ġrelapsed":8455,"catheter":8456,"thorac":8457,"Ġray":8458,"utropen":8459,"Ġhyperkalemia":8460,"Ġmedicine":8461,"Ġlocalize":8462,"Ġadequately":8463,"Ġherniation":8464,"Ġconceiv":8465,"cribed":8466,"Ġbattery":8467,"Ġnoon":8468,"occ":8469,"Ġendarte":8470,"Ġaccept":8471,"Ġmeant":8472,"Ġmajority":8473,"Shallow":8474,"cellular":8475,"Ġadjusted":8476,"Ġpenumonia":8477,"ansile":8478,"Ġdiscordance":8479,"agnif":8480,"Ġcholedoch":8481,"oaffective":8482,"Hardware":8483,"fissural":8484,"Ġom":8485,"termittent":8486,"irub":8487,"Ġpossibilities":8488,"inflamm":8489,"cyt":8490,"Ġdepressed":8491,"Ġembolic":8492,"Ġgangrene":8493,"Ġusually":8494,"NS":8495,"Outside":8496,"down":8497,"Ġmagnif":8498,"ĠLess":8499,"cluding":8500,"assisted":8501,"lace":8502,"ogene":8503,"Ġobliques":8504,"ituitary":8505,"Ġcopious":8506,"ĠMassive":8507,"Loculated":8508,"Present":8509,"Ġexisted":8510,"Ġhyperlucent":8511,"Ġmarking":8512,"Stomach":8513,"Ġpathological":8514,"Ġexplaining":8515,"Ġneurologic":8516,"Ġuseful":8517,"Ġpreferably":8518,"flutter":8519,"teral":8520,"stances":8521,"ĠTachycardia":8522,"proximal":8523,"ĠDeformity":8524,"Ġexposures":8525,"ophoff":8526,"ĠETOH":8527,"Ġclamping":8528,"Ġconvexity":8529,"Ġlabored":8530,"Ġvolv":8531,"dislocation":8532,"Ġdeposits":8533,"Ġmeantime":8534,"uated":8535,"inning":8536,"Ġmeld":8537,"Ġhall":8538,"aseline":8539,"olidative":8540,"ĠEffusion":8541,"Ġevidenced":8542,"Ġappearances":8543,"ĠRedemonstrated":8544,"Pleura":8545,"Considering":8546,"Ġbiop":8547,"Ġgastroparesis":8548,"Ġgrafting":8549,"Changes":8550,"Ġneuroendocrine":8551,"ĠEpigastric":8552,"remely":8553,"Def":8554,"ording":8555,"omas":8556,"Ġvl":8557,"Ġhuge":8558,"Ġbike":8559,"Chain":8560,"Ġformations":8561,"Ġtraversing":8562,"Ġofficer":8563,"Ġanswered":8564,"AY":8565,"PER":8566,"ave":8567,"Ġpyel":8568,"Ġstress":8569,"Ġapnea":8570,"nife":8571,"ĠSatisfactory":8572,"Ġsettings":8573,"Ġattn":8574,"Ġguarding":8575,"extroscoliosis":8576,"Ġpsl":8577,"Ġangioplasty":8578,"Despite":8579,"oac":8580,"ria":8581,"Ġinfil":8582,"ĠMICU":8583,"Ġsubcarinal":8584,"Ġworst":8585,"Ġgastrointestinal":8586,"Ġseparate":8587,"Partial":8588,"ĠLOWER":8589,"ĠSUPINE":8590,"ĠATELECTASIS":8591,"Ġacceptable":8592,"UQ":8593,"VD":8594,"be":8595,"neck":8596,"Nodule":8597,"ĠII":8598,"Ġ70":8599,"ĠAlternatively":8600,"zygos":8601,"Ġipf":8602,"Ġexploration":8603,"Confirm":8604,"AN":8605,"ARED":8606,"lateral":8607,"hema":8608,"Ġcome":8609,"Ġod":8610,"Ġexce":8611,"chronic":8612,"ĠHiatal":8613,"Ġscle":8614,"Ġket":8615,"Ġ___%.":8616,"Ġcranial":8617,"ĠResolved":8618,"Ġdvts":8619,"Ġligation":8620,"Ġrny":8621,"Ġvolvulus":8622,"High":8623,"Ġpituitary":8624,"resence":8625,"abnormality":8626,"Ġyom":8627,"Ġparietal":8628,"Ġheparin":8629,"Ġneutral":8630,"Ġnephrostomy":8631,"Ġmesent":8632,"Ġreaching":8633,"ĠObscuration":8634,"Ġjejunum":8635,"Ġradiolucency":8636,"Suture":8637,"vertebral":8638,"Ġdehydration":8639,"Ġanchors":8640,"ĠNevertheless":8641,"Ġxr":8642,"TIAL":8643,"Ġnsip":8644,"Ġspeed":8645,"Ġthymectomy":8646,"ducible":8647,"reast":8648,"atric":8649,"ached":8650,"Ġcompleted":8651,"Ġunstead":8652,"cule":8653,"Ġapproval":8654,"distributed":8655,"ythema":8656,"Ġdramatically":8657,"Rest":8658,"history":8659,"Ġcyc":8660,"Ġdophoff":8661,"ontine":8662,"Ġperi":8663,"ĠNausea":8664,"Ġsuic":8665,"Ġintrafissural":8666,"Peripheral":8667,"Ġhypoventilation":8668,"Hyperexpansion":8669,"Ġestabl":8670,"Ġhepatocellular":8671,"irubin":8672,"Ġcycles":8673,"CRE":8674,"Curvilinear":8675,"TUBE":8676,"cont":8677,"for":8678,"Ġpel":8679,"Ġlfts":8680,"Ġdose":8681,"Ġpaucity":8682,"ĠSuspected":8683,"Ġgive":8684,"Ġadvance":8685,"Ġpatency":8686,"Ġrhabd":8687,"Ġweighted":8688,"Ġallergic":8689,"Doubt":8690,"ngorg":8691,"part":8692,"otated":8693,"Ġcongen":8694,"aban":8695,"cectomy":8696,"Ġcontrol":8697,"Ġword":8698,"Ġpredominately":8699,"Ġsaturations":8700,"Ġquantiferon":8701,"Ġautoimmune":8702,"Ġaspergillosis":8703,"oacidosis":8704,"Ġketoacidosis":8705,"dor":8706,"enal":8707,"Ġreevaluate":8708,"ĠAfter":8709,"Ġintercostal":8710,"Ġdistant":8711,"alyzed":8712,"Ġporta":8713,"Ġresolve":8714,"ASC":8715,"Ġcpd":8716,"Ġ--___":8717,"Ġattempts":8718,"Ġdiverticul":8719,"Ġstaff":8720,"Ġendarterectomy":8721,"Ġpyelonephritis":8722,"ars":8723,"enhanced":8724,"IONAL":8725,"Ġrue":8726,"Ġpulmon":8727,"ĠComplete":8728,"Ġobliteration":8729,"Ġhealthy":8730,"CABG":8731,"treatment":8732,"Ġdc":8733,"Ġreporting":8734,"ether":8735,"ĠHA":8736,"ĠHep":8737,"ĠReference":8738,"Ġpulmonic":8739,"reaks":8740,"Ġsits":8741,"Ġlevoscoliosis":8742,"ĠMDS":8743,"ire":8744,"mild":8745,"acath":8746,"Ġexud":8747,"Ġload":8748,"ĠHAS":8749,"Ġsublu":8750,"Ġarf":8751,"Ġthank":8752,"othro":8753,"Ġcreat":8754,"ĠProgression":8755,"ĠPalpitations":8756,"Ġcontents":8757,"Ġevalute":8758,"ĠSIZE":8759,"Ġdystrophy":8760,"DER":8761,"Dilated":8762,"aper":8763,"pan":8764,"Ġcrohns":8765,"Ġouter":8766,"Ġsfa":8767,"Ġcoli":8768,"Ġimpella":8769,"Ġscreen":8770,"Ġbulge":8771,"Ġsleep":8772,"Ġunresponsiveness":8773,"Ġordering":8774,"ĠPLCM":8775,"Distal":8776,"othroax":8777,"ĠPLCMT":8778,"Com":8779,"leural":8780,"ĠFO":8781,"Ġinterface":8782,"ĠSE":8783,"Ġalter":8784,"Pneumoperitoneum":8785,"Ġpharynx":8786,"ominate":8787,"Ġimplanted":8788,"Ġcystectomy":8789,"Ġradical":8790,"Ġneoadjuvant":8791,"Ġcongenital":8792,"Gaseous":8793,"NORMAL":8794,"bus":8795,"Ġparkins":8796,"Ġaka":8797,"ĠCrohn":8798,"ĠMILD":8799,"Ġworsen":8800,"rouble":8801,"Ġcollected":8802,"Ġbronchogram":8803,"Ġcircumstances":8804,"Ġpneu":8805,"Ġcycl":8806,"Ġamyloid":8807,"ancreatic":8808,"tin":8809,"onal":8810,"Ġts":8811,"Ġaz":8812,"axing":8813,"ĠCOMPARED":8814,"Ġmind":8815,"apid":8816,"alpositioned":8817,"Ġsmooth":8818,"Ġcholecystostomy":8819,"Ġwhiteout":8820,"ĠTrauma":8821,"Ġmassively":8822,"lobar":8823,"Ġladder":8824,"Ġweaning":8825,"Ġvagal":8826,"Ġphysiology":8827,"Ġbioprosthetic":8828,"Contrast":8829,"Placement":8830,"vasc":8831,"zone":8832,"align":8833,"abolic":8834,"ĠRUQ":8835,"Ġaca":8836,"ĠGreater":8837,"Ġlegion":8838,"Ġvertically":8839,"Abdominal":8840,"ĠHEART":8841,"Ġtimes":8842,"longation":8843,"inflammatory":8844,"Pers":8845,"Redemonstrated":8846,"Remaining":8847,"Ġtaper":8848,"Ġcartil":8849,"ĠALL":8850,"ĠSepsis":8851,"active":8852,"Ġpancyt":8853,"Ġaneurysms":8854,"Abnormal":8855,"Ġrevealing":8856,"arthritis":8857,"bronchoscopy":8858,"ĠCARDIO":8859,"Ġcortical":8860,"Ġtroponin":8861,",,":8862,"Cxr":8863,"Progression":8864,"Ġsal":8865,"Ġlysis":8866,"Ġpaf":8867,"ĠPers":8868,"ĠPossib":8869,"Ġthalamic":8870,"Ġassoc":8871,"rectal":8872,"Supine":8873,"Ġcordis":8874,"Ġtransfusions":8875,"Ġlaryngeal":8876,"Ġredistributed":8877,"Ġrepro":8878,"valve":8879,"Ġstump":8880,"ĠPt":8881,"Ġmanaged":8882,"Ġrp":8883,"Ġbronchiolitis":8884,"Ġexplains":8885,"ĠQA":8886,"ĠPartial":8887,"Ġfamily":8888,"Ġsclero":8889,"Background":8890,"Hiatal":8891,"ouch":8892,"imum":8893,"Ġinterposition":8894,"Ġgcs":8895,"Ġdish":8896,"ĠRest":8897,"urgery":8898,"Ġloculations":8899,"Still":8900,"Ġreferred":8901,"Ġschizoaffective":8902,"Ġinitiation":8903,"Htn":8904,"Platelike":8905,"bb":8906,"ts":8907,"orrect":8908,"ĠFullness":8909,"Ġappy":8910,"ĠVASC":8911,"Ġdisplay":8912,"RIOR":8913,"ĠRIJ":8914,"Col":8915,"iver":8916,"Ġurg":8917,"Ġmg":8918,"ulature":8919,"ĠAssociated":8920,"Ġhemopt":8921,"Ġspondyl":8922,"Ġunderwent":8923,"Ġstridor":8924,"Ġsystemic":8925,"Ġrestrained":8926,"Ġvertical":8927,"Ġelective":8928,"Ġspiked":8929,"Ġtah":8930,"ĠPRIOR":8931,"Ġmodal":8932,"Ġrr":8933,"Ġfalling":8934,"ocytic":8935,"Ġcollecting":8936,"Ġactually":8937,"Ġdifferentiate":8938,"Ġdecitabine":8939,"Thus":8940,"ĠGIB":8941,"RT":8942,"gered":8943,"ĠMEDIASTIN":8944,"Ġregressed":8945,"Ġinspirational":8946,"weakness":8947,"Ġnephritis":8948,"Ġtraction":8949,"Ġintoxicated":8950,"Metastatic":8951,"Ġpenetration":8952,"We":8953,"evaluation":8954,"pressed":8955,"diogram":8956,"ĠIR":8957,"ĠPlatelike":8958,"Ġabc":8959,"Ġmos":8960,"Ġanti":8961,"liver":8962,"ervic":8963,"erexpanded":8964,"Ġefffusion":8965,"Ġcraniotomies":8966,"Ġbrief":8967,"Ġfluoroscopic":8968,"ĠLeukocytosis":8969,"Ġide":8970,"itating":8971,"Ġnissen":8972,"inations":8973,"etoh":8974,"Ġcml":8975,"opharyngeal":8976,"Ġemp":8977,"Ġcomminuted":8978,"Ġintrapulm":8979,"ĠGeneralized":8980,"Ġmarginated":8981,"ylaxis":8982,"ĠHyperexpansion":8983,"Ġheights":8984,"Ġinterstial":8985,"Nonspecific":8986,"Ġlegionella":8987,"VIS":8988,"np":8989,"Ġai":8990,"Ġreally":8991,"ilical":8992,"INCE":8993,"Ġcondu":8994,"Ġuns":8995,"ĠPositive":8996,"ĠSINCE":8997,"ĠNORMAL":8998,"Ġendovascular":8999,"izures":9000,"Ġportacath":9001,"Ġafebrile":9002,"Ġbrachial":9003,"Ġmucoid":9004,"efer":9005,"Ġhalluc":9006,"Ġreproducible":9007,"Ġconduit":9008,"Pot":9009,"Worsened":9010,"sens":9011,"Ġput":9012,"Ġtka":9013,"Ġinterlobar":9014,"ĠThey":9015,"Ġmalposition":9016,"Ġ,.":9017,"Ġ60":9018,"Ġintraabdominal":9019,"Ġoccipital":9020,"Ġreassessment":9021,"Ġabuts":9022,"Ġthink":9023,"Ġreturning":9024,"Minor":9025,"ae":9026,"bm":9027,"ee":9028,"Ġendogastric":9029,"app":9030,"Ġatrioventricular":9031,"ĠVT":9032,"Ġapproximate":9033,"Stability":9034,"domen":9035,"Ġwarrants":9036,"ĠIndistinctness":9037,"Ġanatomic":9038,"Ġpregnant":9039,"Ġincarcerated":9040,"pancreas":9041,"Smaller":9042,"repair":9043,"Ġdraw":9044,"chond":9045,"pacemaker":9046,"ĠAL":9047,"Ġinfl":9048,"Ġasess":9049,"Ġliving":9050,"Ġtracheomalacia":9051,"Ġblunt":9052,"rown":9053,"Ġgram":9054,"ytoma":9055,"Ġpancytopenia":9056,"After":9057,"Dia":9058,"bowel":9059,"oinflated":9060,"odialysis":9061,"Ġtrouble":9062,"Ġbentall":9063,"ĠSame":9064,"ĠRCC":9065,"sep":9066,"ĠDATED":9067,"****":9068,"lasties":9069,"Ġworked":9070,"arthria":9071,"Ġdrip":9072,"chorous":9073,"Defin":9074,"Des":9075,"rection":9076,"Ġcra":9077,"arc":9078,"Ġbc":9079,"Ġvac":9080,"istaxis":9081,"Ġfeet":9082,"Ġsubjacent":9083,"Ġendo":9084,"Ġaortopulmonary":9085,"iventricular":9086,"Ġinjection":9087,"Ġsegments":9088,"duce":9089,"Ġtechnically":9090,"Review":9091,"Ġturned":9092,"Ġalternative":9093,"Ġeye":9094,"Ġlym":9095,"ĠCatheter":9096,"gested":9097,"Ġenough":9098,"Ġ25":9099,"Concurrent":9100,"Ġresponsive":9101,"ocystis":9102,"OS":9103,"Suspected":9104,"Ġpalc":9105,"Ġlam":9106,"ĠAnd":9107,"ĠEventration":9108,"ĠLoculated":9109,"apular":9110,"transplant":9111,"Ġultim":9112,"Ġerythema":9113,"Ġugi":9114,"Possibility":9115,"Ġcultures":9116,"Ġconceivably":9117,"End":9118,"brad":9119,"heart":9120,"Ġthem":9121,"enoma":9122,"Ġhorm":9123,"otopic":9124,"Ġexample":9125,"Ġabandoned":9126,"ĠHigh":9127,"cline":9128,"ralateral":9129,"Ġretrospect":9130,"Ġutis":9131,"ĠChain":9132,"ĠAppropriately":9133,"Ġtingling":9134,"Ġchemoradiation":9135,"Near":9136,"Type":9137,"nominate":9138,"Ġumb":9139,"Ġchor":9140,"Ġach":9141,"Ġeas":9142,"Ġstaph":9143,"Ġproduce":9144,"ĠHardware":9145,"ĠNP":9146,"ĠNAS":9147,"roup":9148,"dered":9149,"Ġembolectomy":9150,"Ġsituated":9151,"Developing":9152,"ĠAdvancement":9153,"Ġddrt":9154,"ervicothoracic":9155,"Ġreco":9156,"Ġspur":9157,"ĠDespite":9158,"Ġscr":9159,"Ġamong":9160,"Ġ90":9161,"Ġnoncardiogenic":9162,"Ġpseudocyst":9163,"bserved":9164,"ĠMetallic":9165,"roadenoma":9166,"Ġeosinophilia":9167,"Ġarchitectural":9168,"Ġperibronchovascular":9169,"ĠVASCULAR":9170,"Eventration":9171,"Layering":9172,"oot":9173,"Ġcrep":9174,"Ġpin":9175,"itud":9176,"Ġfin":9177,"ffee":9178,"Ġstone":9179,"Ġdeeper":9180,"ĠEdema":9181,"Ġmidportion":9182,"Ġneedle":9183,"Ġcooling":9184,"Ġcoffee":9185,"Ġpleurisy":9186,"rds":9187,"Ġdextroconvex":9188,"Ġguided":9189,"Ġpurp":9190,"vanced":9191,"ĠPneumomediastinum":9192,"Ġanastamosis":9193,"Ards":9194,"cular":9195,"Ġpig":9196,"Ġtw":9197,"Ġinr":9198,"Ġstation":9199,"ipated":9200,"ectomies":9201,"Ġassum":9202,"aple":9203,"lobulin":9204,"Ġfrequency":9205,"oars":9206,"Ġcoarsened":9207,"ythmia":9208,"Ġimportant":9209,"Ġcartilage":9210,"Ġhormone":9211,"lain":9212,"reath":9213,"Ġebus":9214,"angio":9215,"Ġgj":9216,"Ġcrt":9217,"Ġplateau":9218,"iodic":9219,"ĠHypertension":9220,"Advancement":9221,"Ġelectronic":9222,"ĠAirspace":9223,"Ġrsxn":9224,"Ġarrival":9225,"ued":9226,"ret":9227,"Ġmat":9228,"ĠPlacement":9229,"creting":9230,"ĠRightward":9231,"Ġalongside":9232,"ĠCHANG":9233,"Ġ___%),":9234,"ILAR":9235,"ĠPleuritic":9236,"Ġsecured":9237,"Ġmacroadenoma":9238,"Confluent":9239,"Ġica":9240,"pneumo":9241,"Ġculture":9242,"Ġurgency":9243,"MA":9244,"vailable":9245,"Ġpontine":9246,"orbid":9247,"Ġsolid":9248,"Ġmeds":9249,"Ġbb":9250,"emoval":9251,"graft":9252,"ĠProgressive":9253,"ĠLAD":9254,"Ġalzheimer":9255,"odule":9256,"rainage":9257,"Ġmetabolic":9258,"Ġileoce":9259,"Thank":9260,"described":9261,"Ġtriggered":9262,"Ġdiuretics":9263,"Ġdeficits":9264,"Pls":9265,"Progressive":9266,"PFI":9267,"kidney":9268,"Ġao":9269,"shortness":9270,"Ġdysarthria":9271,"IAC":9272,"Ġspike":9273,"ronchiolar":9274,"Ġtpc":9275,"Difficulty":9276,"ĠPROVIS":9277,"Ġreturns":9278,"Ġinhalation":9279,"Ġrami":9280,"ĠPROVISIONAL":9281,"induced":9282,"Ġtrem":9283,"edemonstration":9284,"ĠLymph":9285,"ĠBackground":9286,"Ġ48":9287,"ecause":9288,"Ġepistaxis":9289,"Ġevar":9290,"Recommendations":9291,"Ġreportedly":9292,"Ġimping":9293,"jecting":9294,"Ġbullet":9295,"Ġtrigger":9296,"ĠOPAC":9297,"Ġunsuccessful":9298,"Costophrenic":9299,"Ns":9300,"bular":9301,"wet":9302,"Ġmen":9303,"urrence":9304,"ĠCoarse":9305,"Ġunless":9306,"secreting":9307,"izziness":9308,"Intact":9309,"Ġunderinflated":9310,"Ġmyot":9311,"duoden":9312,"Ġmeningioma":9313,"Ġproblem":9314,"Ġechocardiogram":9315,"oparenchymal":9316,"Ġhyperdensity":9317,"Ġhallucinations":9318,"Ġpubic":9319,"ited":9320,"oux":9321,"Ġforp":9322,"Ġunint":9323,"Ġproduct":9324,"derma":9325,"Ġperiodic":9326,"ecal":9327,"ximab":9328,"Ġpads":9329,"Ġacquisition":9330,"Ġspeaking":9331,"Ġimmunosuppress":9332,"Ġmesentery":9333,"Medial":9334,"SVC":9335,"Ġapsingle":9336,"Ġcontralateral":9337,"clamp":9338,"opsy":9339,"ĠGaseous":9340,"shot":9341,"Ġgastrojejunostomy":9342,"Ġdiameters":9343,"ĠUPPER":9344,"Ġamyloidosis":9345,"Ġcirculation":9346,"Lobe":9347,"Ġbeginning":9348,"Early":9349,"Asc":9350,"OW":9351,"Or":9352,"RON":9353,"tal":9354,"Ġ*":9355,"onitis":9356,"Ġlq":9357,"Ġpneumost":9358,"ĠCo":9359,"ĠCombination":9360,"ensities":9361,"ĠLeftward":9362,"cythe":9363,"Ġhepatectomy":9364,"Ġdiscontinuation":9365,"Ġdelayed":9366,"Ġasth":9367,"tinent":9368,"Ġpalcement":9369,"Ġultimately":9370,"cythemia":9371,"Probably":9372,"Skin":9373,"Thorac":9374,"riding":9375,"umbar":9376,"Ġdoboff":9377,"Ġcurve":9378,"Ġcalf":9379,"ULD":9380,"Ġecchym":9381,"bladder":9382,"Definite":9383,"rupt":9384,"Ġaff":9385,"Ġwaxing":9386,"Ġhold":9387,"Ġexac":9388,"Ġpneumocystis":9389,"ĠCM":9390,"ĠCar":9391,"ĠPain":9392,"Ġmanub":9393,"ĠLOB":9394,"ĠTIA":9395,"Ġperit":9396,"oster":9397,"Ġretri":9398,"Ġdistance":9399,"ĠWh":9400,"infiltrates":9401,"ĠOnly":9402,"ruption":9403,"lattening":9404,"bing":9405,"evalu":9406,"knife":9407,"ĠFree":9408,"Ġuniform":9409,"Ġordered":9410,"ultation":9411,"ogn":9412,"lacing":9413,"Ġflat":9414,"Ġlocalization":9415,"Ġwhereas":9416,"Ġbandlike":9417,"Ġ(___),":9418,"Thickening":9419,"Ġmanifested":9420,"Ġanticipated":9421,"Ġcyber":9422,"ĠCARDIOM":9423,"ai":9424,"volving":9425,"Ġcervicothoracic":9426,"Ġinduction":9427,"Ġmonit":9428,"ctur":9429,"Ġstop":9430,"adone":9431,"Ġinform":9432,"Ġprev":9433,"ĠMIE":9434,"apse":9435,"Ġprostheses":9436,"Shortness":9437,"Ġanticoagulated":9438,"Ġdenot":9439,"Ġrestricted":9440,"Ġestimated":9441,"Possibly":9442,"Ġappendage":9443,"Ġmonitored":9444,"cturnal":9445,"Cause":9446,"Density":9447,"MENT":9448,"ture":9449,"ĠXR":9450,"Ġtext":9451,"ario":9452,"Ġvi":9453,"Ġvomit":9454,"Ġonline":9455,"Ġalc":9456,"ĠRV":9457,"Ġcolo":9458,"Ġessential":9459,"Ġfossa":9460,"Ġscenario":9461,"Ġhypercap":9462,"Ġperibronchiolar":9463,"GESTION":9464,"Ġtsicu":9465,"Ġcrepitus":9466,"Semi":9467,"hodgkin":9468,"odic":9469,"Ġia":9470,"aturation":9471,"Ġausc":9472,"Ġwaning":9473,"Ġmon":9474,"Ġuncomplicated":9475,"ĠLI":9476,"ositis":9477,"ĠNot":9478,"roma":9479,"Ġvisc":9480,"infold":9481,"ucous":9482,"Ġintracavitary":9483,"ĠMarkedly":9484,"CMO":9485,"Ġsustained":9486,"Ġmicronodular":9487,"rate":9488,"Ġaware":9489,"Ġingested":9490,"Ġconclusive":9491,"Ġloose":9492,"Ġsubq":9493,"Ġclog":9494,"Ġbronchoscopic":9495,"range":9496,"Ġmrcp":9497,"abetes":9498,"fibrosis":9499,"bsi":9500,"Ġpsor":9501,"Ġpolycythemia":9502,"supine":9503,"any":9504,"Ġvf":9505,"Ġevaluating":9506,"Ġgun":9507,"avy":9508,"liative":9509,"Ġcrrt":9510,"Ġpatent":9511,"Ġunexpected":9512,"Ġoriginally":9513,"ĠPneumoperitoneum":9514,"eferring":9515,"Cont":9516,"Surg":9517,"Ġws":9518,"Ġexchanged":9519,"osum":9520,"strument":9521,"Ġsupple":9522,"ĠDizziness":9523,"Ġexpect":9524,"ĠCongestive":9525,"Ġflexion":9526,"aminitis":9527,"Ġdemand":9528,"healing":9529,"Ġmagnified":9530,"lobulinemia":9531,"DU":9532,"Radiopaque":9533,"cious":9534,"itting":9535,"ĠEquivocal":9536,"nother":9537,"econd":9538,"ĠAtrial":9539,"Ġclipping":9540,"appeared":9541,"bsiella":9542,"Gastric":9543,"ched":9544,"dient":9545,"Ġinspir":9546,"Ġ___).":9547,"Ġoften":9548,"Ġcompens":9549,"Ġcardipulm":9550,"Ġrl":9551,"Ġpostradiation":9552,"Ġworking":9553,"ages":9554,"Ġexpiration":9555,"issures":9556,"Ġzoster":9557,"Ġgradient":9558,"Ġaccessed":9559,"Ġangioedema":9560,"Ġpalliative":9561,"Ġsimply":9562,"ypsnea":9563,"Ġcluster":9564,"Ġdesaturating":9565,"Ġcholedochol":9566,"Fib":9567,"Somewhat":9568,"ĠECMO":9569,"Ġplav":9570,"liest":9571,"ĠDilated":9572,"Ġearliest":9573,"Ġacet":9574,"ickman":9575,"roplasties":9576,"ĠUpdated":9577,"Ġcrush":9578,"Ġclosely":9579,"ĠPreop":9580,"Ġuter":9581,"Ġpnem":9582,"Ġsubluxation":9583,"Ep":9584,"Val":9585,"pEF":9586,"Ġig":9587,"Ġwti":9588,"iccu":9589,"Ġstated":9590,"ĠTelephone":9591,"ĠMinor":9592,"Ġassessing":9593,"identified":9594,"Ġconcerns":9595,"Ġquestions":9596,"areful":9597,"Ġquadriple":9598,"Ġparast":9599,"ĠORIF":9600,"Ġcareful":9601,"Ġperitracheal":9602,"ognitive":9603,"Ġwtih":9604,"blo":9605,"Ġphe":9606,"Ġdypsnea":9607,"ĠCLE":9608,"istant":9609,"Ġconscious":9610,"Ġappet":9611,"ĠSuture":9612,"Ġgroup":9613,"houlder":9614,"cyc":9615,"Ġprogress":9616,"clavicular":9617,"Ġcomplains":9618,"Ġflail":9619,"Ġboch":9620,"Ġmedically":9621,"Ġused":9622,"Ġhodgkins":9623,"Ġmicro":9624,"Ġosteoarthritis":9625,"omitant":9626,"hcv":9627,"evaluated":9628,"mediastinum":9629,"Ġcovered":9630,"Ġmt":9631,"Ġstaple":9632,"Ġnocturnal":9633,"Ġposttraumatic":9634,"Ġcmv":9635,"liance":9636,"eck":9637,"Ġoccluded":9638,"Ġbilirubin":9639,"Ġcyberknife":9640,"Ġbochdalek":9641,"ograph":9642,"yncopal":9643,"atro":9644,"atoce":9645,"Ġdy":9646,"ĠLayering":9647,"ĠHila":9648,"Ġarrange":9649,"Ġfibr":9650,"thop":9651,"Ġeffac":9652,"Ġbrb":9653,"Ġimmune":9654,"Ġchildhood":9655,"Ġsuicide":9656,"itudinal":9657,"HT":9658,"currently":9659,"fet":9660,"reb":9661,"lebsiella":9662,"Ġsz":9663,"Ġflowing":9664,"omatous":9665,"Ġbanding":9666,"Ġbrown":9667,"emoral":9668,"egional":9669,"outh":9670,"Ġincreasingly":9671,"Ġamounts":9672,"explor":9673,"Ġcharacteristic":9674,"pidural":9675,"Ġencephalitis":9676,"Effusions":9677,"Ġpointed":9678,"Direct":9679,"Ġllq":9680,"ococcal":9681,"Comment":9682,"Ġhemoptx":9683,"ĠLOBE":9684,"Ġretrieval":9685,"Ġplavix":9686,"me":9687,"Ġcecal":9688,"Ġinnominate":9689,"Ġcomprom":9690,"Ġmanip":9691,"ectus":9692,"ĠLingular":9693,"Ġreasonably":9694,"Ġpulse":9695,"Ġconfirms":9696,"Ġhoff":9697,"Ġlongitudinal":9698,"Ġrequesting":9699,"ĠDiffusely":9700,"Pericardial":9701,"Ġkyphoplasty":9702,"Ġoperation":9703,"Ġspleen":9704,"Ġgreatly":9705,"ancreatitis":9706,"EG":9707,"She":9708,"ĠY":9709,"lec":9710,"Ġraised":9711,"Ġnormalized":9712,"Ġhair":9713,"Ġexacerbated":9714,"ĠTrans":9715,"Ġroof":9716,"Ġfaintly":9717,"Recently":9718,"Ġinterpreted":9719,"Ġparkinsons":9720,"Asthma":9721,"pain":9722,"Ġwitnessed":9723,"spe":9724,"Ġgem":9725,"Ġexpansile":9726,"days":9727,"Ġrelating":9728,"Ġtransaminitis":9729,"Apart":9730,"Ġdecr":9731,"Diffusely":9732,"Calcific":9733,"Ġretroperitoneal":9734,"Ġsplenomegaly":9735,"Ġiiib":9736,"Ġmethadone":9737,"ĠHFpEF":9738,"Ġflushing":9739,"Am":9740,"bul":9741,"matic":9742,"wks":9743,"Ġwounds":9744,"Ġapix":9745,"ĠPVD":9746,"Ġsubstance":9747,"apical":9748,"Ġdifferentiated":9749,"Ġsubtly":9750,"Ġ@___":9751,"Ġoccasion":9752,"Ġparalleling":9753,"Ġstraight":9754,"NORMALITY":9755,"Ġbcg":9756,"(___":9757,"interstitial":9758,"strophy":9759,"olization":9760,"ĠPRE":9761,"ants":9762,"Ġhemiarth":9763,"Ġreflection":9764,"odystrophy":9765,"Ġeva":9766,"Ġpleuroparenchymal":9767,"Ġcpap":9768,"Ġbrachy":9769,"Ġosteodystrophy":9770,"Ġdistorted":9771,"Ġcorevalve":9772,"Ġdramatic":9773,"Ġtinged":9774,"DERATE":9775,",___":9776,"Course":9777,"ECT":9778,"ira":9779,"vas":9780,"Ġreached":9781,"Ġsection":9782,"rought":9783,"ĠWhether":9784,"Ġregression":9785,"Ġcavitated":9786,"sedated":9787,"ĠPeribronchial":9788,"Ġgallbladder":9789,"SSA":9790,"Ġskinfold":9791,"ĠMODERATE":9792,"Vertebral":9793,"Ġureteral":9794,"volemia":9795,"CREAS":9796,"Ġumbilical":9797,"Ġecchymosis":9798,"Ġappetite":9799,"atrogenic":9800,"PC":9801,"eam":9802,"ie":9803,"nition":9804,"placement":9805,"indeterminate":9806,"Ġcat":9807,"Ġcbd":9808,"Ġeu":9809,"Ġthecavoatrial":9810,"Ġmouth":9811,"ĠContrast":9812,"ĠMSSA":9813,"ĠBronchial":9814,"Ġfluct":9815,"Ġshifting":9816,"Ġradiologic":9817,"Ġmaintained":9818,"Ġsmoke":9819,"Ġlooping":9820,"Ġtechnologist":9821,"Ġasbestosis":9822,"Ġrecognition":9823,"Ġsuccessive":9824,"duodenal":9825,"Dyspnea":9826,"Even":9827,"da":9828,"focal":9829,"gether":9830,"Ġinstrument":9831,"Ġlit":9832,"ingo":9833,"Ġhiccu":9834,"Ġtogether":9835,"Ġchb":9836,"Ġproven":9837,"osi":9838,"oxemia":9839,"Ġmyotomy":9840,"Scoliosis":9841,"Ġnonde":9842,"IDEN":9843,"Ġuop":9844,"Ġupwards":9845,"Ġaspergillus":9846,"Ġproctectomy":9847,"->":9848,"Lymph":9849,"vessel":9850,"Ġftt":9851,"Ġmud":9852,"acin":9853,"astic":9854,"Ġplz":9855,"Ġcanal":9856,"ĠIntermittent":9857,"Ġiatrogenic":9858,"Ġconfused":9859,"Ġrelax":9860,"Ġcabgx":9861,"epime":9862,"Following":9863,"Ġgradually":9864,"Ġmedullary":9865,"Ġtapered":9866,"cycle":9867,"Equivocal":9868,"dec":9869,"lox":9870,"oice":9871,"ppd":9872,"Ġtargeted":9873,"Ġlif":9874,"Ġmemb":9875,"ottic":9876,"Ġintervening":9877,"ĠPa":9878,"Ġgot":9879,"ĠRemaining":9880,"orrhage":9881,"oliotic":9882,"weats":9883,"ĠRECENT":9884,"carbic":9885,"ĠCompare":9886,"Ġsleeve":9887,"Ġtesticular":9888,"Ġcarcinoid":9889,"OLID":9890,"occipital":9891,"Ġexceeding":9892,"Ġmodality":9893,"Can":9894,"Place":9895,"Ġsalp":9896,"inger":9897,"Ġvad":9898,"Ġduration":9899,"Ġviewed":9900,"ĠRN":9901,"ĠStomach":9902,"ĠGrossly":9903,"ĠTransesophageal":9904,"ILAT":9905,"Ġparamedian":9906,"Ġcircumscribed":9907,"ĠLUNGS":9908,"Ġpenum":9909,"ĠHemoptysis":9910,"Ġtendin":9911,"COPD":9912,"ĠCONSOLID":9913,"ngorgement":9914,"Ġcrash":9915,"oarsened":9916,"ĠWhipple":9917,"ĠCLEAR":9918,"Ġnondedicated":9919,"diagn":9920,"omer":9921,"Ġpneumatoce":9922,"Ġproph":9923,"Ġmod":9924,"Ġdig":9925,"ĠHodgkin":9926,"osing":9927,"ĠRFA":9928,"Ġneeding":9929,"Ġkerley":9930,"ivation":9931,"Ġ45":9932,"ĠGastric":9933,"Ġinvolved":9934,"Ġradiopacity":9935,"Ġepisodic":9936,"Ġincisional":9937,"Distended":9938,"Ġswallowed":9939,"Suggestion":9940,"Nsr":9941,"ĠCarina":9942,"Due":9943,"iscule":9944,"diaph":9945,"Ġveg":9946,"ĠAre":9947,"ĠProsthetic":9948,"Ġcardiomediastinum":9949,"Ġanu":9950,"Ġpostprocedural":9951,"ĠRotated":9952,"Ġmini":9953,"Ġcorpectomy":9954,"infectious":9955,"Ġaccording":9956,"Ġcpr":9957,"ĠConcurrent":9958,"Ġintermittently":9959,"Ġoptim":9960,"oked":9961,"Ġterminal":9962,"Ġcertainty":9963,"partum":9964,"Ġlami":9965,"Ġuterine":9966,"Ġsalpingo":9967,"ĠCONSOLIDATION":9968,"Current":9969,"Dx":9970,"Rll":9971,"Tips":9972,"Ġbrought":9973,"ĠSIL":9974,"opulm":9975,"Ġdisloc":9976,"UET":9977,"ĠDHT":9978,"physema":9979,"Ġcaval":9980,"tebroplasty":9981,"Ġadditionally":9982,"Ġhydration":9983,"Ġagent":9984,"ITION":9985,"Sclerotic":9986,"ĠPeripheral":9987,"Ġburden":9988,"ĠMOST":9989,"ilatation":9990,"Ġblasts":9991,"vasculature":9992,"brady":9993,"Gross":9994,"Telephone":9995,"bag":9996,"lad":9997,"rathe":9998,"Ġmim":9999}